<pad>	0
<unk>	0
unused_0	0
unused_1	0
unused_2	0
unused_3	0
unused_4	0
unused_5	0
unused_6	0
unused_7	0
unused_8	0
unused_9	0
unused_10	0
unused_11	0
unused_12	0
unused_13	0
.	-3.10637
▁the	-3.27461
,	-3.3072
▁of	-3.84934
s	-3.97054
▁in	-4.03337
▁and	-4.18009
▁a	-4.27802
▁(	-4.59832
▁to	-4.69738
-	-4.71105
▁"	-4.78745
▁	-4.95022
▁was	-4.98518
▁is	-4.99649
)	-5.06623
:	-5.17197
▁on	-5.21092
'	-5.32023
▁for	-5.3372
".	-5.41904
▁as	-5.43453
▁at	-5.4668
▁by	-5.48616
▁retrieved	-5.48621
▁he	-5.49205
▁from	-5.5853
▁with	-5.68087
"	-5.7045
e	-5.84304
▁it	-5.87348
a	-5.9089
▁an	-6.04297
▁-	-6.0449
▁his	-6.04864
n	-6.10227
/	-6.17989
in	-6.28109
;	-6.30058
).	-6.35758
▁–	-6.36461
▁that	-6.36662
d	-6.45043
i	-6.47399
▁new	-6.5012
ing	-6.519
▁p	-6.5322
ed	-6.55361
com	-6.58522
▁are	-6.60665
t	-6.61584
▁de	-6.63316
▁has	-6.67832
▁first	-6.69319
▁which	-6.69903
▁also	-6.7007
o	-6.71299
▁or	-6.72963
▁may	-6.75607
▁were	-6.76528
th	-6.77133
▁this	-6.77226
er	-6.78203
▁be	-6.79298
▁national	-6.79811
),	-6.82303
y	-6.82842
▁1	-6.85524
▁she	-6.88004
▁one	-6.90682
▁who	-6.93371
c	-6.95652
m	-6.9627
▁university	-6.99544
▁its	-6.99911
▁after	-7.00661
▁2	-7.06401
▁world	-7.07215
▁two	-7.07275
▁her	-7.07577
▁m	-7.0907
▁had	-7.09387
▁school	-7.10296
▁archived	-7.11006
▁march	-7.12107
▁&	-7.14425
▁original	-7.16752
▁american	-7.17097
▁/	-7.17159
▁3	-7.17552
▁all	-7.18172
▁january	-7.18274
w	-7.18421
the	-7.18953
b	-7.22221
▁i	-7.2264
▁their	-7.23033
▁united	-7.23167
ly	-7.2318
▁c	-7.23476
▁august	-7.23522
▁july	-7.23737
▁but	-7.24248
▁june	-7.24624
▁april	-7.25109
▁october	-7.26301
es	-7.26419
▁state	-7.26467
▁december	-7.27386
▁september	-7.2782
k	-7.28289
▁isbn	-7.28489
▁film	-7.29517
born	-7.29569
▁south	-7.29579
▁november	-7.30717
r	-7.31684
▁d	-7.31804
▁county	-7.33637
▁district	-7.34136
▁february	-7.35232
▁4	-7.35467
l	-7.36189
▁not	-7.36681
en	-7.37102
▁list	-7.3768
▁city	-7.38215
▁team	-7.39279
▁b	-7.4001
▁e	-7.40034
▁north	-7.41263
▁been	-7.4242
al	-7.42536
▁states	-7.43244
▁j	-7.43833
▁v	-7.4415
▁they	-7.44996
▁during	-7.45145
▁u	-7.46102
]	-7.46406
h	-7.46591
▁no	-7.46814
man	-7.46846
://	-7.4721
g	-7.47305
▁s	-7.47864
▁have	-7.4808
▁other	-7.49152
▁la	-7.50075
▁g	-7.50454
▁football	-7.50911
▁league	-7.51196
p	-7.51675
▁5	-7.52341
▁time	-7.52856
an	-7.5287
us	-7.53828
▁john	-7.54415
▁part	-7.54516
▁album	-7.55778
▁known	-7.55788
▁family	-7.56387
▁2018.	-7.56525
▁played	-7.569
▁years	-7.57088
▁when	-7.57089
▁history	-7.57515
▁season	-7.58215
▁species	-7.59492
▁there	-7.60022
u	-7.60191
▁re	-7.61501
▁over	-7.61754
z	-7.61892
▁up	-7.62262
▁music	-7.62378
▁l	-7.62501
▁10	-7.62679
▁under	-7.62759
f	-7.62774
▁2017.	-7.63608
▁into	-7.63811
▁6	-7.64266
▁where	-7.64897
▁station	-7.65655
▁international	-7.65745
▁year	-7.65984
▁2016.	-7.66472
▁york	-7.66989
▁t	-7.6741
▁three	-7.67428
▁village	-7.67765
on	-7.67868
▁r	-7.68078
▁16	-7.68128
▁name	-7.68616
j	-7.68742
▁war	-7.68789
▁official	-7.69369
▁st	-7.69755
st	-7.70238
▁can	-7.71234
de	-7.71711
▁2015.	-7.71766
▁club	-7.72226
▁k	-7.72276
▁second	-7.73139
▁between	-7.7345
▁about	-7.73498
▁house	-7.74801
▁7	-7.74928
▁born	-7.75145
pdf	-7.75218
▁8	-7.75423
▁west	-7.76249
▁al	-7.76386
▁15	-7.7711
▁press	-7.77625
▁park	-7.77693
▁2014.	-7.78025
▁website	-7.78173
▁located	-7.78239
x	-7.78374
▁company	-7.7873
▁http	-7.79073
▁co	-7.7911
1	-7.79135
▁made	-7.80107
▁12	-7.80186
▁more	-7.80414
▁9	-7.80627
▁high	-7.81138
▁only	-7.8138
▁area	-7.82016
▁won	-7.82053
▁later	-7.82124
na	-7.82235
▁f	-7.82589
▁college	-7.82688
co	-7.82761
▁h	-7.82916
▁out	-7.83616
▁became	-7.84212
▁w	-7.84446
▁series	-7.84677
▁group	-7.84889
▁most	-7.85022
www	-7.85119
to	-7.8606
▁population	-7.86448
ia	-7.86555
▁member	-7.8662
re	-7.86633
▁2012	-7.87066
▁o	-7.87218
▁2011	-7.88139
▁river	-7.88828
▁20	-7.88944
▁17	-7.89349
▁2010	-7.89415
le	-7.89634
▁2013.	-7.89823
▁town	-7.90262
▁service	-7.90958
▁times	-7.91155
▁released	-7.91412
▁song	-7.91689
▁london	-7.9309
▁18	-7.93477
ta	-7.93493
▁until	-7.93573
▁n	-7.93708
▁2016	-7.94049
▁information	-7.94211
▁11	-7.94327
▁used	-7.946
▁13	-7.95306
▁'	-7.95323
▁people	-7.95522
▁2012.	-7.95771
▁british	-7.96006
▁mi	-7.96153
▁14	-7.96716
▁system	-7.96766
▁through	-7.9704
▁km	-7.97367
▁former	-7.97451
no	-7.97501
▁2017	-7.97643
▁church	-7.98168
▁east	-7.98415
▁player	-7.98422
▁2018	-7.98495
v	-7.98658
▁2013	-7.98666
la	-7.98683
",	-7.99536
▁some	-7.99722
▁2014	-8.0052
–	-8.01419
▁2009	-8.01834
▁before	-8.0206
▁2008	-8.02125
▁including	-8.02753
▁band	-8.02966
▁since	-8.03397
ton	-8.03571
’	-8.03702
▁2015	-8.03809
▁well	-8.03859
▁best	-8.04317
▁historic	-8.04415
or	-8.04846
▁cup	-8.05256
▁general	-8.05336
▁four	-8.05575
▁place	-8.05584
▁register	-8.05903
▁german	-8.06809
▁so	-8.07095
is	-8.07105
▁following	-8.07188
▁census	-8.07251
▁being	-8.07969
▁home	-8.08166
▁found	-8.08468
org	-8.08833
▁[	-8.08858
▁then	-8.0904
ar	-8.09135
▁=	-8.094
▁served	-8.09618
▁19	-8.09757
▁public	-8.10018
ma	-8.10106
▁french	-8.10456
▁women	-8.10652
▁number	-8.10655
▁men	-8.10906
▁2011.	-8.11424
▁game	-8.11561
▁games	-8.11844
▁department	-8.1195
▁many	-8.12188
▁life	-8.12297
▁portal	-8.1268
▁work	-8.12837
▁man	-8.12881
▁government	-8.13081
▁english	-8.13592
▁him	-8.14336
▁against	-8.14539
.;	-8.14994
▁named	-8.15048
da	-8.15159
2	-8.15247
▁while	-8.15671
el	-8.15734
▁party	-8.15979
▁than	-8.16088
▁book	-8.16382
▁both	-8.17087
▁line	-8.17385
ch	-8.17475
▁25	-8.17609
▁top	-8.18077
▁art	-8.18328
▁news	-8.18466
▁division	-8.18797
▁san	-8.18814
▁association	-8.19438
ne	-8.19472
▁30	-8.19648
▁road	-8.19838
▁2007	-8.20252
ca	-8.20624
▁held	-8.20848
▁india	-8.20876
▁22	-8.20988
▁age	-8.2123
▁21	-8.21294
▁such	-8.21421
▁award	-8.21999
▁single	-8.22549
▁long	-8.22569
ka	-8.22846
▁sports	-8.2292
▁office	-8.23333
▁coordinates	-8.23995
▁son	-8.24053
=	-8.24104
▁ed	-8.24401
▁2006	-8.24499
▁career	-8.25155
▁title	-8.25234
▁society	-8.25438
▁will	-8.2551
▁championship	-8.25858
▁me	-8.26187
▁now	-8.26257
▁site	-8.26452
▁24	-8.26476
te	-8.26509
id	-8.27022
▁england	-8.27063
▁australian	-8.27328
▁central	-8.27399
▁built	-8.27848
▁23	-8.2795
▁per	-8.28089
▁several	-8.2833
▁council	-8.28828
▁died	-8.28986
▁australia	-8.29432
ley	-8.29459
▁william	-8.2972
▁would	-8.29991
▁building	-8.30005
▁final	-8.30006
ra	-8.3019
▁le	-8.30462
▁pp	-8.30925
▁local	-8.31028
▁early	-8.31291
▁do	-8.31339
it	-8.31459
▁record	-8.31665
▁ii	-8.3176
uk	-8.31762
▁el	-8.31814
▁end	-8.31941
ers	-8.3223
▁david	-8.32633
▁museum	-8.32718
▁journal	-8.33228
▁red	-8.33248
▁2010.	-8.33409
son	-8.33639
_	-8.3366
land	-8.33746
▁refer	-8.34328
▁president	-8.3478
▁election	-8.34973
▁province	-8.35401
▁26	-8.35592
▁republic	-8.35612
▁names	-8.3583
▁27	-8.35926
▁called	-8.36559
▁published	-8.36713
▁28	-8.36727
▁based	-8.36831
▁land	-8.37132
nd	-8.37181
▁doi	-8.37283
▁radio	-8.37631
▁center	-8.37633
▁island	-8.38038
▁un	-8.3873
▁iran	-8.38779
▁main	-8.3912
▁james	-8.39401
▁post	-8.39576
▁each	-8.39889
▁community	-8.39909
▁day	-8.40267
▁back	-8.40729
▁show	-8.40858
▁small	-8.41317
▁professional	-8.41572
ic	-8.41653
▁media	-8.41764
▁round	-8.42051
▁play	-8.42131
▁go	-8.42181
as	-8.42323
ro	-8.42441
▁canada	-8.42625
▁america	-8.42657
▁director	-8.4329
▁research	-8.43387
▁white	-8.44495
▁1,	-8.44564
▁records	-8.44692
▁29	-8.452
▁head	-8.45284
▁di	-8.45505
▁these	-8.45586
▁same	-8.45767
▁railway	-8.45814
▁black	-8.45934
▁george	-8.45957
▁last	-8.46398
▁country	-8.46458
▁century	-8.46578
▁you	-8.47112
▁union	-8.47179
net	-8.47272
▁hall	-8.4759
▁database	-8.47632
▁royal	-8.47748
▁california	-8.47854
ni	-8.48003
▁2019.	-8.48078
▁lake	-8.48205
▁region	-8.48218
ie	-8.48443
▁air	-8.48671
▁law	-8.4886
▁www	-8.48939
▁western	-8.49153
▁street	-8.49456
▁side	-8.49898
▁robert	-8.5005
▁include	-8.50181
▁television	-8.50331
▁major	-8.50431
▁king	-8.50583
▁institute	-8.5103
▁|	-8.51031
▁summer	-8.51031
ry	-8.5119
▁y	-8.51271
ist	-8.51322
▁third	-8.51567
▁near	-8.51582
▁du	-8.51778
▁results	-8.51802
(	-8.51891
▁us	-8.52126
&	-8.5213
▁places	-8.52194
▁however	-8.53257
▁children	-8.53311
▁received	-8.53382
▁review	-8.53448
at	-8.53477
▁business	-8.53526
am	-8.53558
▁death	-8.53685
ba	-8.53769
ian	-8.54172
▁five	-8.54263
▁old	-8.54284
se	-8.54305
▁machine	-8.54445
▁took	-8.54715
▁rock	-8.54719
▁began	-8.5473
▁france	-8.54825
up	-8.5585
▁water	-8.55999
go	-8.56237
▁needed	-8.57133
▁members	-8.57136
▁page	-8.5755
▁profile	-8.57637
▁en	-8.5768
ja	-8.57692
▁around	-8.58039
▁great	-8.58096
▁along	-8.58283
▁car	-8.58529
▁married	-8.587
▁set	-8.58771
▁within	-8.58931
ri	-8.59695
▁love	-8.59766
▁japanese	-8.59865
um	-8.60147
et	-8.60215
▁star	-8.60382
▁science	-8.60478
▁et	-8.60543
▁education	-8.60563
▁thomas	-8.61024
▁northern	-8.61084
be	-8.61156
?	-8.61359
ge	-8.61605
▁italian	-8.61963
▁sea	-8.62047
▁paul	-8.62116
▁2009.	-8.62234
▁canadian	-8.62254
li	-8.62258
▁tv	-8.62743
▁31	-8.62759
3	-8.62773
▁moved	-8.62849
▁left	-8.62851
▁field	-8.62867
▁form	-8.63177
▁development	-8.63266
▁spanish	-8.63469
▁father	-8.63683
me	-8.63769
di	-8.63863
▁debut	-8.63973
il	-8.6407
ha	-8.641
▁order	-8.6494
[	-8.65092
▁european	-8.65407
▁x	-8.65632
▁my	-8.65789
▁project	-8.6592
▁army	-8.66189
▁indian	-8.66392
▁open	-8.66685
q	-8.6673
▁olympics	-8.67013
▁court	-8.67082
▁library	-8.67229
rd	-8.67637
▁version	-8.67762
▁elected	-8.67772
▁short	-8.6812
▁100	-8.68281
▁pro	-8.68319
▁magazine	-8.68342
▁southern	-8.68539
▁michael	-8.68647
▁like	-8.68805
)".	-8.69157
▁politician	-8.69242
▁founded	-8.69336
▁awards	-8.69384
▁books	-8.69416
ko	-8.69428
sa	-8.69744
▁charles	-8.69777
▁imdb	-8.70187
▁championships	-8.70216
au	-8.70257
by	-8.7043
▁coach	-8.70727
▁genus	-8.70819
▁down	-8.70911
▁them	-8.71377
▁board	-8.71393
▁van	-8.71468
os	-8.72086
▁da	-8.72208
▁young	-8.72517
▁use	-8.7252
do	-8.73005
▁academy	-8.73184
den	-8.73358
▁z	-8.73602
▁live	-8.7365
▁tournament	-8.73921
▁video	-8.74083
▁due	-8.74175
pa	-8.74183
▁written	-8.74185
▁worked	-8.74282
▁currently	-8.7435
▁municipality	-8.74379
▁win	-8.74438
▁total	-8.74454
▁link	-8.74494
▁—	-8.74517
▁(1	-8.7467
ya	-8.75023
▁japan	-8.75252
▁statistics	-8.75397
ga	-8.75476
mo	-8.75578
▁joined	-8.75695
▁russian	-8.75817
▁2005	-8.76314
▁established	-8.77109
ter	-8.77176
▁did	-8.77215
▁works	-8.77274
▁festival	-8.77303
▁centre	-8.77381
▁included	-8.77478
citation	-8.77553
▁wayback	-8.77602
▁china	-8.77603
ner	-8.78028
ine	-8.78108
ke	-8.78269
men	-8.78426
▁del	-8.7844
▁six	-8.79214
▁minister	-8.79219
ation	-8.79312
▁guitar	-8.79479
▁track	-8.79692
der	-8.79694
▁started	-8.79807
▁off	-8.80005
▁tour	-8.80051
▁free	-8.8006
▁non	-8.802
▁2004	-8.80475
▁hill	-8.80605
▁se	-8.80857
▁peter	-8.80992
▁large	-8.8108
▁green	-8.81125
▁late	-8.81209
–19	-8.81694
▁zealand	-8.81746
mi	-8.81836
ul	-8.81896
▁germany	-8.81981
▁uk	-8.82018
▁race	-8.82065
▁via	-8.82287
▁vol	-8.82418
▁washington	-8.82428
za	-8.8259
▁baseball	-8.826
▁route	-8.82671
▁:	-8.82728
▁mar	-8.82771
▁story	-8.82783
ur	-8.82855
▁medal	-8.83023
▁chart	-8.83251
▁gold	-8.83372
ti	-8.835
▁vocals	-8.83551
▁just	-8.83633
▁richard	-8.83701
▁2000	-8.83968
▁produced	-8.84373
▁among	-8.84374
ion	-8.84402
▁footballer	-8.84447
▁data	-8.84572
▁natural	-8.8468
▁run	-8.84703
▁event	-8.84756
▁am	-8.85044
▁according	-8.85096
▁brown	-8.85113
▁bar	-8.85384
▁another	-8.85424
▁power	-8.85503
▁recorded	-8.85587
and	-8.85671
▁if	-8.85699
▁ma	-8.85735
▁na	-8.85917
▁bay	-8.86033
▁con	-8.86096
!	-8.86105
▁committee	-8.86409
sen	-8.86605
.[	-8.86765
▁playing	-8.86781
ler	-8.86785
▁teams	-8.86872
▁songs	-8.86923
va	-8.87017
▁des	-8.87101
▁smith	-8.87122
▁historical	-8.87207
un	-8.87417
▁special	-8.87444
▁2008.	-8.87482
▁own	-8.87493
▁grand	-8.87548
▁program	-8.87574
▁edition	-8.87882
▁described	-8.87978
▁still	-8.8838
▁match	-8.88965
▁guide	-8.89042
▁online	-8.89093
▁2,	-8.89186
national	-8.89235
▁survey	-8.89252
▁competition	-8.89787
ce	-8.8992
▁full	-8.90031
▁miles	-8.90091
ty	-8.90211
▁sa	-8.90262
▁political	-8.904
▁appointed	-8.90541
▁parliament	-8.90619
▁chinese	-8.90629
▁(18	-8.9096
▁very	-8.91055
▁any	-8.91794
▁see	-8.9186
ve	-8.91918
▁assembly	-8.92134
▁military	-8.92254
▁release	-8.92265
▁hockey	-8.92443
▁basketball	-8.92503
▁square	-8.92599
▁township	-8.92625
▁bill	-8.92805
▁arts	-8.92895
ville	-8.92958
ki	-8.92992
▁again	-8.93324
▁saint	-8.93433
▁class	-8.93512
▁50	-8.93681
▁design	-8.93682
▁point	-8.93856
4	-8.93922
▁directed	-8.94077
▁role	-8.9414
▁ka	-8.94247
▁plant	-8.94471
▁commission	-8.94518
▁dr	-8.94527
▁fc	-8.94604
▁various	-8.94729
▁los	-8.94867
▁we	-8.94947
▁martin	-8.95082
▁way	-8.95195
con	-8.95259
▁services	-8.95543
▁went	-8.95545
▁https	-8.95807
▁2019	-8.95876
▁listed	-8.95975
▁network	-8.96007
able	-8.96127
ny	-8.96195
▁texas	-8.96236
▁because	-8.96249
▁production	-8.96372
▁bridge	-8.96402
▁africa	-8.96437
▁2002	-8.96696
▁created	-8.96746
▁led	-8.96788
▁der	-8.96853
ad	-8.96868
▁daughter	-8.97059
▁olympic	-8.97211
ity	-8.97311
▁2001	-8.97581
▁henry	-8.97609
▁sir	-8.9768
lo	-8.97909
é	-8.98002
▁eastern	-8.98126
▁language	-8.98149
▁mark	-8.98378
▁ko	-8.98446
▁professor	-8.98502
ir	-8.98516
▁given	-8.98731
ham	-8.98849
▁publishing	-8.98915
▁artist	-8.98941
ling	-8.99206
▁far	-8.99226
ac	-8.99286
ina	-8.99361
▁wife	-8.99383
▁airport	-8.99569
ak	-8.99713
▁act	-8.99747
cs	-8.99982
▁lost	-9.00026
▁dead	-9.00092
▁sub	-9.00396
▁daily	-9.00478
▁social	-9.00687
▁signed	-9.00778
▁players	-9.01019
▁super	-9.01127
bo	-9.01509
▁rugby	-9.01526
▁ft	-9.01558
▁ca	-9.01749
▁reference	-9.01851
▁copy	-9.01859
▁originally	-9.01926
mer	-9.02077
▁came	-9.02125
▁points	-9.022
▁biography	-9.02218
▁bank	-9.02235
▁level	-9.02505
▁3,	-9.02564
▁modern	-9.02585
▁roman	-9.02758
▁little	-9.03139
▁current	-9.03142
▁period	-9.03366
▁report	-9.03458
▁article	-9.0351
lin	-9.03541
▁2003	-9.03578
▁big	-9.03588
▁marine	-9.03675
▁chief	-9.03761
▁independent	-9.03801
▁next	-9.03817
▁opened	-9.03936
▁paris	-9.03976
▁ten	-9.0415
▁accessed	-9.04171
▁capital	-9.04366
▁2007.	-9.04545
▁singer	-9.04558
▁different	-9.04614
ism	-9.047
▁those	-9.04756
▁regional	-9.04769
▁source	-9.04884
▁valley	-9.05205
▁pre	-9.05311
▁african	-9.05338
fi	-9.05392
▁blue	-9.05522
▁civil	-9.05568
▁what	-9.05628
▁christian	-9.057
▁lead	-9.05881
▁ireland	-9.05892
▁although	-9.05901
field	-9.05926
year	-9.05936
▁catholic	-9.05944
▁position	-9.06085
▁4,	-9.06142
▁mountain	-9.06376
▁polish	-9.06509
▁students	-9.06721
ek	-9.06787
one	-9.06972
▁su	-9.07054
▁cross	-9.07117
▁returned	-9.07182
▁0	-9.0719
▁senior	-9.07194
▁popular	-9.07266
▁good	-9.07453
▁40	-9.075
▁competed	-9.07635
▁ha	-9.07657
▁rural	-9.07762
▁federal	-9.07769
link	-9.08054
▁mary	-9.08114
dis	-9.08142
line	-9.0817
fa	-9.08277
▁volume	-9.08289
▁kingdom	-9.08376
▁oxford	-9.08415
▁virginia	-9.08714
ru	-9.08744
▁islamic	-9.08781
▁don	-9.08914
▁together	-9.09025
▁make	-9.09073
▁fire	-9.09122
em	-9.09172
▁studies	-9.09212
▁present	-9.09242
▁human	-9.09279
▁average	-9.09318
he	-9.09379
▁coast	-9.0966
▁author	-9.09664
▁bbc	-9.09683
▁right	-9.09717
▁writer	-9.09778
per	-9.09827
▁brother	-9.09985
▁related	-9.10023
ford	-9.10173
chi	-9.10241
▁stage	-9.10312
wood	-9.10494
▁every	-9.10522
▁studio	-9.10742
▁conference	-9.10889
▁novel	-9.10914
▁fa	-9.11107
▁collection	-9.11154
▁wales	-9.11173
ment	-9.11295
▁living	-9.11295
▁plays	-9.11299
▁sun	-9.11428
▁appeared	-9.11965
▁map	-9.11967
▁mid	-9.1209
je	-9.1215
▁chicago	-9.12224
▁1980	-9.12317
▁having	-9.12486
▁europe	-9.12514
▁finished	-9.12545
of	-9.12594
▁could	-9.12677
reference	-9.1275
▁families	-9.13039
▁million	-9.13064
tv	-9.13116
▁events	-9.1312
ard	-9.13177
▁poland	-9.13194
)"	-9.13227
▁take	-9.1329
▁billboard	-9.13326
▁mexico	-9.13341
▁1990	-9.13539
ji	-9.13711
▁theatre	-9.13964
wa	-9.14031
html	-9.1405
▁light	-9.14068
▁middle	-9.14289
▁mother	-9.14438
▁bass	-9.14479
▁includes	-9.14543
po	-9.14602
ze	-9.14616
▁actor	-9.14745
▁force	-9.14763
▁pa	-9.15322
▁battle	-9.15507
ive	-9.15508
ana	-9.15626
▁irish	-9.15877
▁singles	-9.15913
io	-9.15937
▁working	-9.16125
ate	-9.16271
▁bishop	-9.16299
ey	-9.16358
▁highway	-9.16364
im	-9.1663
▁dictionary	-9.16698
▁dutch	-9.16748
▁awarded	-9.16767
▁foundation	-9.16787
▁formed	-9.17056
▁feature	-9.17185
news	-9.17421
▁common	-9.17445
ci	-9.17662
▁become	-9.17695
▁junior	-9.17703
▁matches	-9.17844
▁health	-9.17854
▁stadium	-9.17902
▁often	-9.17915
▁te	-9.18315
time	-9.18451
▁mc	-9.18504
–18	-9.18528
▁considered	-9.18562
▁much	-9.18566
▁kilometres	-9.18651
new	-9.18732
don	-9.18854
0	-9.18857
▁retired	-9.18884
▁(17	-9.19147
▁half	-9.19253
▁seven	-9.19433
▁bi	-9.19559
▁real	-9.1959
▁(2	-9.19827
▁night	-9.19905
▁search	-9.20204
▁joseph	-9.20326
ov	-9.20359
▁management	-9.20405
car	-9.20565
si	-9.20682
▁navy	-9.20816
berg	-9.20831
▁5,	-9.20863
▁lee	-9.20958
▁“	-9.21103
▁1999	-9.21113
▁features	-9.21561
ten	-9.21698
▁hospital	-9.21734
▁sport	-9.21867
▁films	-9.21938
▁space	-9.21981
▁today	-9.22249
▁term	-9.22365
▁construction	-9.22446
▁movie	-9.22517
▁greek	-9.22552
ver	-9.22591
▁bureau	-9.22691
▁jan	-9.22798
mar	-9.22814
bi	-9.2285
▁style	-9.23038
my	-9.23348
▁represented	-9.23379
▁ver	-9.23463
tra	-9.23528
▁frank	-9.23778
▁sold	-9.23869
8	-9.23903
ho	-9.24062
▁congress	-9.24126
▁parish	-9.2455
▁bo	-9.24554
age	-9.24598
cha	-9.2463
▁norwegian	-9.24681
▁6,	-9.24686
▁native	-9.24715
ous	-9.24794
▁support	-9.24932
▁degree	-9.25017
▁wood	-9.25023
▁geographic	-9.25304
▁castle	-9.25437
▁schools	-9.25444
▁seat	-9.25591
▁ni	-9.25608
▁producer	-9.25811
▁few	-9.25816
ting	-9.25819
▁mm	-9.25846
▁private	-9.25863
pi	-9.2598
▁officer	-9.26157
▁section	-9.2624
▁edward	-9.26245
▁range	-9.26269
▁li	-9.26285
▁florida	-9.26294
▁jr	-9.26326
▁metres	-9.2635
▁announced	-9.26353
▁text	-9.26475
▁designed	-9.26533
▁champion	-9.26541
▁days	-9.2656
▁1970	-9.26589
pe	-9.266
all	-9.26695
well	-9.26916
▁governor	-9.26919
▁approximately	-9.27056
▁ar	-9.27168
▁angeles	-9.27228
ier	-9.27283
for	-9.27411
▁ba	-9.27443
▁forest	-9.27558
▁technology	-9.27632
▁allmusic	-9.27734
ger	-9.2796
▁front	-9.27971
we	-9.27972
▁using	-9.28003
gov	-9.28022
tor	-9.28061
00	-9.28072
▁said	-9.28441
°	-9.28606
▁type	-9.28608
▁police	-9.28652
▁date	-9.28698
▁channel	-9.28842
▁carolina	-9.28942
▁port	-9.29011
▁italy	-9.29087
▁eight	-9.29148
▁stone	-9.29336
▁encyclopedia	-9.29375
ster	-9.29423
▁mo	-9.29451
▁away	-9.29454
▁medical	-9.29471
▁youth	-9.2953
▁islands	-9.29677
▁1996	-9.30072
-1	-9.3011
▁wrote	-9.30153
▁elections	-9.30271
▁ground	-9.30285
▁18,	-9.30458
▁12,	-9.30466
▁master	-9.30535
ung	-9.30632
▁cambridge	-9.3078
▁geological	-9.30872
▁available	-9.30986
ol	-9.3099
so	-9.31166
5	-9.31167
▁24,	-9.31217
▁how	-9.31245
▁1998	-9.31283
▁silver	-9.31298
▁prize	-9.31353
7	-9.31474
▁7,	-9.31525
▁ben	-9.31741
▁character	-9.31811
▁pmid	-9.31876
▁making	-9.32173
20	-9.32243
ber	-9.3244
▁opening	-9.32533
▁lu	-9.32661
du	-9.32773
▁organization	-9.32776
▁web	-9.32915
han	-9.32997
▁culture	-9.33167
▁8,	-9.33429
▁without	-9.33436
american	-9.33625
▁maint	-9.33647
▁9,	-9.33728
▁louis	-9.33835
▁pop	-9.33847
▁swedish	-9.33926
▁lies	-9.33929
▁ice	-9.34078
▁buildings	-9.34103
—	-9.34113
▁global	-9.34134
▁fourth	-9.34162
ica	-9.34322
+	-9.34556
disambiguation	-9.34568
▁administrative	-9.34786
6	-9.34877
▁box	-9.34917
▁ministry	-9.34966
▁featured	-9.34992
gen	-9.35178
▁pennsylvania	-9.35328
les	-9.35387
▁body	-9.35411
▁goals	-9.35468
▁heritage	-9.35572
▁training	-9.35642
▁industry	-9.3565
▁once	-9.35709
▁lower	-9.35726
dy	-9.35883
▁1997	-9.35888
▁pan	-9.35925
▁po	-9.35961
▁creek	-9.35968
day	-9.3629
▁11,	-9.36315
▁annual	-9.36332
▁unit	-9.36344
pur	-9.36635
▁areas	-9.36674
▁daniel	-9.36737
▁statistical	-9.36769
▁10,	-9.36793
▁tracks	-9.368
▁ohio	-9.36806
▁editor	-9.36807
ku	-9.36864
▁inc	-9.36882
▁model	-9.36913
▁15,	-9.36915
▁jean	-9.37024
▁scotland	-9.3703
▁vi	-9.37229
▁prince	-9.37271
▁q	-9.37293
▁performed	-9.373
▁ex	-9.37378
▁manager	-9.37412
▁sound	-9.37504
▁control	-9.37538
▁14,	-9.37543
▁get	-9.37654
▁usa	-9.37682
▁complete	-9.37712
▁secretary	-9.37739
▁1960	-9.37746
jo	-9.37772
que	-9.37871
sh	-9.37872
less	-9.37989
▁archive	-9.38046
▁inter	-9.38053
▁17,	-9.38067
▁federation	-9.3811
hi	-9.38139
▁scottish	-9.38194
▁owned	-9.38228
▁za	-9.38304
est	-9.38355
ah	-9.38537
▁attended	-9.38555
▁actress	-9.38556
▁female	-9.38578
▁ship	-9.38613
off	-9.38643
ary	-9.38677
▁winter	-9.3868
▁staff	-9.38765
▁study	-9.3878
▁case	-9.38858
▁cd	-9.38943
gi	-9.3897
ant	-9.39035
lu	-9.39055
▁ge	-9.39116
▁primary	-9.3915
▁von	-9.39271
▁studied	-9.39292
▁dis	-9.39363
▁important	-9.39545
▁para	-9.39685
tu	-9.39685
out	-9.39804
ted	-9.39897
▁performance	-9.39941
▁leader	-9.40169
▁anti	-9.40179
▁completed	-9.40207
▁1992	-9.40373
▁(3	-9.40436
▁16,	-9.40498
▁corporation	-9.40509
▁cricket	-9.40582
su	-9.40595
▁winner	-9.40743
▁lo	-9.40762
▁21,	-9.40837
▁hit	-9.40923
▁past	-9.40947
▁13,	-9.40968
▁goal	-9.41229
▁digital	-9.41276
▁surname	-9.41291
▁never	-9.41341
▁aircraft	-9.41414
”	-9.41505
ik	-9.41573
▁iii	-9.41637
▁contains	-9.41833
house	-9.41902
▁mr	-9.41994
idae	-9.42081
ney	-9.42145
▁19,	-9.4215
▁heart	-9.42186
ap	-9.42249
west	-9.42262
▁si	-9.42416
▁victoria	-9.42417
ini	-9.42422
▁week	-9.42522
▁ke	-9.42607
▁22,	-9.42694
▁length	-9.42724
▁28,	-9.42832
▁similar	-9.42959
bar	-9.42991
▁engineering	-9.42995
▁25,	-9.43102
▁scored	-9.43218
▁20,	-9.43264
▁ran	-9.43287
▁close	-9.43362
▁notable	-9.43441
▁executive	-9.43469
▁developed	-9.43487
▁even	-9.436
ish	-9.43637
▁scott	-9.43717
▁addition	-9.4388
▁ho	-9.43897
▁minor	-9.43919
ker	-9.44041
▁largest	-9.44064
cy	-9.44108
▁here	-9.44108
▁woman	-9.44116
▁result	-9.44236
▁1995	-9.44251
30	-9.44366
▁episode	-9.44406
▁ne	-9.44428
▁45	-9.44497
▁internet	-9.44655
ut	-9.44666
▁queen	-9.44691
▁mac	-9.44708
▁stars	-9.4471
rs	-9.4471
ex	-9.44718
▁27,	-9.44762
▁[1]	-9.44772
▁drama	-9.44798
▁across	-9.44845
▁1994	-9.44959
▁base	-9.45003
vo	-9.45011
▁camp	-9.45028
▁winning	-9.4504
central	-9.45249
▁standard	-9.45304
▁wall	-9.45403
▁further	-9.45567
▁musical	-9.45856
▁runs	-9.45935
▁continued	-9.46033
side	-9.46076
ated	-9.46078
▁23,	-9.46116
class	-9.46174
▁2006.	-9.46235
▁30,	-9.46563
hu	-9.46568
▁tom	-9.46638
í	-9.46765
▁contract	-9.46844
▁jazz	-9.46887
ll	-9.47046
▁your	-9.47091
▁assistant	-9.47167
▁lord	-9.47181
▁26,	-9.47341
▁sam	-9.47369
ski	-9.4741
▁ja	-9.47482
ng	-9.4753
ola	-9.47682
ness	-9.4779
old	-9.47816
▁dance	-9.47839
▁active	-9.47921
mon	-9.47998
▁selected	-9.48032
▁die	-9.48139
ies	-9.48191
▁above	-9.48233
▁limited	-9.48254
har	-9.48372
▁chi	-9.48482
vi	-9.485
mann	-9.48627
▁label	-9.48667
▁mayor	-9.48784
▁leading	-9.48879
▁upon	-9.4892
▁(4	-9.48969
▁graduated	-9.49064
▁tri	-9.49199
▁nature	-9.49221
head	-9.49233
▁29,	-9.49303
▁jones	-9.49345
▁sha	-9.49537
▁pacific	-9.49559
▁commons	-9.49562
▁dan	-9.49623
▁domain	-9.49737
▁low	-9.49786
▁bio	-9.49825
▁help	-9.49996
way	-9.50156
▁captain	-9.5022
▁soccer	-9.50235
▁previously	-9.50449
▁below	-9.50511
▁trade	-9.50617
▁par	-9.50667
▁hot	-9.50859
▁jack	-9.50873
):	-9.51015
▁child	-9.51022
▁tennis	-9.51061
-2	-9.51095
▁code	-9.51171
▁michigan	-9.51233
▁columbia	-9.51285
▁2:	-9.51345
▁temple	-9.51449
▁boston	-9.517
▁entry	-9.51772
▁market	-9.51843
ii	-9.5194
ran	-9.52074
▁location	-9.52117
▁feet	-9.5229
▁1993	-9.52348
▁call	-9.52356
▁illinois	-9.52429
▁1991	-9.52503
▁racing	-9.52545
ron	-9.52766
zi	-9.52808
▁4:	-9.52882
ino	-9.52897
pro	-9.52901
may	-9.52944
▁foreign	-9.53036
▁democratic	-9.53044
▁advanced	-9.53057
▁jim	-9.53222
town	-9.53241
▁im	-9.53255
-19	-9.53303
▁alexander	-9.53501
▁hand	-9.53681
ura	-9.53682
▁russia	-9.53756
▁1988	-9.53758
▁campaign	-9.53995
ab	-9.54118
▁artists	-9.54119
▁hard	-9.54209
▁spain	-9.54403
ized	-9.54411
▁famous	-9.54423
▁serving	-9.54612
▁er	-9.54699
kin	-9.54774
▁defeated	-9.54875
▁wild	-9.54921
che	-9.54951
▁champions	-9.55107
let	-9.55119
▁georgia	-9.55305
▁1989	-9.55371
▁winners	-9.55379
op	-9.55415
▁others	-9.55477
▁himself	-9.55504
▁drums	-9.55559
▁und	-9.55566
▁google	-9.55569
▁administration	-9.55729
east	-9.55751
▁prior	-9.55823
▁commercial	-9.55902
▁(16	-9.56019
bu	-9.56039
▁ep	-9.5609
▁ad	-9.56157
ium	-9.5628
▁taken	-9.56328
▁berlin	-9.56398
▁williams	-9.56473
▁throughout	-9.56494
▁rose	-9.56552
ts	-9.56765
archived	-9.5681
red	-9.56852
▁though	-9.57093
9	-9.57143
▁train	-9.57156
▁replaced	-9.57157
▁wa	-9.57162
▁sydney	-9.57166
▁legislative	-9.57179
▁premier	-9.57243
▁tu	-9.57271
▁dam	-9.57362
▁recording	-9.57441
▁put	-9.57452
-3	-9.57541
▁commune	-9.5763
▁chairman	-9.57648
▁beach	-9.57652
kar	-9.57754
ye	-9.57806
▁albums	-9.57837
▁ltd	-9.57851
▁sciences	-9.57852
▁added	-9.57894
▁moth	-9.57988
▁wide	-9.58089
▁branch	-9.58122
▁movement	-9.58147
nes	-9.58224
▁find	-9.58285
▁opera	-9.58308
▁978	-9.58346
▁korean	-9.58451
▁size	-9.58503
▁...	-9.58529
can	-9.58537
▁plan	-9.58548
ju	-9.58549
▁boy	-9.58674
▁food	-9.58785
▁portuguese	-9.5879
van	-9.58939
▁forces	-9.59057
▁girl	-9.5914
▁sp	-9.59372
▁$	-9.59385
▁beginning	-9.59427
sch	-9.59435
▁dark	-9.59452
▁remained	-9.59531
ata	-9.59533
▁municipal	-9.59573
▁shows	-9.59613
▁mount	-9.59761
▁regular	-9.598
▁our	-9.59951
▁return	-9.59955
▁miss	-9.60036
▁justice	-9.60055
▁literature	-9.60091
▁newspaper	-9.60099
▁ever	-9.60202
gar	-9.60597
▁operated	-9.6067
▁future	-9.60771
▁sc	-9.608
▁cover	-9.60811
▁je	-9.60866
if	-9.60873
▁wisconsin	-9.60919
▁bob	-9.60937
▁2010,	-9.60948
▁il	-9.60973
▁cast	-9.61027
ó	-9.61144
sk	-9.61151
▁37	-9.61162
18	-9.61182
▁upper	-9.612
yl	-9.61385
▁38	-9.61403
▁structure	-9.61494
ev	-9.61495
▁francisco	-9.61507
▁start	-9.6151
▁bell	-9.61606
her	-9.61647
ent	-9.61658
▁test	-9.61681
▁35	-9.61688
▁computer	-9.61724
with	-9.61922
▁les	-9.61976
ph	-9.62055
mp	-9.62084
▁johnson	-9.62183
▁housing	-9.62291
▁empire	-9.62463
▁god	-9.6252
▁asian	-9.62521
af	-9.62555
ot	-9.6264
▁placed	-9.62661
ani	-9.62731
ita	-9.62791
▁andrew	-9.62801
▁ontario	-9.62872
▁spent	-9.62889
▁action	-9.62904
▁hu	-9.62967
▁urban	-9.6298
▁draw	-9.63041
▁fort	-9.63063
lan	-9.63064
▁got	-9.63075
▁ga	-9.6311
▁seasons	-9.63224
▁memorial	-9.63424
▁britain	-9.63427
permanent	-9.63433
▁cultural	-9.63433
▁hong	-9.63457
▁metal	-9.6346
▁hotel	-9.63596
▁piano	-9.63707
▁student	-9.63718
▁traditional	-9.63777
art	-9.63819
▁vice	-9.6383
▁overall	-9.63861
▁jersey	-9.63894
▁mike	-9.63901
▁wins	-9.63906
min	-9.63933
war	-9.63973
▁ban	-9.64065
▁border	-9.64078
sky	-9.64149
▁ya	-9.64188
▁ti	-9.64238
▁rules	-9.64246
12	-9.64335
based	-9.6435
▁francis	-9.64386
2.	-9.64407
▁associated	-9.64443
▁rights	-9.64445
▁60	-9.6445
▁eventually	-9.64565
▁met	-9.64577
▁65	-9.64648
ella	-9.64728
▁{\	-9.64783
ship	-9.64783
▁running	-9.64832
▁agency	-9.64874
▁key	-9.64914
res	-9.64952
▁sar	-9.65016
19	-9.65023
▁kong	-9.65063
▁systems	-9.65145
▁cha	-9.65225
ck	-9.65303
now	-9.65329
▁mill	-9.65369
▁massachusetts	-9.65386
bra	-9.65393
▁har	-9.65408
▁followed	-9.65438
▁tower	-9.65503
▁latin	-9.65556
▁ch	-9.65718
hl	-9.65835
▁id	-9.65911
▁change	-9.66035
▁1950	-9.66094
▁+	-9.66196
▁soviet	-9.66201
▁note	-9.66222
▁store	-9.66276
▁yu	-9.66278
census	-9.66292
▁previous	-9.66339
10	-9.66341
▁gallery	-9.66398
▁bus	-9.66405
ang	-9.66422
á	-9.66434
▁eu	-9.66501
▁fall	-9.66674
▁toronto	-9.66693
▁chris	-9.6672
▁joe	-9.66723
▁closed	-9.6679
▁ku	-9.66805
▁ny	-9.66877
▁ancient	-9.66909
▁economic	-9.66931
")	-9.66982
▁reached	-9.67077
pl	-9.67111
▁affairs	-9.67147
▁1984	-9.67194
▁score	-9.67195
▁1987	-9.67312
▁course	-9.67373
▁2005.	-9.67483
▁usually	-9.67512
ula	-9.67518
ius	-9.67561
▁writing	-9.67592
▁wing	-9.67608
▁consists	-9.67627
▁transport	-9.68044
▁farm	-9.68168
21	-9.6817
}	-9.68178
▁spring	-9.68201
▁issue	-9.6822
▁earth	-9.6824
star	-9.68258
▁notes	-9.6827
▁judge	-9.68276
▁2008,	-9.68377
tz	-9.68393
▁gar	-9.68417
▁sign	-9.68457
▁property	-9.68495
▁express	-9.68576
▁era	-9.68583
▁format	-9.68602
▁changed	-9.68609
▁reserve	-9.68705
ite	-9.68718
port	-9.68735
▁settlement	-9.68743
▁individual	-9.68773
▁asia	-9.68787
▁ray	-9.68789
▁fame	-9.6881
▁col	-9.68812
▁involved	-9.68886
▁santa	-9.68936
▁success	-9.68938
▁launched	-9.68958
▁maria	-9.69027
▁composed	-9.69056
▁1920	-9.6908
▁seen	-9.69128
▁energy	-9.6915
▁2011,	-9.69203
ell	-9.69351
▁behind	-9.6951
▁garden	-9.69641
▁sister	-9.69686
mu	-9.6975
▁male	-9.69782
▁pakistan	-9.69818
▁highest	-9.69855
▁fellow	-9.69914
ett	-9.69922
▁senate	-9.69979
▁countries	-9.70048
ram	-9.70074
help	-9.70118
▁sri	-9.70163
more	-9.70194
▁ta	-9.70197
▁978-0-	-9.70298
▁months	-9.70313
ara	-9.70506
▁200	-9.70524
▁gave	-9.70572
▁honor	-9.7058
▁constituency	-9.70629
hr	-9.70636
▁comedy	-9.70707
▁(19	-9.70747
▁korea	-9.70776
▁promoted	-9.70785
▁speed	-9.7081
▁successful	-9.70837
▁nine	-9.70849
▁situated	-9.7086
▁minnesota	-9.70899
▁mal	-9.70921
▁lived	-9.70984
san	-9.71006
▁steve	-9.71051
▁multi	-9.71055
▁brazil	-9.71058
ial	-9.71071
▁killed	-9.7119
▁double	-9.71197
▁appearances	-9.71336
▁sand	-9.71454
▁kar	-9.71536
ria	-9.71563
fer	-9.71641
▁naval	-9.71651
▁2007,	-9.71726
▁operations	-9.71805
▁come	-9.71806
web	-9.71889
▁ken	-9.71969
ps	-9.71984
ally	-9.72031
▁duke	-9.72082
ensis	-9.72103
▁wilson	-9.72115
▁material	-9.72185
▁practice	-9.72192
▁sh	-9.72365
▁regiment	-9.72369
▁earned	-9.72396
sha	-9.72483
▁academic	-9.72483
▁resources	-9.7251
▁jo	-9.7266
▁1930	-9.72786
▁val	-9.72801
▁complex	-9.72818
▁2004.	-9.72819
▁must	-9.7287
ano	-9.72898
list	-9.72988
kan	-9.731
▁does	-9.73144
ari	-9.73192
▁evans	-9.73211
▁czech	-9.73246
dar	-9.73259
▁host	-9.73264
▁stephen	-9.73343
qui	-9.73389
▁publication	-9.7343
▁nations	-9.73557
▁husband	-9.73591
▁variety	-9.73596
▁ph	-9.73625
▁table	-9.73688
▁cor	-9.73728
om	-9.73938
▁soon	-9.73949
▁stations	-9.74002
▁interview	-9.74154
▁gun	-9.74171
▁financial	-9.74223
▁fm	-9.74266
▁rest	-9.74317
▁example	-9.74323
▁security	-9.74356
▁bronze	-9.74369
ā	-9.74403
▁appearance	-9.74635
▁candidate	-9.74648
ig	-9.74675
▁whose	-9.74697
▁required	-9.74726
▁ki	-9.74729
▁golden	-9.74779
▁prime	-9.74823
▁2009,	-9.74942
persian	-9.75006
yan	-9.75025
▁catalogue	-9.75074
▁walter	-9.75151
▁semi	-9.75214
▁rail	-9.75238
▁1986	-9.75476
▁missouri	-9.75511
top	-9.75583
▁taylor	-9.75605
ez	-9.75806
▁stories	-9.75894
▁charts	-9.7601
▁word	-9.76016
▁voice	-9.76046
▁sent	-9.76128
▁ra	-9.76133
tt	-9.76148
ning	-9.76149
world	-9.76184
▁davis	-9.76269
▁lady	-9.76281
▁status	-9.76501
▁view	-9.76551
▁turkish	-9.76559
▁access	-9.76706
▁girls	-9.76802
▁1985	-9.76826
tri	-9.7683
yo	-9.76915
▁32	-9.76919
▁money	-9.76944
▁companies	-9.77068
▁composer	-9.77152
▁income	-9.77217
search	-9.77221
▁draft	-9.77275
▁higher	-9.77296
▁sometimes	-9.77297
▁engineer	-9.77333
tic	-9.77448
ven	-9.77457
pp	-9.77473
▁catalog	-9.77486
▁entertainment	-9.77505
▁mission	-9.77516
▁orchestra	-9.77522
▁command	-9.77629
▁painter	-9.77687
▁saw	-9.77703
ff	-9.7779
fr	-9.7782
▁older	-9.77858
▁bu	-9.77915
▁tree	-9.77972
▁cemetery	-9.78
▁2012,	-9.78007
ea	-9.78061
▁1983	-9.78079
▁males	-9.7811
▁environment	-9.78136
▁indiana	-9.78142
▁units	-9.78143
ep	-9.78147
▁tim	-9.78168
▁simon	-9.78215
▁less	-9.78416
gus	-9.78516
▁takes	-9.78557
▁brand	-9.78587
died	-9.78623
▁cal	-9.78658
▁fifth	-9.78703
▁voivodeship	-9.78732
▁pen	-9.78772
nie	-9.78843
march	-9.78866
led	-9.7894
ai	-9.78951
cher	-9.78997
▁ju	-9.79003
ken	-9.79007
▁queensland	-9.79049
▁process	-9.79172
▁mountains	-9.79409
▁fish	-9.79424
▁liberal	-9.79646
▁lewis	-9.79763
▁mu	-9.79779
▁lives	-9.79807
▁parts	-9.79903
▁card	-9.79924
tal	-9.79937
▁squad	-9.7999
▁solo	-9.79994
▁starring	-9.80015
▁fu	-9.80019
▁outside	-9.80044
▁athletics	-9.80169
▁brothers	-9.80314
▁2014,	-9.80327
back	-9.80377
▁deputy	-9.804
▁entered	-9.80425
▁trust	-9.80454
era	-9.80633
▁arthur	-9.80641
▁commander	-9.80644
▁whom	-9.80816
▁morning	-9.80835
ada	-9.80855
-12	-9.80872
▁contemporary	-9.80933
▁cm	-9.80958
▁index	-9.81087
▁additional	-9.81119
▁llc	-9.81184
end	-9.8119
▁1976	-9.81251
▁mon	-9.81311
▁issn	-9.81328
▁engine	-9.81355
▁1979	-9.81394
▁poet	-9.81411
▁op	-9.81442
▁tar	-9.81468
▁ross	-9.81543
▁noted	-9.81579
▁elizabeth	-9.81595
▁plants	-9.81733
-7	-9.81734
▁publications	-9.81744
▁1982	-9.81746
▁operation	-9.81784
▁danish	-9.81796
▁weekly	-9.81812
▁oil	-9.81835
▁personal	-9.81839
illa	-9.81894
▁31,	-9.81909
▁conservation	-9.82006
ft	-9.82021
▁details	-9.82076
▁pass	-9.82153
▁interest	-9.82161
cz	-9.82464
▁territorial	-9.82464
▁villages	-9.82507
tes	-9.82537
14	-9.82556
▁sweden	-9.82586
cu	-9.8263
▁bal	-9.82743
▁software	-9.82824
jan	-9.82879
▁self	-9.82911
▁brian	-9.82981
▁railroad	-9.82993
▁boys	-9.83008
▁fine	-9.83258
▁estate	-9.83332
tan	-9.83345
des	-9.83348
▁2013,	-9.83359
shi	-9.83378
▁va	-9.83404
▁ali	-9.83413
dan	-9.83417
-0	-9.83465
▁36	-9.83474
ú	-9.83564
▁electric	-9.83597
▁republican	-9.83634
▁archives	-9.83733
23	-9.83789
▁kim	-9.83902
first	-9.83938
\	-9.84018
-17	-9.84035
▁dar	-9.84048
▁den	-9.84061
▁avenue	-9.84069
ok	-9.84114
gan	-9.84127
▁representative	-9.84225
▁reviews	-9.843
lar	-9.84427
ren	-9.84466
ful	-9.84503
▁medicine	-9.84512
▁paper	-9.84594
▁photo	-9.84603
-4	-9.84709
án	-9.84711
▁victory	-9.84733
len	-9.84759
▁horse	-9.84776
▁pat	-9.84861
playstyle	-9.84874
▁nearby	-9.84908
▁kg	-9.84919
▁lyrics	-9.84931
▁(6	-9.84948
▁broadcast	-9.84982
▁classification	-9.85022
▁fe	-9.85028
ud	-9.85039
▁1972	-9.851
▁ram	-9.8515
ec	-9.85162
▁females	-9.85182
▁decided	-9.85282
gu	-9.85342
▁netherlands	-9.85373
▁herald	-9.85451
▁meaning	-9.85465
▁travel	-9.85488
▁either	-9.85517
ure	-9.85521
▁jewish	-9.85544
01	-9.85617
▁mass	-9.85643
▁1978	-9.85686
▁groups	-9.85731
▁care	-9.85732
▁numerous	-9.85804
ae	-9.85816
▁gas	-9.85872
▁iv	-9.85903
▁subsequently	-9.85918
▁least	-9.85919
excel	-9.85919
▁person	-9.85931
▁iucn	-9.85993
▁server	-9.86008
▁mile	-9.86091
▁mainly	-9.86102
▁despite	-9.86145
zo	-9.86258
▁means	-9.86396
▁cu	-9.86407
▁almost	-9.86461
▁ball	-9.86478
▁provided	-9.8657
ou	-9.86582
▁oregon	-9.8662
▁firm	-9.86626
ette	-9.86658
▁1971	-9.86685
▁gene	-9.86702
▁hal	-9.86786
▁1981	-9.86796
eh	-9.8692
▁room	-9.86952
ization	-9.86954
▁directory	-9.86984
2)	-9.87016
▁politics	-9.87025
▁nation	-9.87048
▁secondary	-9.87137
▁sons	-9.87168
▁becoming	-9.87168
▁2015,	-9.87205
ida	-9.87301
▁max	-9.87353
▁bad	-9.87391
▁provide	-9.8742
king	-9.87604
11	-9.87613
tel	-9.87691
▁cape	-9.87743
▁participated	-9.87785
▁authority	-9.87839
▁introduced	-9.879
▁formation	-9.87902
cc	-9.87931
▁gmina	-9.87959
▁renamed	-9.87998
sson	-9.88039
▁threatened	-9.88054
▁khan	-9.88097
▁1974	-9.88131
▁34	-9.88155
▁covered	-9.88222
▁33	-9.88261
▁ships	-9.88338
ance	-9.88366
50	-9.88366
▁2006,	-9.88372
06	-9.88377
▁iron	-9.88427
▁wikimedia	-9.88567
eu	-9.88779
▁architecture	-9.88896
▁melbourne	-9.88908
▁pe	-9.88922
tro	-9.88957
br	-9.89052
▁wind	-9.89118
▁should	-9.89173
▁representatives	-9.89198
▁micro	-9.89237
▁initially	-9.89331
fl	-9.89409
▁scientific	-9.8941
▁fi	-9.89411
▁teacher	-9.89451
bel	-9.89492
ich	-9.89523
▁kan	-9.89528
ris	-9.89529
▁shot	-9.89555
▁founder	-9.89557
▁ward	-9.89612
▁ended	-9.89691
▁pu	-9.89709
▁cut	-9.89724
▁yellow	-9.89747
▁fair	-9.89895
▁attack	-9.89904
▁eds	-9.89925
▁gazette	-9.89946
▁var	-9.90045
▁albert	-9.90078
▁forms	-9.90087
ice	-9.90171
nik	-9.90174
▁norway	-9.90205
▁metro	-9.90239
vin	-9.90239
ology	-9.9029
▁52	-9.90388
▁starting	-9.90391
▁che	-9.90489
▁leaves	-9.90524
▁1977	-9.90549
az	-9.90553
kh	-9.90582
▁philadelphia	-9.90754
▁(5	-9.90908
▁1968	-9.9099
▁os	-9.91019
▁80	-9.91187
tar	-9.91233
nt	-9.91234
▁multiple	-9.9126
▁jackson	-9.91268
▁taking	-9.9133
▁fiction	-9.91344
▁formerly	-9.91452
▁deep	-9.91524
ane	-9.91533
▁classic	-9.91573
▁mostly	-9.9159
▁2003.	-9.91637
▁ro	-9.91653
oc	-9.91702
▁median	-9.91783
▁technical	-9.91848
▁1975	-9.91862
▁gu	-9.92009
ence	-9.9205
del	-9.92071
▁anne	-9.92116
ix	-9.92217
▁em	-9.92453
▁2000,	-9.92465
ˈ	-9.92519
october	-9.92549
air	-9.92601
▁platform	-9.92637
▁trans	-9.92638
▁sky	-9.92656
ena	-9.92675
june	-9.9269
cho	-9.92884
april	-9.92924
46	-9.92949
▁fox	-9.92969
▁flight	-9.92972
football	-9.92994
▁2015).	-9.93025
▁cinema	-9.93127
▁lieutenant	-9.93145
▁(15	-9.93193
tion	-9.93198
tus	-9.9322
▁patrick	-9.93226
▁theory	-9.93295
▁turn	-9.93295
48	-9.93313
burg	-9.93321
▁acquired	-9.93328
▁broadcasting	-9.93383
▁ab	-9.93404
ong	-9.93418
▁territory	-9.9344
▁beat	-9.93459
41	-9.93478
ky	-9.93494
▁ocean	-9.93536
%	-9.93569
▁51	-9.93569
nia	-9.93608
100	-9.9361
▁friend	-9.93612
pt	-9.93625
stone	-9.93685
▁(1):	-9.93768
▁rome	-9.9377
ī	-9.93813
▁tre	-9.93882
▁stock	-9.93936
aria	-9.93971
▁90	-9.93987
▁parliamentary	-9.94004
:10.	-9.94005
▁mexican	-9.94024
);	-9.94028
▁better	-9.94047
▁mor	-9.94052
▁journalist	-9.94069
▁1973	-9.94121
▁distance	-9.94148
▁ber	-9.94153
▁architect	-9.94188
▁legal	-9.94248
ä	-9.94297
▁instead	-9.94311
dale	-9.94371
▁products	-9.94437
ü	-9.9445
▁thus	-9.94495
▁youtube	-9.94516
▁loss	-9.94524
tur	-9.94534
▁min	-9.9455
▁theater	-9.9464
▁forward	-9.94654
▁carl	-9.94656
56	-9.94671
▁incorporates	-9.94761
▁mad	-9.94797
▁reported	-9.94845
▁issues	-9.94873
99	-9.94958
▁miller	-9.94996
val	-9.95036
▁pi	-9.95067
see	-9.95078
▁2005,	-9.9515
▁titles	-9.95169
▁northwest	-9.95208
▁raised	-9.95233
▁ncaa	-9.95293
▁serves	-9.95316
edu	-9.95352
▁(10	-9.95384
▁friends	-9.95389
▁athletic	-9.95402
▁cities	-9.95556
▁nu	-9.95574
▁earl	-9.95595
▁kansas	-9.95605
part	-9.95687
▁deal	-9.95725
▁biographical	-9.95734
24	-9.95737
▁featuring	-9.95768
▁strong	-9.95786
03	-9.9579
▁soccerway	-9.95807
law	-9.95832
▁sr	-9.95838
79	-9.95859
september	-9.95863
▁espn	-9.95875
july	-9.95929
▁2014).	-9.95944
▁entering	-9.95972
iz	-9.96025
press	-9.96098
▁labour	-9.96157
from	-9.96298
].	-9.96328
▁guardian	-9.96376
▁kentucky	-9.96384
▁grade	-9.96417
▁provincial	-9.96462
water	-9.96462
august	-9.96464
▁bor	-9.96516
▁minutes	-9.96522
52	-9.96568
abad	-9.96654
▁face	-9.96681
▁vote	-9.96684
▁tony	-9.96691
▁eric	-9.96767
▁towards	-9.96786
▁activities	-9.96816
▁39	-9.96928
▁households	-9.96973
ating	-9.96986
nz	-9.97105
▁2016,	-9.97168
▁sur	-9.9717
map	-9.9719
▁surface	-9.97313
▁atlantic	-9.97356
dr	-9.97359
▁crew	-9.97472
ach	-9.97631
▁peak	-9.97682
▁mine	-9.97739
▁industrial	-9.97781
▁1940	-9.97865
▁pages	-9.97884
▁gi	-9.97926
▁policy	-9.97941
▁grant	-9.97997
▁junction	-9.98108
▁remains	-9.98303
▁unknown	-9.98322
▁moon	-9.98367
▁programs	-9.98367
sc	-9.98398
▁philip	-9.98403
▁prominent	-9.98449
var	-9.98691
▁zone	-9.98763
▁electoral	-9.98814
november	-9.9883
▁70	-9.98841
▁ci	-9.98856
january	-9.98859
500	-9.98861
▁41	-9.98868
▁ru	-9.98869
▁twenty	-9.98889
▁houses	-9.98934
▁israel	-9.98968
nan	-9.9897
▁recent	-9.98976
▁bur	-9.98984
07	-9.99032
09	-9.99053
▁1385	-9.99069
▁bc	-9.99075
▁2002.	-9.99077
▁mit	-9.99119
▁sal	-9.99149
▁mixed	-9.99173
▁itself	-9.9922
ova	-9.99245
▁poetry	-9.99278
▁trail	-9.99331
state	-9.99341
▁turkey	-9.99353
php	-9.99364
▁southeast	-9.99501
▁block	-9.99514
-6	-9.9953
december	-9.99536
-5	-9.99636
▁uses	-9.99649
▁(9	-9.99689
▁supreme	-9.9969
▁analysis	-9.99764
▁2011-11-11.	-9.99881
▁auto	-9.99906
▁1945	-9.99918
39	-9.99932
▁fifa	-9.99937
▁constructed	-9.99947
like	-10.0002
26	-10.0021
ei	-10.0029
▁‘	-10.0029
▁peace	-10.003
▁anthony	-10.005
▁alan	-10.0051
▁rich	-10.0058
iya	-10.0058
ban	-10.0059
36	-10.0062
ö	-10.0063
-18	-10.0071
▁maryland	-10.0078
▁2013).	-10.0086
ros	-10.0091
lon	-10.0092
40	-10.0096
▁origin	-10.0097
▁qualified	-10.0097
▁musician	-10.0108
▁iowa	-10.0109
▁fan	-10.0111
also	-10.0113
▁2012).	-10.0135
▁nominated	-10.0137
ska	-10.0144
▁lines	-10.0145
▁matt	-10.0149
▁anna	-10.015
▁provides	-10.0154
oli	-10.0159
▁42	-10.0161
▁figure	-10.0165
▁principal	-10.0174
▁(7	-10.0175
▁juan	-10.0175
▁mel	-10.0176
ens	-10.0178
▁covers	-10.018
▁exchange	-10.0181
▁move	-10.0185
▁43	-10.0186
▁doctor	-10.0188
mal	-10.0194
gue	-10.0198
▁sunday	-10.0198
▁2016).	-10.0199
▁shi	-10.0207
russian	-10.0209
15	-10.0214
▁mix	-10.0234
▁allen	-10.0242
og	-10.0246
▁colorado	-10.0247
ns	-10.0247
▁interior	-10.0247
▁aviation	-10.0251
▁ham	-10.0254
▁documentary	-10.0257
tha	-10.0258
▁motor	-10.0263
▁clubs	-10.0263
▁cap	-10.0266
bb	-10.0267
story	-10.028
▁presented	-10.028
▁bre	-10.0281
08	-10.0293
80	-10.0302
▁folk	-10.0309
▁row	-10.0309
ip	-10.0314
▁kal	-10.0315
not	-10.0322
▁towns	-10.0329
ser	-10.0333
▁(2004).	-10.0334
▁meeting	-10.0337
▁2017,	-10.0338
▁entire	-10.0343
▁es	-10.0345
▁amateur	-10.0345
▁campus	-10.0354
ua	-10.0355
▁1969	-10.0358
sur	-10.0359
over	-10.0361
▁districts	-10.0363
▁communications	-10.0363
ise	-10.0369
▁distribution	-10.037
▁earlier	-10.0372
▁corps	-10.0375
▁harry	-10.0384
about	-10.0387
▁moscow	-10.0387
▁2017).	-10.0389
▁rather	-10.0399
▁brought	-10.0401
▁falls	-10.0405
▁dean	-10.0408
fe	-10.0412
bert	-10.0426
44	-10.043
▁dave	-10.0434
ray	-10.0441
▁clark	-10.0442
film	-10.0453
▁1967	-10.0456
yn	-10.0458
tis	-10.0465
▁metropolitan	-10.0467
▁going	-10.0472
▁educated	-10.0473
▁austria	-10.0473
▁audio	-10.0477
info	-10.0481
sp	-10.0481
german	-10.0482
▁rio	-10.0487
▁adam	-10.049
▁able	-10.0491
sel	-10.0493
▁arizona	-10.0497
mm	-10.0497
▁1964	-10.0497
▁guard	-10.05
▁dedicated	-10.0505
▁serve	-10.0508
dal	-10.0509
▁978-1-	-10.0511
▁religious	-10.0523
▁ger	-10.0524
wan	-10.0527
▁(11	-10.0529
▁edge	-10.0532
▁majority	-10.0532
37	-10.0546
▁category	-10.055
60	-10.0557
▁drive	-10.0563
▁marriage	-10.0564
▁diocese	-10.0565
▁stand	-10.0569
▁northeast	-10.0575
▁blood	-10.0579
▁referee	-10.0592
tre	-10.0593
▁painting	-10.0596
▁44	-10.0596
▁cat	-10.0602
54	-10.0612
ert	-10.0613
uri	-10.0616
000	-10.0623
▁quebec	-10.0625
04	-10.063
▁mp	-10.0634
▁frederick	-10.0644
▁bird	-10.0644
▁thought	-10.065
cia	-10.0655
mont	-10.0657
▁blues	-10.0657
▁owner	-10.0658
ries	-10.0667
▁races	-10.0669
▁transferred	-10.0673
ile	-10.0679
▁comes	-10.068
▁2004,	-10.0689
▁walker	-10.0695
▁maps	-10.0699
▁nova	-10.0703
▁inside	-10.0705
▁3:	-10.0709
▁ve	-10.0719
zy	-10.0724
▁sin	-10.0724
▁dream	-10.0724
▁mont	-10.0729
▁steel	-10.0735
hill	-10.0736
▁buried	-10.0743
ee	-10.0746
▁count	-10.0747
-8	-10.0765
▁1:	-10.0767
pan	-10.0772
-10	-10.0775
▁contest	-10.0776
▁prix	-10.078
long	-10.0781
▁bon	-10.0784
▁baron	-10.0786
▁finally	-10.0804
▁parents	-10.0808
▁(2006)"	-10.0814
▁extra	-10.0817
▁robinson	-10.0819
–17	-10.0819
february	-10.0819
▁faculty	-10.0838
ag	-10.0838
▁lepidoptera	-10.0839
par	-10.0848
▁acting	-10.0854
nu	-10.0855
22	-10.0862
▁sex	-10.0863
▁hits	-10.0864
▁color	-10.0865
book	-10.0866
98	-10.0867
▁especially	-10.087
▁las	-10.0871
▁pra	-10.0876
▁reach	-10.0884
▁hans	-10.0885
▁sk	-10.0886
13	-10.0895
▁tan	-10.0902
ati	-10.0902
▁stop	-10.0911
▁48	-10.0911
ator	-10.092
▁ski	-10.0927
▁newspapers	-10.0929
ō	-10.0935
53	-10.0947
▁generally	-10.0948
▁need	-10.0949
70	-10.0951
▁finnish	-10.0953
▁palace	-10.0954
are	-10.0955
▁hor	-10.0956
▁han	-10.0963
▁karl	-10.0964
▁salt	-10.0967
▁separate	-10.0979
km	-10.0983
ben	-10.0983
▁significant	-10.0984
bre	-10.0986
ay	-10.0991
▁pr	-10.0993
zer	-10.0994
▁2000.	-10.0997
▁bachelor	-10.0999
▁hold	-10.1003
▁ring	-10.1004
die	-10.1004
-9	-10.1005
gh	-10.1019
▁split	-10.1021
iv	-10.1021
election	-10.1022
▁leaving	-10.1024
▁cell	-10.1038
▁ir	-10.1049
▁greater	-10.1051
elli	-10.1051
▁josé	-10.1055
▁institution	-10.1057
▁ron	-10.106
▁1966	-10.1063
▁commonly	-10.1065
bl	-10.1066
ika	-10.1067
history	-10.1072
pu	-10.1073
▁alex	-10.1077
mb	-10.108
century	-10.1089
ery	-10.1093
mus	-10.1097
▁primarily	-10.1111
▁hours	-10.1111
▁kent	-10.1114
85	-10.1118
▁programme	-10.112
▁rev	-10.1126
▁1900	-10.1134
▁discovered	-10.1137
▁hungarian	-10.1138
mark	-10.1144
16	-10.1147
▁trophy	-10.1148
47	-10.1156
▁follows	-10.1159
89	-10.116
▁romanized	-10.1166
▁concert	-10.1169
general	-10.1169
▁moving	-10.1169
▁gor	-10.1172
▁challenge	-10.1175
▁fight	-10.1176
▁spin	-10.1179
▁helped	-10.1185
▁golf	-10.1189
▁literary	-10.119
▁49	-10.119
▁crime	-10.1194
lis	-10.1194
aka	-10.1195
▁mur	-10.1196
▁antonio	-10.1199
▁ri	-10.12
▁defense	-10.1201
ira	-10.1214
post	-10.1216
▁ce	-10.1217
▁agent	-10.1221
league	-10.1224
▁succeeded	-10.1229
▁howard	-10.1234
31	-10.1235
▁cost	-10.1236
▁argentina	-10.1236
▁boat	-10.1237
▁subject	-10.1243
▁tennessee	-10.1243
▁managed	-10.1247
▁let	-10.1259
▁direction	-10.126
▁hosted	-10.1268
▁poly	-10.1269
▁5:	-10.1271
▁job	-10.1271
rat	-10.1271
▁2001.	-10.1274
▁latter	-10.1275
▁holy	-10.1281
▁gre	-10.1285
▁revolution	-10.1285
▁douglas	-10.1286
▁capacity	-10.1287
▁emperor	-10.1291
▁cathedral	-10.1292
▁handbook	-10.1293
▁53	-10.131
02	-10.1324
sport	-10.1325
▁1965	-10.1326
▁commonwealth	-10.1332
57	-10.1337
▁facility	-10.134
▁chapel	-10.1341
▁bas	-10.1345
▁true	-10.1347
ping	-10.1362
▁experience	-10.1363
▁priest	-10.1371
▁(8	-10.1373
▁say	-10.1375
lie	-10.1376
stein	-10.1376
▁arm	-10.138
▁edinburgh	-10.138
▁seats	-10.1382
▁classical	-10.1385
▁create	-10.1386
▁phil	-10.1386
▁purchased	-10.1394
51	-10.1397
ş	-10.1399
27	-10.1402
▁know	-10.141
gate	-10.141
cal	-10.1411
wi	-10.1418
▁episodes	-10.1419
45	-10.142
▁recently	-10.1433
▁inhabitants	-10.1435
90	-10.1436
▁ol	-10.1436
ima	-10.1437
▁christopher	-10.1438
38	-10.1445
▁letter	-10.1447
▁hi	-10.1449
▁brazilian	-10.145
▁philippines	-10.1451
▁costa	-10.1453
▁referred	-10.1456
tin	-10.1457
▁joint	-10.146
▁sixth	-10.1462
ama	-10.1463
rie	-10.1468
▁relations	-10.1469
▁sim	-10.1473
▁rate	-10.1474
▁makes	-10.1476
▁roles	-10.1476
▁tra	-10.1478
hn	-10.148
▁except	-10.148
ves	-10.1484
▁mat	-10.1491
▁secret	-10.1494
low	-10.1496
▁join	-10.1499
din	-10.1503
▁singh	-10.1504
▁tokyo	-10.1513
▁divided	-10.1514
▁hills	-10.1515
▁give	-10.1515
▁gordon	-10.1516
71	-10.1525
96	-10.1533
▁por	-10.1535
ring	-10.1538
▁mind	-10.154
▁(12	-10.1541
▁background	-10.1546
▁mall	-10.1552
▁floor	-10.1563
▁communes	-10.1568
▁environmental	-10.157
49	-10.1573
▁changes	-10.1582
fm	-10.1589
lic	-10.1589
▁malaysia	-10.1589
▁grew	-10.1589
▁grey	-10.159
▁southwest	-10.159
▁planet	-10.1594
page	-10.1594
ward	-10.1597
▁possible	-10.1606
▁geonet	-10.1614
oni	-10.1618
▁swiss	-10.1618
aj	-10.1622
▁gal	-10.1631
▁too	-10.1633
▁languages	-10.1637
▁nov	-10.1641
▁agriculture	-10.1642
▁offers	-10.1644
▁samuel	-10.1649
▁month	-10.165
gy	-10.1652
▁transportation	-10.1653
▁promotion	-10.1654
▁oclc	-10.1655
bury	-10.1662
▁tamil	-10.1662
our	-10.1672
▁unincorporated	-10.1672
▁guest	-10.1673
ston	-10.1691
▁sat	-10.1693
▁headquarters	-10.1703
▁ann	-10.1704
▁soul	-10.1706
-01-	-10.1706
84	-10.1708
▁density	-10.171
▁char	-10.1713
htm	-10.1715
▁price	-10.1716
▁prison	-10.1723
▁1924	-10.1724
34	-10.1726
▁chemical	-10.1741
▁fact	-10.1743
ato	-10.1743
▁fund	-10.1747
▁appears	-10.1747
58	-10.1751
88	-10.1758
▁jane	-10.1758
▁coming	-10.1763
▁dublin	-10.1767
▁runner	-10.1768
ali	-10.1771
▁sources	-10.1776
▁murder	-10.1784
▁2018).	-10.1785
▁votes	-10.1786
▁alternative	-10.1789
▁mer	-10.1802
▁endemic	-10.1804
17	-10.1808
28	-10.1809
bal	-10.1813
▁image	-10.1815
▁hamilton	-10.1816
▁ren	-10.1818
▁adult	-10.1819
▁1962	-10.1828
▁mis	-10.1828
1.	-10.1829
▁product	-10.183
nis	-10.1831
▁bowl	-10.1834
▁lin	-10.1834
▁finish	-10.1844
93	-10.1851
▁elementary	-10.1851
▁borough	-10.1864
▁direct	-10.1864
▁anderson	-10.1864
▁app	-10.1867
ala	-10.1868
▁kind	-10.1869
▁romania	-10.1872
mel	-10.1876
▁larger	-10.1883
kov	-10.189
▁manchester	-10.1893
▁arena	-10.1901
▁romanian	-10.1904
▁pay	-10.1906
▁trial	-10.1909
▁characters	-10.191
▁imperial	-10.191
▁weight	-10.1911
▁dog	-10.1913
▁twice	-10.1921
▁mail	-10.1922
▁yo	-10.1923
▁crown	-10.1926
▁terms	-10.1927
ities	-10.1927
▁officially	-10.1927
ington	-10.193
ă	-10.193
▁representing	-10.193
▁teaching	-10.1932
eng	-10.1936
gr	-10.1937
▁extended	-10.1943
▁1948	-10.1944
ale	-10.1946
music	-10.1947
▁responsible	-10.1961
▁heat	-10.1963
▁moore	-10.1964
43	-10.1966
osa	-10.1969
▁words	-10.197
ón	-10.1974
fo	-10.1975
▁pick	-10.1975
▁ash	-10.1976
▁2011).	-10.1978
cl	-10.1979
▁bel	-10.1986
▁2018,	-10.1991
▁authors	-10.2009
▁screen	-10.201
elle	-10.2015
▁47	-10.2017
▁roy	-10.2021
▁(2):	-10.2023
▁tr	-10.2027
69	-10.2029
▁containing	-10.2029
▁ap	-10.2043
▁75	-10.2046
▁ze	-10.2053
▁allowed	-10.2055
▁squadron	-10.2061
▁tur	-10.2062
▁path	-10.2063
▁apportionment	-10.2065
▁1956	-10.2082
▁rob	-10.2086
▁goes	-10.209
▁(2003).	-10.2091
▁2008-06-01.	-10.2099
▁mathematics	-10.2102
▁teryt	-10.2108
south	-10.2112
▁flat	-10.2124
▁beetle	-10.2127
▁greece	-10.2127
▁puerto	-10.2135
tr	-10.2136
▁2003,	-10.2136
fu	-10.2137
▁gen	-10.2141
▁flowers	-10.2145
stra	-10.2145
▁failed	-10.2147
▁orange	-10.2149
▁diego	-10.2161
▁passed	-10.2166
▁christ	-10.2168
▁lawyer	-10.2179
▁norman	-10.2182
▁horn	-10.2183
▁switzerland	-10.2185
▁file	-10.2186
▁1963	-10.2186
▁disc	-10.2191
86	-10.2191
▁brick	-10.2201
▁roll	-10.2203
▁sites	-10.2204
▁hy	-10.2206
form	-10.2207
fc	-10.2207
▁commissioner	-10.2217
▁cabinet	-10.2223
sey	-10.2228
▁46	-10.2229
▁decision	-10.2229
▁roger	-10.223
▁schedule	-10.2231
▁organ	-10.2234
▁clicking	-10.2234
▁500	-10.2235
▁supported	-10.2239
▁oklahoma	-10.2241
dra	-10.2243
▁sen	-10.2245
▁break	-10.225
▁arkansas	-10.2253
▁exhibition	-10.2254
▁rat	-10.2255
67	-10.2255
▁consist	-10.2256
▁facilities	-10.2258
▁trains	-10.2259
▁arch	-10.226
▁cook	-10.2263
▁chair	-10.2267
▁nor	-10.2271
▁electronic	-10.2274
▁1928	-10.2279
ela	-10.2282
▁fo	-10.2292
▁singapore	-10.2292
▁communities	-10.2298
▁properties	-10.2298
▁taught	-10.23
gon	-10.2308
▁height	-10.2309
▁nick	-10.2311
cur	-10.2311
▁liga	-10.2312
▁lane	-10.2318
▁oldest	-10.2322
▁lanka	-10.2323
▁birth	-10.2326
▁graduate	-10.2327
▁lot	-10.2329
▁specific	-10.2334
▁nfl	-10.2343
▁nomination	-10.2348
▁chess	-10.2348
dia	-10.2351
▁welsh	-10.2351
▁fashion	-10.2354
ū	-10.2354
▁97	-10.2359
▁heavy	-10.2362
0°	-10.2365
▁rank	-10.2371
bus	-10.2372
▁russell	-10.2377
▁sales	-10.2385
▁check	-10.2387
▁publishers	-10.2389
▁1961	-10.2394
▁merged	-10.2394
▁projects	-10.2394
▁infantry	-10.2395
you	-10.2395
ado	-10.2396
▁finland	-10.2396
▁grave	-10.2396
▁foot	-10.2399
▁lawrence	-10.24
▁integrated	-10.2401
▁remaining	-10.2406
▁picture	-10.2408
▁programming	-10.2408
▁always	-10.241
▁fred	-10.2415
dor	-10.2416
▁1998.	-10.2422
od	-10.2423
▁#	-10.2428
▁numbers	-10.2433
ori	-10.2435
▁alabama	-10.2443
▁designated	-10.2443
▁longer	-10.2445
▁talk	-10.2446
▁fr	-10.2449
▁sch	-10.2449
▁scoring	-10.2452
archive	-10.2458
▁1952	-10.2463
▁convention	-10.2464
▁bat	-10.2467
▁2010).	-10.248
н	-10.2481
▁dj	-10.2482
▁conservative	-10.2484
▁weeks	-10.2485
▁glass	-10.2487
▁look	-10.2488
25	-10.2488
▁rivers	-10.2493
ide	-10.2494
▁cancer	-10.2494
oma	-10.2496
▁tall	-10.2499
ball	-10.2499
▁knight	-10.2499
▁64	-10.2501
–16	-10.2505
▁windows	-10.251
▁particular	-10.251
rock	-10.2512
ib	-10.2514
▁circuit	-10.2516
▁mag	-10.2518
▁letters	-10.2519
35	-10.2524
05	-10.2526
*	-10.2526
▁cricketer	-10.2529
▁atlas	-10.2533
▁kevin	-10.2534
▁younger	-10.2535
94	-10.2537
rus	-10.2539
▁shown	-10.2547
▁ranking	-10.2551
▁dry	-10.2551
▁dun	-10.2553
8%	-10.2553
ow	-10.2555
▁canal	-10.2567
ks	-10.2569
▁(2006)	-10.2574
▁operating	-10.2576
▁ian	-10.2577
▁marie	-10.2579
▁articles	-10.258
▁pradesh	-10.2581
▁dies	-10.2581
▁fighting	-10.2588
▁1944	-10.2588
▁holds	-10.2589
▁cer	-10.2592
▁broad	-10.2592
–1	-10.2594
▁transfer	-10.2597
ase	-10.2603
▁physical	-10.2604
▁bull	-10.261
gra	-10.261
▁counties	-10.2612
▁educational	-10.2614
▁jay	-10.2614
▁spot	-10.2616
▁aged	-10.2618
▁alongside	-10.2621
▁protection	-10.2627
▁ridge	-10.2627
▁sta	-10.2629
unique	-10.263
▁workers	-10.2631
▁connecticut	-10.2634
▁mun	-10.2636
pre	-10.2637
▁comic	-10.2638
78	-10.2638
▁assigned	-10.2638
▁ur	-10.264
▁bra	-10.264
▁leg	-10.2642
sports	-10.2642
▁indonesia	-10.2645
usa	-10.2647
present	-10.2647
▁couple	-10.2649
▁chamber	-10.2653
ense	-10.2657
ble	-10.2664
▁(13	-10.2664
she	-10.2664
▁plans	-10.2667
▁(2007).	-10.2671
▁bru	-10.2676
▁lack	-10.2678
▁afl	-10.2679
bach	-10.2683
▁retirement	-10.2684
▁planning	-10.2687
olo	-10.269
▁surrounding	-10.2692
▁margaret	-10.2692
▁pin	-10.2693
band	-10.2697
bur	-10.2697
vol	-10.2698
▁pictures	-10.2699
ms	-10.2702
box	-10.2702
▁ob	-10.2703
▁corner	-10.2706
▁labor	-10.2713
с	-10.2713
▁method	-10.2718
▁scene	-10.2719
▁mississippi	-10.272
▁xi	-10.2725
▁eye	-10.2725
far	-10.2734
▁roof	-10.2739
▁harris	-10.2741
▁acres	-10.2745
▁jonathan	-10.2759
rum	-10.276
▁sq	-10.2763
▁55	-10.2764
▁build	-10.2767
▁combined	-10.2768
▁alliance	-10.2775
▁hollywood	-10.2778
▁1999.	-10.278
cd	-10.2781
light	-10.2782
▁54	-10.2784
key	-10.2784
▁1914	-10.2788
▁oak	-10.2789
▁kw	-10.2791
lam	-10.2794
use	-10.2796
▁already	-10.2796
▁harvard	-10.2797
▁tropical	-10.2799
42	-10.2805
pen	-10.2806
▁2001,	-10.281
hara	-10.281
▁volleyball	-10.2812
▁hindu	-10.2815
ava	-10.2816
▁defeat	-10.2819
▁comp	-10.2823
▁bruce	-10.2827
▁montreal	-10.2829
▁rule	-10.283
#	-10.2834
pr	-10.2838
▁probably	-10.2838
▁swimming	-10.2839
bin	-10.2842
▁loan	-10.2848
▁account	-10.2848
▁gray	-10.2849
83	-10.2853
▁communist	-10.2857
▁fri	-10.2857
run	-10.2858
ów	-10.2865
▁(14	-10.2867
▁stats	-10.2868
▁gay	-10.287
-03	-10.2871
vis	-10.2874
ub	-10.2875
worth	-10.2875
р	-10.2878
▁description	-10.2879
▁attorney	-10.2888
▁1958	-10.2889
74	-10.2892
▁municipalities	-10.2892
▁fleet	-10.2893
▁(2006).	-10.2911
oh	-10.2913
▁poll	-10.2913
▁1923	-10.2916
▁introduction	-10.2927
▁content	-10.293
nic	-10.2933
aire	-10.2935
▁1890	-10.2937
▁denmark	-10.2941
▁2002,	-10.2941
chinese	-10.2944
▁jon	-10.2947
64	-10.2949
▁1903	-10.2952
▁particularly	-10.2953
▁philosophy	-10.2954
▁photos	-10.2958
board	-10.2959
▁organized	-10.2962
uff	-10.2965
▁houston	-10.2968
▁residents	-10.2969
ding	-10.2971
▁1939	-10.2971
live	-10.2971
▁meet	-10.2976
▁figures	-10.298
▁cre	-10.2982
▁angel	-10.2987
0%	-10.2989
▁gang	-10.299
ona	-10.2991
bit	-10.3006
ese	-10.3008
▁1897	-10.3013
▁med	-10.3017
▁arab	-10.3023
▁pope	-10.3027
ero	-10.3028
▁certain	-10.303
view	-10.3031
▁household	-10.3034
й	-10.3035
▁1959	-10.3037
▁net	-10.3037
ther	-10.304
▁taxonomic	-10.3043
▁driver	-10.3045
ize	-10.3048
▁baker	-10.3049
▁1908	-10.3051
▁pilot	-10.3058
▁biology	-10.3061
▁austrian	-10.3069
non	-10.3069
▁kor	-10.3071
▁nelson	-10.3071
▁arms	-10.3074
▁compete	-10.3075
▁(2005).	-10.3077
yu	-10.3078
▁lang	-10.3083
▁villa	-10.3084
av	-10.3084
tte	-10.3087
▁wine	-10.309
▁traffic	-10.3095
▁focus	-10.3099
▁bag	-10.31
▁backing	-10.3108
▁formula	-10.3109
▁maximum	-10.3112
cer	-10.3113
▁quarter	-10.3113
▁template	-10.3116
▁entrance	-10.3118
▁gra	-10.3118
▁fer	-10.3121
▁hart	-10.3123
▁tribune	-10.3126
▁turned	-10.3127
▁gil	-10.313
aceae	-10.313
▁defence	-10.3132
▁guy	-10.3135
▁hope	-10.3138
▁au	-10.314
▁independence	-10.314
95	-10.3144
ple	-10.3145
▁thompson	-10.3152
▁1957	-10.3152
▁1918	-10.3155
ised	-10.3156
▁abc	-10.3158
▁safety	-10.316
2).	-10.316
▁agricultural	-10.3161
▁founding	-10.3162
▁das	-10.3165
▁jordan	-10.3167
nica	-10.3168
cr	-10.3169
à	-10.317
set	-10.317
▁nearly	-10.3171
cus	-10.3173
ret	-10.3173
▁carlos	-10.3174
▁(2011).	-10.3188
▁jeff	-10.3188
hall	-10.3192
second	-10.3193
▁baronet	-10.3194
е	-10.3196
▁hilary	-10.3197
ene	-10.3199
med	-10.3206
▁compilation	-10.3206
album	-10.3206
▁passenger	-10.321
%20	-10.3211
▁recognized	-10.3212
▁medieval	-10.3218
х	-10.322
▁weather	-10.322
▁murray	-10.3225
▁partner	-10.3228
81	-10.323
▁treatment	-10.3233
▁campbell	-10.3235
▁400	-10.324
▁missing	-10.3241
▁1946	-10.3241
life	-10.3242
▁collections	-10.325
bank	-10.3252
▁historian	-10.3253
29	-10.3257
▁og	-10.3263
▁leave	-10.3265
▁wrestling	-10.3268
▁senator	-10.3272
▁portugal	-10.3278
▁1955	-10.3282
▁etc	-10.3285
▁function	-10.3286
▁done	-10.3288
▁jam	-10.3288
mor	-10.3288
▁elements	-10.3293
▁ryan	-10.3295
▁attendance	-10.3299
gun	-10.3299
▁telegraph	-10.33
rin	-10.3301
▁pur	-10.3306
▁forced	-10.3311
▁yet	-10.3312
▁morgan	-10.3313
▁bangladesh	-10.3314
▁pierre	-10.3314
▁pmc	-10.3315
▁(2012).	-10.3317
▁whole	-10.332
title	-10.3323
▁cur	-10.3324
▁rain	-10.3327
▁finance	-10.3327
▁cho	-10.3328
▁presidential	-10.3329
las	-10.3334
▁kon	-10.3341
▁poor	-10.3342
▁applied	-10.3342
▁1932	-10.3343
▁edited	-10.3345
▁56	-10.3347
▁(2008).	-10.3348
▁reading	-10.3352
▁57	-10.3352
cio	-10.3354
▁belgium	-10.3358
down	-10.3358
▁factory	-10.3359
eg	-10.3361
▁gary	-10.3365
▁mas	-10.3379
▁beyond	-10.338
mond	-10.3381
▁elevation	-10.3383
▁1947	-10.3383
who	-10.3387
▁hol	-10.3388
bridge	-10.339
▁continues	-10.3394
▁hat	-10.3395
▁quality	-10.3396
sis	-10.3397
▁ukrainian	-10.34
▁blog	-10.3402
▁cro	-10.3403
▁maine	-10.3403
▁2009).	-10.3404
ić	-10.3407
▁neo	-10.3407
▁begins	-10.3409
burn	-10.3409
62	-10.3412
shan	-10.3412
▁dor	-10.3414
▁é	-10.3414
3.	-10.3421
▁sm	-10.3424
▁studios	-10.3425
▁performing	-10.3426
▁impact	-10.3431
▁matthew	-10.3443
▁rad	-10.3444
▁ser	-10.3451
ille	-10.3452
▁qualifying	-10.3455
▁commissioned	-10.3458
59	-10.3458
▁composition	-10.3462
▁evening	-10.3466
▁writers	-10.3469
▁luis	-10.3473
ë	-10.3476
200	-10.3479
▁derived	-10.3488
▁dec	-10.349
▁neighborhood	-10.3491
▁reports	-10.3492
online	-10.3494
xi	-10.3494
▁issued	-10.3498
▁1916	-10.3507
▁flag	-10.3512
▁charge	-10.3512
▁jun	-10.3513
▁1926	-10.3513
▁guinea	-10.3517
▁1913	-10.3522
▁things	-10.3523
▁lb	-10.3532
66	-10.3532
▁pal	-10.3535
▁animal	-10.3536
▁est	-10.3542
▁discogs	-10.3543
▁carried	-10.3546
▁nacional	-10.3551
▁kin	-10.3558
▁shortly	-10.3563
pet	-10.3571
▁hip	-10.3572
▁tele	-10.3574
▁princess	-10.3574
gel	-10.3576
▁smaller	-10.3577
ora	-10.3581
zu	-10.3586
▁aired	-10.3589
yama	-10.3591
▁protected	-10.3594
▁euro	-10.3602
▁detroit	-10.3602
bol	-10.3608
▁egypt	-10.3609
▁problems	-10.3612
▁tam	-10.3614
win	-10.3614
▁que	-10.3615
ef	-10.3618
▁warren	-10.3619
▁mobile	-10.3623
▁parks	-10.3623
▁ste	-10.3627
▁obtained	-10.3632
▁defined	-10.3633
nor	-10.3638
mes	-10.3639
-02	-10.3644
▁1936	-10.3647
mat	-10.3649
▁leadership	-10.3659
▁dvd	-10.3659
known	-10.366
▁clear	-10.3661
▁habitat	-10.3665
▁gardens	-10.3667
▁shell	-10.3669
▁adams	-10.3673
▁translated	-10.3679
ped	-10.368
mc	-10.368
review	-10.3684
▁wildlife	-10.3689
▁visual	-10.369
▁baby	-10.3692
▁1942	-10.3694
▁morris	-10.3694
▁acid	-10.3697
fish	-10.37
▁kings	-10.3704
▁bush	-10.3706
▁generation	-10.3706
▁donald	-10.3715
▁fast	-10.3722
▁150	-10.3722
▁hunter	-10.3724
pin	-10.3728
▁glen	-10.373
▁launch	-10.3735
rick	-10.374
77	-10.3743
▁gained	-10.3745
▁vietnam	-10.3749
72	-10.3752
65	-10.3752
▁1954	-10.3754
▁shah	-10.3757
▁stewart	-10.3758
▁want	-10.3769
▁papers	-10.3771
▁offered	-10.3771
▁chile	-10.3772
▁1911	-10.3772
▁brigade	-10.3775
▁flora	-10.3775
eb	-10.3775
▁caused	-10.3779
▁pittsburgh	-10.3782
final	-10.3784
▁visit	-10.3784
▁dynasty	-10.3785
▁climate	-10.3785
▁physics	-10.3794
▁reporter	-10.3795
ations	-10.3797
▁1922	-10.3799
▁storm	-10.3802
alis	-10.3803
▁effect	-10.3806
una	-10.3808
▁1919	-10.3809
aga	-10.3811
▁{	-10.3812
▁flying	-10.3813
ric	-10.3819
▁shop	-10.3825
▁lock	-10.3833
▁stream	-10.3841
▁percussion	-10.3845
john	-10.3848
▁(2005)	-10.3853
▁parties	-10.3856
-06	-10.3859
eo	-10.386
▁elder	-10.3867
qua	-10.3869
▁sel	-10.387
▁watch	-10.3874
get	-10.3875
ichi	-10.3876
▁sang	-10.3876
dead	-10.3884
▁graham	-10.3886
▁chemistry	-10.3887
team	-10.3892
onia	-10.3898
▁(2007)	-10.39
▁growth	-10.3906
▁creation	-10.3906
▁glasgow	-10.3907
▁yorkshire	-10.3907
▁ly	-10.391
▁marshall	-10.3915
▁learning	-10.392
▁represent	-10.3929
▁rico	-10.393
▁ros	-10.3932
▁sum	-10.3933
68	-10.3944
▁agreement	-10.3949
▁christmas	-10.395
▁utah	-10.395
▁kelly	-10.395
▁stated	-10.3951
▁cars	-10.3952
▁ukraine	-10.3956
▁mallon	-10.3957
ative	-10.3958
▁bin	-10.3959
▁fell	-10.396
▁alberta	-10.3961
▁rap	-10.3962
ming	-10.3964
▁peru	-10.3967
bri	-10.397
▁simple	-10.3973
▁carr	-10.3973
▁jeroen	-10.3974
▁translation	-10.3977
▁document	-10.3979
ists	-10.3979
▁nan	-10.398
▁victor	-10.398
▁dick	-10.3983
▁mentioned	-10.3987
▁medals	-10.3988
▁1898	-10.399
▁phase	-10.3992
▁hay	-10.3995
▁intelligence	-10.3998
▁nar	-10.3999
▁expedition	-10.4001
▁selection	-10.4002
-07-	-10.4005
▁leaf	-10.4007
▁vs	-10.401
▁\	-10.4012
▁step	-10.402
bor	-10.4023
gal	-10.4023
▁wy	-10.4024
▁barry	-10.4025
▁trees	-10.4025
▁value	-10.4027
▁saturday	-10.403
▁bernard	-10.4033
▁gazetteer	-10.4036
▁vienna	-10.4039
▁louisiana	-10.4046
media	-10.4046
▁chapter	-10.4046
ي	-10.4047
inae	-10.4049
▁individuals	-10.4059
▁freedom	-10.4063
mit	-10.4064
▁growing	-10.407
▁brief	-10.4071
▁arild	-10.4073
▁fields	-10.4075
▁says	-10.4079
▁chronicle	-10.4081
▁residence	-10.4081
▁serbian	-10.4082
▁seventh	-10.4088
▁relationship	-10.409
▁1906	-10.4093
▁(2010).	-10.4096
▁ji	-10.4097
uf	-10.4098
▁connected	-10.4106
ible	-10.4115
▁bought	-10.4117
▁belgian	-10.4119
▁(2002).	-10.4128
▁barbara	-10.4129
▁hugh	-10.413
los	-10.4133
▁genera	-10.4134
▁shin	-10.4137
▁dal	-10.4138
▁manual	-10.4138
▁88	-10.4139
▁accident	-10.4142
▁nepal	-10.4144
▁1953	-10.4152
▁legislature	-10.4153
▁economics	-10.4154
▁passes	-10.4154
▁alone	-10.4159
▁appear	-10.4159
▁snow	-10.4161
▁craig	-10.4163
▁summit	-10.4163
▁designer	-10.4168
▁1951	-10.4174
english	-10.4178
▁peninsula	-10.4179
▁wo	-10.4179
▁businessman	-10.4185
▁gets	-10.4192
▁à	-10.4195
▁stra	-10.4196
▁nord	-10.4198
▁alfred	-10.4198
▁organisation	-10.4201
▁birds	-10.4201
▁gro	-10.4202
anti	-10.4207
▁gjerde	-10.4208
▁bri	-10.4212
è	-10.4212
sta	-10.4214
▁sara	-10.4215
▁pol	-10.4218
▁heijmans	-10.4224
▁colonel	-10.4224
▁evidence	-10.4232
▁#1	-10.4233
▁ye	-10.4235
rich	-10.4238
▁sarah	-10.4241
▁1917	-10.4241
▁prefecture	-10.4242
▁unique	-10.4247
▁satellite	-10.4247
▁1910	-10.4247
▁*	-10.4248
55	-10.4249
▁zi	-10.4251
▁mah	-10.4251
▁sol	-10.4251
▁victorian	-10.4255
▁religion	-10.4266
▁baltimore	-10.4271
▁1949	-10.4277
point	-10.4277
▁1921	-10.4286
▁(2000).	-10.4287
▁battalion	-10.429
type	-10.4292
▁dakota	-10.4294
vel	-10.4296
ue	-10.4296
▁read	-10.4296
▁basis	-10.4297
▁drug	-10.4299
▁atlanta	-10.4301
▁1912	-10.4306
▁equipment	-10.4307
▁1880	-10.4308
wing	-10.4309
gg	-10.431
sia	-10.4311
ob	-10.4313
8.	-10.4313
▁flows	-10.4313
▁initial	-10.4318
▁mrs	-10.4319
ə	-10.4327
▁pet	-10.4335
▁gabriel	-10.4337
▁walk	-10.4337
▁images	-10.4339
article	-10.4343
▁spread	-10.4345
▁kill	-10.4345
č	-10.4348
5%	-10.435
63	-10.4353
▁collins	-10.4355
▁1899	-10.4356
▁shape	-10.436
▁1996.	-10.436
▁lan	-10.4362
lia	-10.4364
▁rod	-10.4365
cap	-10.4365
▁resigned	-10.4369
row	-10.4372
▁roads	-10.4373
sar	-10.438
▁critical	-10.4388
▁ou	-10.4389
how	-10.439
▁titled	-10.4391
mis	-10.4393
▁marc	-10.4395
▁frame	-10.4396
hy	-10.4405
▁oblast	-10.4409
▁expanded	-10.4409
▁globe	-10.4426
▁cases	-10.4438
ر	-10.4441
▁1896	-10.4444
work	-10.4452
▁plus	-10.4455
istic	-10.4458
▁monument	-10.4458
▁listings	-10.4458
▁indoor	-10.446
nen	-10.4462
▁wu	-10.4462
▁approach	-10.4463
▁bou	-10.4463
▁rare	-10.4465
▁churches	-10.4473
▁offices	-10.4478
м	-10.4483
▁delhi	-10.4486
33	-10.4487
wick	-10.4488
▁(2009).	-10.4489
▁guitarist	-10.4491
uz	-10.4491
▁moths	-10.4492
▁fur	-10.4494
▁illustrated	-10.4498
▁jacob	-10.45
ld	-10.4501
uch	-10.4504
▁ambassador	-10.4505
▁chosen	-10.4506
▁journey	-10.4507
▁highly	-10.451
т	-10.4511
▁1941	-10.4513
▁locations	-10.4523
▁larry	-10.4524
▁legend	-10.4526
▁jason	-10.4529
▁grove	-10.453
▁shu	-10.4532
ick	-10.454
▁occurs	-10.4541
▁chain	-10.4542
this	-10.4543
▁sale	-10.4548
▁updated	-10.455
▁1938	-10.4552
lum	-10.4554
▁concept	-10.4554
bat	-10.4555
▁austin	-10.4556
▁railways	-10.4559
ila	-10.4568
eri	-10.457
db	-10.457
92	-10.4571
met	-10.4573
▁buck	-10.4575
▁miami	-10.4578
tia	-10.4586
▁cold	-10.459
▁1997.	-10.4591
yer	-10.4606
▁pair	-10.4607
▁directly	-10.4612
▁1999,	-10.4613
▁bro	-10.4615
▁2008).	-10.4615
▁wolf	-10.4617
north	-10.4617
▁finishing	-10.4619
▁choice	-10.4626
ito	-10.4634
pel	-10.4635
▁forests	-10.4637
▁keyboards	-10.4637
lay	-10.464
▁1907	-10.4644
▁tai	-10.4645
97	-10.4646
▁wi	-10.4646
▁newly	-10.4651
▁skating	-10.4661
log	-10.4665
chen	-10.4666
▁roster	-10.4667
▁bulletin	-10.4669
▁recordings	-10.4671
▁2007).	-10.4673
▁share	-10.4674
▁beetles	-10.4676
▁978-	-10.4676
▁finals	-10.4677
▁enough	-10.4677
▁1909	-10.4679
▁mil	-10.4681
▁(20	-10.4686
▁basic	-10.4696
▁jimmy	-10.4696
32	-10.4697
▁insects	-10.4704
▁thailand	-10.4707
ash	-10.4709
▁uefa	-10.471
▁rise	-10.471
▁returning	-10.4715
▁ry	-10.4715
▁cycling	-10.4718
▁azerbaijan	-10.4719
▁injury	-10.472
▁pas	-10.4721
▁vision	-10.4723
under	-10.4727
▁1943	-10.4727
▁hungary	-10.4727
▁narrow	-10.473
pal	-10.4733
cker	-10.4734
▁nigeria	-10.4735
izing	-10.4736
aki	-10.4739
▁doubles	-10.4739
▁hour	-10.4745
▁seattle	-10.4746
uc	-10.4746
▁losing	-10.4746
▁iaaf	-10.475
▁conducted	-10.475
▁pioneer	-10.4751
▁1905	-10.4751
▁raj	-10.4752
73	-10.4752
▁taiwan	-10.4755
▁1991.	-10.4755
а	-10.4756
▁productions	-10.4757
▁barcelona	-10.4758
▁leaders	-10.4761
-10-	-10.4762
hand	-10.4764
hal	-10.4766
uli	-10.4768
▁mono	-10.477
▁lab	-10.4774
http	-10.4774
▁musicians	-10.4778
▁ter	-10.4786
300	-10.4788
▁contributions	-10.4792
61	-10.4795
▁settled	-10.4795
▁tribe	-10.4798
▁(2004)	-10.4798
▁1935	-10.48
eur	-10.4805
▁summary	-10.4806
▁hampshire	-10.4812
▁publisher	-10.4813
▁scholar	-10.4814
▁associate	-10.4817
▁memory	-10.482
▁jar	-10.4821
eva	-10.4822
▁hon	-10.4825
▁knowledge	-10.483
▁joining	-10.483
▁believed	-10.4832
▁restaurant	-10.4833
▁silent	-10.4834
▁colonial	-10.4837
atus	-10.484
high	-10.4844
▁kil	-10.485
nar	-10.4852
▁signal	-10.4852
▁66	-10.4852
▁cable	-10.4858
▁destroyed	-10.4858
▁protein	-10.4858
tom	-10.4859
▁th	-10.4861
▁empty	-10.4866
▁proposed	-10.4867
▁robin	-10.4868
▁activity	-10.4873
▁hundred	-10.4875
▁try	-10.4877
▁1995.	-10.4878
▁benjamin	-10.4878
rc	-10.4879
dom	-10.4889
▁till	-10.4892
adi	-10.4893
▁magic	-10.4894
▁produce	-10.4897
▁keep	-10.49
▁77	-10.4901
▁reform	-10.4902
▁gives	-10.4906
▁keith	-10.4908
▁alt	-10.4913
▁shore	-10.4914
▁mus	-10.4916
▁widely	-10.4917
hot	-10.4919
▁geo	-10.4919
▁disease	-10.4921
▁gill	-10.4924
bro	-10.4926
▁sho	-10.4926
▁bol	-10.4926
▁becomes	-10.4929
ı	-10.493
pol	-10.4931
ه	-10.4932
ct	-10.4932
▁monte	-10.4933
ele	-10.4935
▁bulgarian	-10.4941
▁ceo	-10.4943
▁bear	-10.4945
official	-10.4947
▁claimed	-10.4948
▁colombia	-10.4957
▁performances	-10.4959
heim	-10.4961
▁wayne	-10.4967
▁johnny	-10.497
▁twelve	-10.4972
▁portion	-10.4975
▁1904	-10.4979
och	-10.498
▁neu	-10.4982
91	-10.4994
▁lloyd	-10.4994
ico	-10.4995
▁wil	-10.5
aya	-10.5
enberg	-10.5002
▁jump	-10.5004
ré	-10.501
▁info	-10.5011
▁(2010)	-10.5014
4.	-10.5017
▁distinguished	-10.5019
▁billy	-10.502
▁helen	-10.5022
itz	-10.5023
▁ty	-10.5023
▁display	-10.5023
▁straight	-10.5025
▁archbishop	-10.5027
▁für	-10.5027
▁lincoln	-10.5027
▁application	-10.5028
population	-10.5028
▁kh	-10.5029
▁и	-10.5031
mur	-10.5042
nl	-10.5042
▁73	-10.5043
▁(2008)	-10.5046
ien	-10.5051
▁comics	-10.5054
ui	-10.5054
▁sweet	-10.5054
▁intended	-10.5055
▁300	-10.5055
▁1998,	-10.5058
▁mala	-10.5058
ral	-10.5059
▁print	-10.5059
و	-10.5066
▁1893	-10.5071
▁(2003)	-10.5073
▁vo	-10.5073
▁cricketarchive	-10.5074
▁removed	-10.5074
▁1895	-10.5075
?".	-10.5075
▁greatest	-10.5075
ified	-10.5076
▁1885	-10.5082
▁wang	-10.5082
western	-10.5083
▁apple	-10.5092
▁meters	-10.5092
ical	-10.5094
ges	-10.5098
▁officers	-10.5099
▁defender	-10.51
-20	-10.5103
з	-10.5104
▁72	-10.511
▁sul	-10.5111
▁franklin	-10.5113
-30	-10.5117
▁typically	-10.5118
▁circle	-10.5124
▁ivan	-10.5124
▁influence	-10.5124
▁gulf	-10.5124
▁rec	-10.513
▁stan	-10.5133
▁kra	-10.5138
▁(2009)	-10.5138
▁ranked	-10.5139
▁athlete	-10.5139
track	-10.514
city	-10.514
ɔ	-10.5144
▁soundtrack	-10.515
▁photography	-10.515
▁wright	-10.5153
▁hms	-10.5154
sy	-10.5156
▁pot	-10.5156
rah	-10.5156
foot	-10.5157
▁78	-10.5164
▁fin	-10.5165
▁zu	-10.5166
lp	-10.5167
▁discography	-10.5168
▁amazon	-10.5168
▁attempt	-10.5169
▁mai	-10.5173
د	-10.5175
mas	-10.5189
▁stanley	-10.5193
д	-10.5193
▁76	-10.5193
▁fly	-10.5195
▁1901	-10.5203
▁themselves	-10.5207
▁1888	-10.5208
▁increase	-10.5209
▁−	-10.5215
▁mir	-10.5225
▁consisted	-10.5226
▁positions	-10.5233
▁therefore	-10.5241
feld	-10.5252
▁turner	-10.5254
pat	-10.526
▁81	-10.526
▁(3):	-10.526
2,	-10.5262
▁incorporated	-10.5263
▁tin	-10.5266
▁lou	-10.5267
arm	-10.5269
▁yards	-10.5274
я	-10.5276
▁conflict	-10.5278
▁(1)	-10.5279
rt	-10.528
к	-10.5281
best	-10.5282
▁mitchell	-10.5285
▁critic	-10.5297
▁canton	-10.5298
▁1889	-10.5301
▁bla	-10.5304
9).	-10.5305
▁imp	-10.5307
iana	-10.5308
zan	-10.531
▁dates	-10.5312
▁85	-10.5319
▁84	-10.5323
▁inventory	-10.5323
▁respectively	-10.5324
▁banks	-10.5324
bio	-10.5325
75	-10.533
▁immediately	-10.5332
▁[2]	-10.5332
etti	-10.5337
uda	-10.5338
ever	-10.5338
▁1937	-10.5346
pop	-10.5346
▁tradition	-10.5347
▁fruit	-10.5349
▁socialist	-10.5349
avi	-10.535
▁tech	-10.535
agh	-10.5351
▁residential	-10.5352
▁paintings	-10.5352
▁response	-10.5354
▁fought	-10.5359
▁portrait	-10.536
▁criminal	-10.5361
▁sv	-10.5366
▁purpose	-10.5366
▁classes	-10.5371
▁61	-10.5372
▁domestic	-10.5373
▁motion	-10.5373
qu	-10.5377
▁movies	-10.5378
ili	-10.5378
cor	-10.5379
▁adopted	-10.5383
▁scale	-10.5388
▁oct	-10.5388
-16	-10.5397
▁coal	-10.54
▁basin	-10.5403
▁activist	-10.5405
▁tel	-10.5406
but	-10.5411
▁cleveland	-10.5413
▁broadway	-10.5414
-15	-10.5415
▁fun	-10.5417
▁1925	-10.5423
▁theme	-10.5424
▁beautiful	-10.5424
▁gross	-10.5425
▁soldiers	-10.5425
ose	-10.5426
▁steam	-10.5428
▁mol	-10.543
▁piece	-10.5432
home	-10.5433
▁62	-10.5435
▁problem	-10.5436
▁allow	-10.5441
what	-10.5446
å	-10.5448
▁log	-10.5455
▁credits	-10.5459
▁vancouver	-10.546
š	-10.546
▁giving	-10.546
▁follow	-10.5461
▁sector	-10.5462
▁nhl	-10.5462
cra	-10.5464
▁bibcode	-10.547
▁hunt	-10.547
big	-10.5475
▁lie	-10.5476
л	-10.5477
nell	-10.5485
stad	-10.5485
▁1929	-10.5486
▁develop	-10.5492
▁inspired	-10.5496
▁outstanding	-10.5499
▁midfielder	-10.55
▁planned	-10.5503
ema	-10.5508
▁uss	-10.5511
▁portland	-10.5511
▁standing	-10.5512
master	-10.5512
subscription	-10.5515
cat	-10.5522
▁remix	-10.5524
▁bern	-10.5528
-11	-10.5531
▁desert	-10.5532
url	-10.5534
ique	-10.5538
▁extension	-10.5543
▁(2001).	-10.5545
▁partnership	-10.5546
▁palm	-10.5549
ches	-10.555
▁bengal	-10.5551
▁1927	-10.5551
▁63	-10.5551
▁camera	-10.5561
▁dallas	-10.5564
▁estimated	-10.5565
▁charlotte	-10.5566
▁ac	-10.5566
▁jesus	-10.5568
▁jose	-10.5569
▁positive	-10.557
▁58	-10.5572
lé	-10.5572
▁conditions	-10.5573
▁59	-10.5573
index	-10.5574
▁(1998)	-10.5574
▁forum	-10.5574
▁difference	-10.5579
82	-10.5579
▁nuclear	-10.558
sburg	-10.5582
▁collected	-10.559
▁в	-10.559
▁colour	-10.5593
▁providing	-10.5593
▁pool	-10.5597
▁terminal	-10.56
▁dennis	-10.5601
▁om	-10.5602
▁israeli	-10.5605
▁1892	-10.5606
eta	-10.5606
▁suburb	-10.5607
▁honour	-10.5607
▁1934	-10.5609
▁79	-10.5619
▁continue	-10.5619
▁milan	-10.5619
té	-10.5621
▁eyes	-10.5623
の	-10.5626
▁kn	-10.5627
▁rear	-10.563
▁copies	-10.5631
▁madrid	-10.5631
bon	-10.5636
▁chu	-10.5636
▁tributary	-10.5638
▁talent	-10.5639
▁1915	-10.564
▁achieved	-10.564
▁starts	-10.5643
▁revival	-10.5643
▁normal	-10.5646
▁trip	-10.5646
▁croatian	-10.565
▁rice	-10.5657
▁establishment	-10.566
▁1933	-10.5661
▁glacier	-10.5665
▁nat	-10.5665
▁solar	-10.5666
▁riding	-10.5667
▁constitution	-10.5674
▁permanent	-10.5674
▁bid	-10.5676
ç	-10.5682
▁communication	-10.5685
▁session	-10.5686
87	-10.5687
mos	-10.5689
▁adjacent	-10.5689
data	-10.569
▁ker	-10.5692
ade	-10.5694
zz	-10.5697
▁soldier	-10.5701
oid	-10.5706
▁pit	-10.5706
▁spirit	-10.5712
▁singing	-10.5712
▁alternate	-10.5712
▁universal	-10.5718
▁kir	-10.5718
▁qualification	-10.5722
▁registered	-10.5727
love	-10.5731
▁1894	-10.5735
▁1902	-10.5737
ami	-10.5738
cre	-10.5739
▁argentine	-10.5744
▁pole	-10.5748
▁wei	-10.5761
▁bath	-10.5765
two	-10.5766
▁lakes	-10.5768
▁74	-10.5769
▁pri	-10.5774
black	-10.5775
▁downtown	-10.5778
▁script	-10.5779
▁select	-10.578
anda	-10.5785
▁rick	-10.5787
▁birmingham	-10.5788
kha	-10.5793
▁susan	-10.5794
▁holding	-10.5794
rio	-10.5795
▁beijing	-10.5795
dd	-10.5796
lee	-10.5808
▁animals	-10.5808
▁masters	-10.5812
▁1870	-10.5812
▁serbia	-10.5817
▁gran	-10.5818
▁abbey	-10.582
▁fra	-10.5829
▁1891	-10.5829
▁indicate	-10.583
▁alaska	-10.5831
▁athletes	-10.5831
▁tro	-10.5834
▁slightly	-10.5837
wer	-10.5837
▁av	-10.5838
▁contact	-10.584
sville	-10.5842
▁mari	-10.5845
▁levels	-10.5845
400	-10.5848
▁promote	-10.5849
▁bomb	-10.5851
esh	-10.5852
▁organizations	-10.5855
▁participate	-10.5856
▁71	-10.5863
▁1996,	-10.5865
lor	-10.5866
ante	-10.5869
▁uganda	-10.5869
▁bis	-10.5872
▁cricinfo	-10.5887
▁candidates	-10.5887
eau	-10.5887
и	-10.5888
▁captured	-10.5892
▁cooper	-10.5893
▁cause	-10.5898
▁(2012)	-10.59
wal	-10.5905
▁regions	-10.5905
▁troops	-10.5906
▁neil	-10.5906
▁effects	-10.5908
▁hero	-10.5908
▁pub	-10.5909
▁bit	-10.591
nal	-10.5912
12.	-10.5915
▁progress	-10.5922
▁hands	-10.5929
phy	-10.5937
right	-10.5938
▁tourism	-10.5941
▁ky	-10.5942
▁herbert	-10.5944
illo	-10.5946
ill	-10.5948
▁dia	-10.5951
▁bright	-10.5952
mag	-10.5955
▁combat	-10.5957
▁architectural	-10.5963
▁67	-10.5964
▁clan	-10.5965
▁с	-10.5967
vers	-10.5968
▁antarctic	-10.5969
name	-10.5972
▁query	-10.5973
ute	-10.5974
▁poems	-10.5976
▁epi	-10.5978
▁gastropod	-10.5978
2),	-10.5986
▁investment	-10.5988
▁economy	-10.5989
▁accepted	-10.5989
▁zo	-10.599
▁ending	-10.5993
ging	-10.5994
ø	-10.5995
▁itf	-10.5995
▁1931	-10.5999
ل	-10.6002
▁supporting	-10.6003
zen	-10.6005
▁sad	-10.6006
▁$1	-10.6013
▁wal	-10.6014
level	-10.6015
awa	-10.6016
▁qui	-10.6016
▁cr	-10.6016
oon	-10.6018
cut	-10.6018
mil	-10.6019
▁anniversary	-10.602
▁oslo	-10.6023
▁cam	-10.6025
▁crossing	-10.6027
▁declared	-10.6028
▁plot	-10.6029
▁lands	-10.6029
▁‹	-10.6036
▁types	-10.6037
▁(2013).	-10.604
▁1997,	-10.6044
▁increased	-10.6048
▁versions	-10.6048
▁mining	-10.6048
▁grass	-10.605
▁1993.	-10.6052
▁69	-10.6056
▁wanted	-10.6057
▁acoustic	-10.6057
▁pg	-10.6058
▁hell	-10.6059
▁relegated	-10.6062
ological	-10.6063
▁adelaide	-10.6068
▁tax	-10.6069
shire	-10.6071
ische	-10.6074
ug	-10.6075
▁tie	-10.6075
▁brain	-10.6077
7%	-10.6077
▁locality	-10.6078
ín	-10.6081
▁licensed	-10.6082
▁pine	-10.6083
▁facebook	-10.6092
card	-10.6097
▁0-8	-10.6102
▁1994.	-10.6104
▁penn	-10.6112
▁laid	-10.6117
▁(2001)	-10.6119
▁materials	-10.6121
▁nebraska	-10.613
▁saints	-10.613
▁arrived	-10.613
ore	-10.6131
▁mul	-10.6135
ets	-10.6135
▁1992.	-10.6136
▁granted	-10.6137
ologist	-10.6138
game	-10.6138
▁ven	-10.6139
▁sor	-10.6143
▁margin	-10.6143
▁(21	-10.6145
▁pale	-10.6145
▁sil	-10.6147
inus	-10.6149
▁ag	-10.615
▁worldwide	-10.6154
aa	-10.6157
ota	-10.6169
▁kara	-10.6169
▁tables	-10.6172
▁distributed	-10.6174
tech	-10.6174
▁(2011)	-10.6175
aba	-10.6181
▁marked	-10.6182
ente	-10.6186
nam	-10.6188
▁stay	-10.6191
nce	-10.6191
▁acts	-10.6194
▁kom	-10.6194
uck	-10.6196
▁sto	-10.6197
rid	-10.6199
▁são	-10.6202
▁pad	-10.6208
▁entitled	-10.621
▁baptist	-10.6214
▁kha	-10.6218
▁dc	-10.6219
▁gate	-10.6225
▁noble	-10.6234
▁chance	-10.6236
▁converted	-10.6237
▁jerry	-10.6241
▁preservation	-10.6241
▁supply	-10.6241
▁parker	-10.6242
sz	-10.6245
▁kam	-10.6247
▁tha	-10.6249
ire	-10.6251
▁files	-10.6251
▁releases	-10.6262
▁might	-10.6266
▁reed	-10.6268
▁fictional	-10.6271
bia	-10.6272
▁landscape	-10.6273
▁collaboration	-10.6276
▁armed	-10.6276
▁kenya	-10.6277
▁brook	-10.6278
▁greg	-10.6283
oo	-10.6283
▁discovery	-10.6283
▁sculpture	-10.6285
▁lay	-10.6288
▁nicholas	-10.629
▁duo	-10.6291
season	-10.6294
▁>	-10.6295
▁core	-10.6295
▁vehicle	-10.6296
▁credit	-10.6299
eastern	-10.63
▁twin	-10.6301
cent	-10.6302
▁door	-10.6303
▁attention	-10.6306
▁insurance	-10.6306
▁coastal	-10.631
▁berg	-10.6312
ste	-10.6314
▁athens	-10.632
▁values	-10.632
▁condition	-10.6322
mate	-10.6323
▁string	-10.6326
▁(2002)	-10.6328
ici	-10.633
▁richmond	-10.6331
sun	-10.6335
▁listing	-10.6335
free	-10.6335
▁brooklyn	-10.6339
▁structures	-10.6339
yne	-10.6341
▁yan	-10.6341
▁idea	-10.6342
▁standards	-10.6342
nc	-10.6343
ović	-10.6343
▁br	-10.6346
chy	-10.6347
▁springs	-10.6348
base	-10.6351
ра	-10.6358
▁critics	-10.6361
▁pieces	-10.6366
▁refers	-10.637
▁1887	-10.6379
▁directors	-10.638
ole	-10.6383
▁scheduled	-10.6383
place	-10.6384
▁til	-10.6388
mac	-10.6389
▁52.	-10.6394
▁institutions	-10.6395
sam	-10.6399
▁likely	-10.6402
▁effective	-10.6407
▁uncle	-10.6413
▁thi	-10.6418
▁expansion	-10.642
▁tunnel	-10.6422
▁82	-10.6425
24.	-10.6426
▁cbs	-10.6427
ax	-10.6428
bed	-10.6444
▁smithsonian	-10.6445
arch	-10.6445
▁relay	-10.6447
▁120	-10.6449
▁cy	-10.6453
▁montana	-10.6455
م	-10.6455
▁(22	-10.646
song	-10.6461
wo	-10.6462
ned	-10.6462
ware	-10.6462
▁bow	-10.647
▁vincent	-10.6473
▁oliver	-10.6474
▁touch	-10.6483
zh	-10.6484
table	-10.6486
liga	-10.6491
▁mini	-10.6491
▁worth	-10.6498
▁think	-10.6499
▁freestyle	-10.6499
▁pink	-10.6507
▁simply	-10.6508
▁clay	-10.651
▁operates	-10.6512
▁kirk	-10.6513
▁virgin	-10.6514
▁chan	-10.6514
▁underground	-10.6516
▁bond	-10.6517
▁carter	-10.6518
▁setting	-10.653
▁kumar	-10.6534
num	-10.6535
в	-10.6535
▁exempt	-10.6539
brook	-10.6539
▁enter	-10.6541
ovich	-10.6541
▁license	-10.6544
0′′	-10.6548
▁reign	-10.6548
▁£	-10.6548
▁contested	-10.655
pra	-10.655
76	-10.655
▁competitions	-10.6552
▁53.	-10.6554
▁1884	-10.6556
▁represents	-10.6561
▁internal	-10.6564
times	-10.6564
▁sides	-10.6565
▁adventure	-10.6566
▁1860	-10.6569
▁auckland	-10.6569
▁models	-10.6577
▁ll	-10.6587
▁reality	-10.6587
▁scotia	-10.6588
▁remain	-10.6591
lat	-10.6593
▁cerambycidae	-10.6594
-1.	-10.6598
▁chen	-10.6599
▁wings	-10.6599
▁saxophone	-10.66
▁kit	-10.6601
▁ghost	-10.6602
▁wingspan	-10.6603
ー	-10.6608
▁largely	-10.6612
tsu	-10.6613
ture	-10.6614
fan	-10.6615
▁kr	-10.6617
▁raf	-10.6617
▁ford	-10.6621
lock	-10.6623
▁gr	-10.6626
▁holland	-10.6628
▁fans	-10.6629
▁cycle	-10.6629
▁outdoor	-10.6638
-09	-10.6638
▁commerce	-10.664
▁molecular	-10.664
▁applications	-10.6642
▁barn	-10.6643
lt	-10.6649
via	-10.6649
▁(2000)	-10.6649
▁iranian	-10.6654
▁stands	-10.6655
sti	-10.6656
gle	-10.6658
which	-10.6659
▁ethnic	-10.666
▁creating	-10.6662
mr	-10.6663
play	-10.6669
▁trinity	-10.6673
kel	-10.6673
▁ends	-10.6674
iri	-10.6674
▁systematic	-10.668
▁liverpool	-10.6682
▁(24	-10.6682
▁hop	-10.6683
▁honorary	-10.6683
ān	-10.6685
▁gan	-10.6685
▁catherine	-10.6686
▁beauty	-10.6688
▁nazi	-10.6691
▁connection	-10.6699
▁cra	-10.67
school	-10.6703
▁1886	-10.6704
▁advance	-10.6704
▁membership	-10.6704
▁oh	-10.6705
sley	-10.6711
▁why	-10.6712
▁bottom	-10.6713
3%	-10.6713
▁lit	-10.6715
eck	-10.6717
▁steven	-10.6719
▁mills	-10.672
▁claim	-10.6721
ved	-10.6725
▁terry	-10.6726
ão	-10.6727
▁(27	-10.6733
▁marathon	-10.6735
thy	-10.6735
▁medium	-10.6736
600	-10.6736
py	-10.6746
▁existence	-10.6747
raj	-10.6747
▁resolution	-10.675
india	-10.6751
▁reason	-10.6752
1%	-10.6754
▁graduating	-10.6757
ock	-10.6757
▁vic	-10.6762
▁reservoir	-10.6763
▁lp	-10.6764
▁68	-10.6767
▁hamlet	-10.677
▁›	-10.6773
▁cousin	-10.6775
chan	-10.6775
update	-10.6775
▁arrested	-10.6776
▁statue	-10.6778
▁broken	-10.6778
4%	-10.678
▁83	-10.6786
▁sprint	-10.679
iff	-10.679
▁1995,	-10.6792
▁creative	-10.6795
▁(2014).	-10.6795
tive	-10.6798
style	-10.6798
lus	-10.6801
▁joel	-10.6803
▁(25	-10.6804
▁walls	-10.6805
▁minute	-10.6808
▁6:	-10.6811
▁daughters	-10.6811
▁tail	-10.6811
▁91	-10.6813
▁qu	-10.6818
pod	-10.6818
▁hawaii	-10.6825
▁charlie	-10.6828
ras	-10.6829
▁transit	-10.683
æ	-10.683
▁1865	-10.6833
▁trained	-10.6834
ido	-10.6837
former	-10.6838
-23	-10.684
group	-10.6842
cht	-10.6843
:10.1016/	-10.6843
hon	-10.6843
thi	-10.6844
▁vocal	-10.6845
▁reaching	-10.6846
▁universe	-10.6851
▁ralph	-10.6851
▁download	-10.6853
▁len	-10.6859
▁consecutive	-10.6859
▁mollusk	-10.686
▁×	-10.6864
▁manor	-10.6866
▁progressive	-10.6867
ی	-10.6873
▁kept	-10.6876
▁landing	-10.6882
▁michel	-10.689
fort	-10.6892
10.	-10.6894
▁fear	-10.6896
▁painted	-10.6897
gas	-10.6898
▁monthly	-10.69
bc	-10.6901
▁arabic	-10.6901
▁(26	-10.6902
800	-10.6903
int	-10.6905
▁(30	-10.6905
▁cher	-10.6906
tier	-10.6908
▁fishing	-10.691
▁hydro	-10.6912
▁cave	-10.6916
▁courses	-10.6924
▁mouth	-10.6928
some	-10.6933
ł	-10.6935
▁producing	-10.6937
▁suffered	-10.6938
hard	-10.6939
▁tag	-10.6939
show	-10.6941
room	-10.6942
▁premiered	-10.6942
wall	-10.6944
▁1864	-10.6944
sie	-10.6946
▁kennedy	-10.6952
▁congo	-10.6956
gram	-10.6957
▁asked	-10.6962
▁cdp	-10.6962
▁grows	-10.6963
▁receive	-10.6967
▁question	-10.6968
▁authorities	-10.6968
?"	-10.6969
▁tor	-10.697
dic	-10.6971
▁kai	-10.6971
▁symphony	-10.6972
▁pond	-10.6974
▁butler	-10.6974
▁raja	-10.6984
▁uni	-10.6984
▁discussion	-10.6985
▁feed	-10.6985
▁(2010-07-0	-10.6987
sea	-10.6992
ere	-10.6992
ave	-10.6993
▁someone	-10.6995
▁1881	-10.7
lim	-10.7001
ž	-10.7002
▁rush	-10.7005
▁grace	-10.7007
▁flow	-10.701
▁venezuela	-10.701
▁[ˈ	-10.7016
▁tea	-10.7016
oy	-10.7021
ving	-10.7022
▁defeating	-10.7023
▁ال	-10.7028
▁amsterdam	-10.7028
▁yale	-10.7032
▁muslim	-10.7032
▁escape	-10.7032
▁philippine	-10.7035
▁bristol	-10.7039
▁hp	-10.7042
kal	-10.7043
▁confirmed	-10.7045
▁something	-10.7049
▁gregory	-10.705
▁bed	-10.7054
▁save	-10.7059
uma	-10.7062
▁ceremony	-10.7068
▁tang	-10.707
▁friday	-10.707
uni	-10.7074
uta	-10.7075
ν	-10.7077
▁opposition	-10.7077
▁boxing	-10.7078
▁slovenia	-10.7079
park	-10.7079
col	-10.708
▁audience	-10.7085
▁existing	-10.7086
rod	-10.7086
▁ble	-10.7088
sion	-10.7088
content	-10.7088
▁bring	-10.709
▁bun	-10.7095
▁leon	-10.7097
mine	-10.7101
▁anime	-10.7107
▁charter	-10.711
▁sets	-10.711
▁pressure	-10.7111
▁recognition	-10.7112
▁merchant	-10.7112
ox	-10.7112
▁ghana	-10.7114
▁sabha	-10.7115
▁pier	-10.7123
▁kay	-10.7131
▁2006).	-10.7133
▁manuel	-10.7133
▁89	-10.7134
▁sep	-10.7139
▁sugar	-10.7141
▁persian	-10.7143
anna	-10.7143
33°	-10.7144
▁subfamily	-10.7148
▁lions	-10.7151
▁geographical	-10.7153
на	-10.7154
▁nad	-10.7155
eli	-10.7159
ér	-10.7161
▁bulgaria	-10.7161
das	-10.7163
▁gain	-10.7166
▁math	-10.717
most	-10.717
▁insee	-10.7172
▁buffalo	-10.7173
tti	-10.7174
lov	-10.7177
▁flower	-10.7177
▁ok	-10.7178
pc	-10.718
iva	-10.7184
▁corn	-10.7185
lands	-10.7188
▁ill	-10.7189
▁rosa	-10.7193
▁quickly	-10.7193
▁fighter	-10.7195
▁abandoned	-10.7195
ija	-10.7199
anga	-10.72
udi	-10.7205
▁dancer	-10.7208
▁nevada	-10.7209
▁situation	-10.7209
▁resort	-10.721
▁boundary	-10.721
▁rolling	-10.721
sol	-10.721
▁leo	-10.7211
shaped	-10.7211
▁nas	-10.7212
▁grow	-10.7216
▁address	-10.7218
▁laboratory	-10.7218
▁1995)	-10.7218
nus	-10.7219
lot	-10.7221
▁object	-10.7221
▁rai	-10.7222
▁oscar	-10.7223
▁starred	-10.7224
away	-10.7225
▁(1999).	-10.7226
bie	-10.7226
▁3-	-10.7227
▁pc	-10.7229
▁perform	-10.723
▁cash	-10.7232
▁qua	-10.7236
▁skin	-10.7237
▁offer	-10.7239
tim	-10.7239
lit	-10.724
ridge	-10.7249
▁rhythm	-10.725
▁speaker	-10.7251
▁initiative	-10.7257
kon	-10.7259
ɛ	-10.7267
nick	-10.7276
▁kur	-10.7281
▁foster	-10.7282
▁99	-10.7283
fall	-10.7283
–0	-10.7287
▁enzyme	-10.7292
▁fl	-10.7293
▁(1,	-10.7295
▁violin	-10.7299
▁wooden	-10.7305
â	-10.7307
▁kat	-10.7308
▁springer	-10.731
▁sheet	-10.7311
take	-10.7313
▁tier	-10.7317
▁(23	-10.732
▁snail	-10.7323
ffer	-10.7324
▁peaked	-10.7325
▁strip	-10.7328
▁whit	-10.7328
▁told	-10.7332
inter	-10.7332
▁vel	-10.7334
bay	-10.7335
▁extensive	-10.7336
▁munich	-10.7341
▁choir	-10.7343
▁fuel	-10.7346
iti	-10.7347
camp	-10.7348
fire	-10.7348
▁derby	-10.735
pm	-10.735
▁marketing	-10.7354
▁1994,	-10.7356
▁wave	-10.7357
aro	-10.7357
67°	-10.7358
▁stuart	-10.7359
chin	-10.7361
jar	-10.7362
▁mars	-10.7375
▁hung	-10.7377
tum	-10.738
▁jin	-10.7383
date	-10.7383
▁mean	-10.7387
ification	-10.7389
▁objects	-10.739
▁actually	-10.739
▁pod	-10.7391
▁1988.	-10.7397
▁centuries	-10.7398
▁š	-10.7398
▁companion	-10.7404
▁debuted	-10.7404
▁bold	-10.7405
london	-10.7408
▁occupied	-10.741
▁frequently	-10.7411
▁artistic	-10.7412
▁identified	-10.7413
▁mph	-10.7422
▁universities	-10.7425
▁stores	-10.7429
▁1883	-10.7434
▁cruz	-10.7435
▁spa	-10.7436
▁sole	-10.7438
iro	-10.7439
books	-10.7445
▁passing	-10.7448
▁northwestern	-10.7448
▁sci	-10.745
▁(28	-10.7456
▁efforts	-10.7457
lag	-10.7458
hm	-10.746
▁1863	-10.7462
▁poem	-10.7463
▁bands	-10.7465
-21	-10.7465
▁1882	-10.7467
wy	-10.7467
▁limit	-10.7469
▁wellington	-10.747
amba	-10.7478
▁roberts	-10.7479
▁solid	-10.748
▁reaction	-10.7486
▁kun	-10.7487
▁kas	-10.7487
▁87	-10.7491
▁(1998).	-10.7494
▁sporting	-10.7495
stan	-10.7496
▁mos	-10.7497
▁«	-10.7499
▁presence	-10.7501
▁recreation	-10.7502
▁86	-10.7502
▁(1999)	-10.7503
▁affiliated	-10.7504
▁pseudo	-10.7505
para	-10.7507
▁postal	-10.7512
▁proceedings	-10.7513
rad	-10.7516
▁perfect	-10.7516
▁och	-10.7517
▁nam	-10.752
when	-10.752
▁crystal	-10.752
▁hai	-10.7523
ions	-10.7524
tica	-10.7525
▁sei	-10.7527
!".	-10.7529
▁lind	-10.7531
▁receiving	-10.7531
▁calendar	-10.7532
▁rom	-10.7533
▁harold	-10.7534
tam	-10.7535
▁terminus	-10.7536
▁waters	-10.7538
▁fauna	-10.7538
ars	-10.7545
-14	-10.7548
▁ago	-10.7557
9.	-10.7557
▁target	-10.7562
▁arc	-10.7562
▁avoid	-10.7562
▁parallel	-10.7566
vy	-10.7567
▁fully	-10.7567
▁1875	-10.7568
ello	-10.7569
▁kenneth	-10.7571
0.	-10.7574
▁acc	-10.7575
oidea	-10.7576
▁(2013)	-10.7576
▁damage	-10.7577
smith	-10.7578
late	-10.7582
▁biggest	-10.7583
hen	-10.7584
▁rag	-10.7584
▁1989)	-10.7584
▁laura	-10.7586
▁allows	-10.7589
▁lighthouse	-10.7591
boy	-10.7591
▁nba	-10.7592
▁orthodox	-10.7595
▁enemy	-10.7596
▁dating	-10.76
tta	-10.76
vor	-10.7602
▁1990.	-10.7602
▁handball	-10.7603
rov	-10.7604
06.	-10.7606
▁franchise	-10.7608
▁40.	-10.7611
▁alice	-10.7613
▁shared	-10.7622
▁drum	-10.7622
nk	-10.7624
▁soft	-10.7625
chief	-10.7628
▁editions	-10.7636
▁cole	-10.7637
▁bot	-10.764
▁learn	-10.7647
▁triple	-10.7648
eus	-10.7649
dell	-10.7654
ech	-10.7655
▁borders	-10.7657
▁sisters	-10.7659
spanish	-10.7659
▁eleven	-10.766
▁um	-10.7661
▁ordered	-10.7663
▁shooting	-10.7665
▁defensive	-10.7665
▁rep	-10.7668
ب	-10.767
▁cow	-10.767
▁boss	-10.7671
lyn	-10.7674
▁obituary	-10.7675
▁thor	-10.7676
▁fantasy	-10.7678
▁contributed	-10.7679
bill	-10.768
▁broke	-10.7685
▁prevent	-10.7687
▁plain	-10.7689
▁factfinder	-10.7692
▁claims	-10.7694
▁evolution	-10.7697
▁novels	-10.7698
én	-10.77
▁begin	-10.7702
▁risk	-10.7704
у	-10.7707
▁kol	-10.7708
▁teachers	-10.7709
▁qualifier	-10.771
▁seed	-10.7711
▁tell	-10.7715
▁1992,	-10.7717
▁caribbean	-10.772
▁vas	-10.7721
ت	-10.7721
▁sl	-10.7722
published	-10.7722
▁dur	-10.7724
isation	-10.7725
▁twitter	-10.7725
▁cuba	-10.7725
zon	-10.7729
▁occurred	-10.773
▁1993)	-10.7735
oka	-10.7738
▁northeastern	-10.774
▁volumes	-10.7742
▁scientist	-10.7742
▁bible	-10.7743
▁reg	-10.7745
▁competing	-10.7748
▁user	-10.7751
▁whether	-10.7751
ș	-10.7757
▁weekend	-10.7757
▁equal	-10.7758
ː	-10.776
▁covering	-10.7761
▁scheme	-10.7762
▁brunswick	-10.7764
▁stockholm	-10.7767
▁swa	-10.7768
nov	-10.7775
rey	-10.7776
▁1993,	-10.7776
hop	-10.778
▁visited	-10.7784
▁inner	-10.7788
▁cri	-10.7793
today	-10.7794
▁column	-10.7794
▁1861	-10.7795
▁employed	-10.7796
▁revealed	-10.7796
▁2008-01-31.	-10.7799
▁demo	-10.7799
▁horror	-10.7801
▁carol	-10.7802
▁paid	-10.7803
tori	-10.7813
▁1862	-10.7814
▁invited	-10.7814
▁95	-10.7815
▁ei	-10.7817
▁1879	-10.7819
▁instruments	-10.7819
▁giant	-10.7821
▁1878	-10.7822
▁1991)	-10.7822
▁cox	-10.7823
▁faith	-10.7829
lla	-10.7835
▁checklist	-10.7838
▁overview	-10.7838
▁mason	-10.7843
french	-10.7845
▁coaching	-10.7845
▁trio	-10.7847
▁aid	-10.7847
▁ec	-10.785
▁external	-10.7852
white	-10.7852
▁brad	-10.7853
▁turns	-10.7853
radio	-10.7856
ites	-10.7871
▁res	-10.7871
▁stood	-10.7876
▁potential	-10.7876
sub	-10.7876
5,000	-10.7878
▁fisher	-10.7892
▁joy	-10.7892
tie	-10.7896
▁(4):	-10.7896
▁protect	-10.79
▁punjab	-10.7902
▁luc	-10.7903
▁•	-10.7904
ago	-10.7907
▁fat	-10.7909
▁mak	-10.7911
250	-10.7912
mile	-10.7918
▁raymond	-10.7922
ao	-10.7925
▁1877	-10.7926
site	-10.7934
▁corporate	-10.7935
nas	-10.7935
▁vermont	-10.7936
▁pla	-10.7937
▁tank	-10.7938
▁monastery	-10.7941
▁ottawa	-10.7941
▁islam	-10.7942
yr	-10.7943
ments	-10.7945
-13	-10.7945
▁archaeological	-10.7947
▁kerala	-10.7948
▁cloud	-10.7949
า	-10.795
_{	-10.795
–9	-10.7958
▁1989.	-10.7962
▁nielsen	-10.7964
▁pedro	-10.7964
owski	-10.7965
▁dub	-10.7967
bas	-10.7967
▁rud	-10.7973
▁citizens	-10.7973
und	-10.7973
née	-10.7974
▁observer	-10.7978
▁write	-10.7979
bound	-10.7979
▁supplement	-10.7983
▁defending	-10.7985
▁itunes	-10.7987
mad	-10.7988
women	-10.7989
enburg	-10.7989
▁1876	-10.7996
▁successor	-10.7996
▁mou	-10.7998
hor	-10.7999
▁extinct	-10.7999
▁sultan	-10.8007
▁frog	-10.8008
▁crash	-10.801
third	-10.8011
▁coaches	-10.8012
▁drummer	-10.8012
had	-10.8017
▁sai	-10.8017
▁survived	-10.8018
bad	-10.8019
hel	-10.8024
ender	-10.8025
▁dragon	-10.8025
ía	-10.8026
▁0-9	-10.8027
▁tab	-10.8028
▁completely	-10.8031
▁bud	-10.8032
▁paulo	-10.8034
▁spider	-10.8036
▁39.	-10.8037
gs	-10.8038
▁combination	-10.804
▁qa	-10.804
▁fil	-10.8046
▁otto	-10.8047
oides	-10.8052
ان	-10.8057
dc	-10.8057
!"	-10.8059
▁artillery	-10.8059
▁thirty	-10.806
▁sing	-10.8062
▁scores	-10.8062
▁beck	-10.8063
▁appeal	-10.8069
▁bosnia	-10.807
▁courts	-10.8075
▁coalition	-10.8076
▁1994)	-10.8076
▁43.	-10.8076
aq	-10.8088
rap	-10.8094
▁phillips	-10.8094
▁dos	-10.8098
▁constituencies	-10.8101
▁returns	-10.8107
put	-10.8111
▁@	-10.8112
▁sense	-10.8115
▁shopping	-10.8115
▁vehicles	-10.8116
▁1867	-10.8117
▁miguel	-10.8121
▁1990)	-10.8122
▁adults	-10.8122
▁arnold	-10.8124
▁sab	-10.8125
▁lok	-10.8139
▁counter	-10.8139
▁songwriter	-10.8143
▁diamond	-10.8144
▁arranged	-10.8144
▁incident	-10.8147
▁neuro	-10.8149
▁eighth	-10.815
о	-10.8151
▁instituto	-10.8153
▁1992)	-10.8154
▁1850	-10.8155
▁scholarship	-10.8157
▁armenian	-10.816
▁replace	-10.8161
▁leonard	-10.8165
fin	-10.8175
▁amount	-10.818
▁sierra	-10.8183
▁harrison	-10.8184
▁divisions	-10.8187
▁rising	-10.8187
9%	-10.8192
etta	-10.8193
▁hosts	-10.8193
mir	-10.8197
▁stanford	-10.8197
ors	-10.8198
▁branches	-10.8199
▁installed	-10.8199
night	-10.82
language	-10.8201
▁mathematical	-10.8203
▁physician	-10.8203
▁lap	-10.8204
▁charity	-10.8205
▁subsequent	-10.8205
001	-10.8205
▁window	-10.8205
ario	-10.821
ois	-10.8211
cast	-10.8211
court	-10.8213
▁mod	-10.8219
▁nrhp	-10.8219
21.	-10.822
▁1991,	-10.8222
▁intersection	-10.8223
▁credited	-10.8223
tch	-10.8224
▁regularly	-10.8226
▁def	-10.8229
▁relatively	-10.8236
▁registration	-10.824
▁rama	-10.8247
ean	-10.8249
2%	-10.825
▁add	-10.825
▁partners	-10.8251
ans	-10.8251
▁manufacturer	-10.8254
zar	-10.8255
▁2005).	-10.8255
▁iraq	-10.8255
▁drafted	-10.8259
▁patent	-10.8259
▁looking	-10.826
▁advocate	-10.8262
▁bears	-10.8264
▁ip	-10.8269
dam	-10.827
▁saskatchewan	-10.8274
▁democrat	-10.8274
▁bonus	-10.8275
▁hair	-10.8276
ction	-10.8276
aff	-10.8281
report	-10.8282
▁hull	-10.8282
borg	-10.8283
ρ	-10.8284
▁maritime	-10.8284
▁compared	-10.8284
▁ronald	-10.8285
▁41.	-10.8286
▁owen	-10.8287
▁southeastern	-10.829
-04	-10.829
elected	-10.8293
▁ted	-10.8294
▁canon	-10.8295
▁lip	-10.8296
math	-10.8297
▁orleans	-10.8298
▁patrol	-10.8305
}}	-10.8313
▁contained	-10.8313
▁ruth	-10.8316
▁plane	-10.8316
▁(2014)	-10.8318
▁96	-10.8318
▁signs	-10.8321
▁citation	-10.8324
president	-10.8325
▁wc	-10.8328
▁bobby	-10.8331
är	-10.8334
▁1000	-10.8335
▁unlike	-10.8335
▁hired	-10.8339
▁gilbert	-10.8341
rose	-10.8342
rá	-10.835
green	-10.8353
▁personnel	-10.8359
▁della	-10.8361
▁swimmer	-10.8361
▁ottoman	-10.8363
▁continental	-10.8365
▁ahead	-10.8365
▁ras	-10.8368
▁mau	-10.8368
zel	-10.8369
▁resident	-10.8369
rate	-10.8371
▁heard	-10.8372
̇	-10.8374
▁incumbent	-10.8377
▁saying	-10.8377
▁tigers	-10.8378
▁93	-10.8378
iki	-10.8379
▁venue	-10.838
▁punk	-10.8381
pri	-10.8385
▁resulting	-10.8386
▁plate	-10.8386
▁thai	-10.8386
gli	-10.8391
▁effort	-10.8392
▁(1997)	-10.8392
ord	-10.8392
▁passengers	-10.8392
▁hamburg	-10.8392
▁clean	-10.8397
▁typical	-10.8397
▁documents	-10.84
▁erik	-10.8403
▁diameter	-10.8404
▁industries	-10.8404
ни	-10.8405
vent	-10.8408
ates	-10.8413
▁sell	-10.8415
▁chin	-10.842
▁opposite	-10.8427
lle	-10.8431
▁scenes	-10.8432
▁revolutionary	-10.8439
ا	-10.8444
▁guns	-10.8447
▁ability	-10.8448
ography	-10.8451
rr	-10.8458
▁eagle	-10.846
▁penguin	-10.8461
▁serial	-10.8462
▁swan	-10.8463
▁carbon	-10.8464
▁berkeley	-10.8464
▁1986)	-10.8465
▁perth	-10.8466
▁kiss	-10.8467
gin	-10.8469
▁tells	-10.8469
▁esp	-10.8478
▁developing	-10.848
▁chase	-10.8486
rian	-10.8486
▁matter	-10.8486
▁1874	-10.849
▁conductor	-10.8497
paul	-10.85
▁murphy	-10.8502
▁appointment	-10.8503
▁believe	-10.8506
▁settlements	-10.8507
▁peer	-10.8509
hat	-10.8509
▁1985.	-10.8511
▁phone	-10.8512
▁persons	-10.8512
▁clarke	-10.8513
profile	-10.8518
▁crc	-10.8518
▁bha	-10.852
▁bart	-10.8522
▁mode	-10.8524
▁belongs	-10.8525
▁manufacturing	-10.8525
▁experimental	-10.8528
▁sit	-10.8528
▁1872	-10.8529
▁1987)	-10.8529
▁mosque	-10.853
▁cad	-10.8531
▁jacques	-10.8531
▁1988)	-10.8534
sten	-10.8536
trans	-10.8538
▁statement	-10.8538
▁poverty	-10.8538
▁grande	-10.854
▁lists	-10.854
▁(29	-10.854
▁adapted	-10.8542
▁wilhelm	-10.8542
▁hr	-10.8544
▁1986.	-10.8546
3-	-10.8547
ough	-10.8547
▁ober	-10.8547
lab	-10.8548
▁botanical	-10.8549
▁mut	-10.855
main	-10.855
▁1996)	-10.855
▁joan	-10.855
י	-10.8552
▁98	-10.8552
gor	-10.8557
▁importance	-10.8559
horn	-10.8561
▁bugguide	-10.8562
▁earliest	-10.8562
▁closely	-10.8565
▁sid	-10.8565
▁pont	-10.8567
ör	-10.8568
▁warsaw	-10.8568
aspx	-10.857
▁investigation	-10.857
▁testament	-10.8576
▁cool	-10.8576
hai	-10.8576
ace	-10.8578
▁approved	-10.8581
$	-10.8581
▁disney	-10.8583
▁needs	-10.8583
▁mcc	-10.8584
▁sharp	-10.8586
rina	-10.8588
▁treaty	-10.8588
▁croatia	-10.8588
▁southwestern	-10.8589
kai	-10.859
▁eliminated	-10.8596
ン	-10.8596
▁signing	-10.8596
▁egyptian	-10.8597
▁ride	-10.8598
▁copa	-10.8599
▁heads	-10.8603
▁92	-10.8603
wen	-10.8606
formerly	-10.861
▁lucky	-10.8611
▁premiere	-10.8614
▁guitars	-10.8617
▁ign	-10.8617
▁happy	-10.8621
dec	-10.8621
length	-10.8625
▁electrical	-10.8626
▁warner	-10.8627
▁wars	-10.8627
▁restored	-10.8629
iidae	-10.8629
▁sequence	-10.863
0.0	-10.863
▁vessel	-10.8633
▁101	-10.8633
▁expected	-10.8635
▁colony	-10.864
▁cas	-10.8643
▁1987.	-10.8646
▁vin	-10.8647
vik	-10.865
▁examples	-10.8652
▁task	-10.8652
▁shield	-10.8652
asp	-10.8654
▁woods	-10.8655
▁factor	-10.8657
els	-10.8659
last	-10.8659
ा	-10.866
▁biological	-10.8663
ske	-10.8664
▁kate	-10.8675
▁milk	-10.8677
▁johann	-10.8677
▁briefly	-10.8679
▁ul	-10.8679
▁losses	-10.8681
itt	-10.8682
station	-10.8685
▁laws	-10.8685
▁easy	-10.8687
▁larvae	-10.8691
▁abu	-10.8693
▁cru	-10.8694
rz	-10.8695
▁pm	-10.8696
▁1985)	-10.8697
▁belt	-10.8697
▁prague	-10.87
▁volunteer	-10.87
▁billion	-10.8708
▁bala	-10.8709
▁afghanistan	-10.871
▁henri	-10.8711
▁anton	-10.8712
ander	-10.8713
▁budget	-10.8714
iel	-10.8717
▁feb	-10.8722
ides	-10.8724
▁1866	-10.8724
gre	-10.8724
cin	-10.873
▁cotton	-10.873
▁instrumental	-10.8731
ée	-10.8732
▁farmer	-10.8732
▁finds	-10.8734
▁killing	-10.8734
isa	-10.8735
▁cord	-10.8736
ğ	-10.8738
▁slow	-10.8739
▁streets	-10.874
tas	-10.8742
▁restoration	-10.8743
▁wheel	-10.8748
▁sections	-10.8748
dp	-10.8751
▁tap	-10.8756
▁difficult	-10.8756
▁classified	-10.8757
▁rapid	-10.8758
hir	-10.8758
▁successfully	-10.8767
ą	-10.8768
▁aug	-10.8778
▁shaw	-10.8781
▁scar	-10.8781
▁manga	-10.8782
▁substitute	-10.8782
mic	-10.8782
mia	-10.8784
▁jefferson	-10.8785
code	-10.8786
00,000	-10.8787
▁nothing	-10.8792
▁eddie	-10.8792
▁pianist	-10.8792
uga	-10.8792
▁cardinal	-10.8794
▁(2015).	-10.8794
▁françois	-10.8795
▁pain	-10.8796
▁fill	-10.8798
his	-10.8799
▁grounds	-10.8799
alle	-10.88
▁phoenix	-10.8804
▁bert	-10.8804
ego	-10.8804
ło	-10.8806
including	-10.8809
▁chose	-10.8809
details	-10.8809
▁chang	-10.881
▁ferry	-10.8813
▁focused	-10.8813
▁idaho	-10.8813
odo	-10.8817
▁admiral	-10.8826
▁davies	-10.8826
▁sy	-10.8829
▁notably	-10.8829
ew	-10.8833
▁(2017).	-10.8834
ability	-10.8836
▁gospel	-10.8841
▁admitted	-10.8841
▁colin	-10.8843
ians	-10.8844
▁merger	-10.8845
▁engineers	-10.8846
sal	-10.8847
▁deutsche	-10.8847
▁dropped	-10.8848
rk	-10.8851
▁vale	-10.8851
▁1873	-10.8851
▁reduced	-10.8852
ли	-10.8855
▁clinical	-10.8857
▁maj	-10.8858
>	-10.8858
▁jerusalem	-10.8858
▁od	-10.886
▁110	-10.886
▁trumpet	-10.886
▁owners	-10.8863
▁delaware	-10.8865
▁1868	-10.8865
▁methods	-10.8867
▁bir	-10.8867
▁showing	-10.8868
▁submarine	-10.8869
umi	-10.8871
▁voted	-10.8873
▁alumni	-10.8877
▁cork	-10.8878
▁identity	-10.8879
▁yard	-10.888
▁petersburg	-10.8892
▁competitive	-10.8893
▁announces	-10.8893
▁dom	-10.8896
rai	-10.8902
▁kick	-10.8903
▁nbc	-10.8905
soccer	-10.8906
▁funding	-10.8906
▁ek	-10.8911
maker	-10.8913
pha	-10.8914
▁routes	-10.8921
▁luke	-10.8924
dre	-10.8925
▁princeton	-10.8929
▁bak	-10.8929
▁runners	-10.8932
▁syria	-10.8937
gio	-10.894
▁kilometers	-10.8943
omi	-10.8944
▁episcopal	-10.8944
▁bog	-10.8947
▁coat	-10.8948
▁thing	-10.8948
▁1983.	-10.8948
▁edwards	-10.8953
▁gui	-10.8954
▁belonging	-10.8954
hua	-10.8955
▁edmund	-10.8956
▁norfolk	-10.8957
▁cab	-10.8957
quin	-10.8959
▁1871	-10.896
▁1989,	-10.8961
▁ib	-10.8962
blue	-10.8962
▁ng	-10.8963
matic	-10.8965
asa	-10.8966
▁purchase	-10.8969
▁perry	-10.897
▁yang	-10.8971
tax	-10.8973
▁1984.	-10.8975
▁sec	-10.8976
▁engaged	-10.8976
▁ernest	-10.8977
▁meets	-10.8978
▁sexual	-10.898
▁gear	-10.8981
▁strike	-10.8982
char	-10.8988
▁din	-10.8989
▁getting	-10.8989
▁gri	-10.8992
▁crowd	-10.8994
▁resulted	-10.8995
▁eva	-10.8996
▁maurice	-10.8996
▁device	-10.8999
▁fiba	-10.9002
qa	-10.9004
lang	-10.9005
cas	-10.9006
▁muhammad	-10.901
▁allan	-10.9012
大	-10.9013
▁friedrich	-10.9013
▁pinyin	-10.9017
▁nadu	-10.9017
▁rocky	-10.9018
ration	-10.9021
anne	-10.9022
ár	-10.9024
▁watson	-10.9025
▁flood	-10.9027
▁spell	-10.9029
▁honours	-10.9033
▁citizen	-10.9033
▁duck	-10.9035
▁cincinnati	-10.9038
▁fresh	-10.9038
▁hebrew	-10.9038
hip	-10.904
▁rescue	-10.9041
oz	-10.9041
▁orchid	-10.9042
▁tribute	-10.9042
rea	-10.9047
▁literacy	-10.9049
▁revenue	-10.9049
▁liu	-10.905
ory	-10.9053
yi	-10.9058
kawa	-10.906
▁madison	-10.906
▁rot	-10.9067
▁kre	-10.9068
▁gur	-10.9069
▁maha	-10.9069
▁ecuador	-10.9073
▁functions	-10.9075
▁dev	-10.9077
▁smart	-10.9081
round	-10.9081
▁rogers	-10.9082
▁animation	-10.9084
▁ladies	-10.9088
gn	-10.9096
▁rating	-10.9096
▁hudson	-10.9099
▁headed	-10.9102
act	-10.9102
tour	-10.9105
vic	-10.9106
▁goalkeeper	-10.9106
▁prof	-10.9107
▁photographs	-10.9109
▁outer	-10.911
6%	-10.9113
▁carry	-10.9117
race	-10.9117
▁engines	-10.9118
▁specifically	-10.9118
vu	-10.9119
ious	-10.9119
▁brisbane	-10.912
▁tsu	-10.9122
▁animated	-10.9124
▁wedding	-10.9125
▁gone	-10.9126
▁superior	-10.9127
▁panel	-10.9128
3,	-10.9128
aw	-10.9136
watch	-10.9137
▁1982.	-10.9137
gam	-10.9138
▁hil	-10.9143
▁sean	-10.9145
journal	-10.9146
▁vocalist	-10.9146
▁trouble	-10.9148
▁somerset	-10.9152
▁indonesian	-10.9153
▁leads	-10.9153
district	-10.9153
▁phd	-10.9155
▁justin	-10.9156
power	-10.9156
ür	-10.9161
▁cf	-10.9168
▁entirely	-10.917
▁1990,	-10.917
▁harbour	-10.9172
▁touring	-10.9173
▁duty	-10.9175
▁hum	-10.9175
▁cyclist	-10.9176
ч	-10.918
▁appearing	-10.918
▁lar	-10.9181
▁injured	-10.9185
▁harvey	-10.9186
▁cla	-10.9186
▁durham	-10.919
▁rsssf	-10.9191
hol	-10.9192
▁pitcher	-10.9192
▁drew	-10.9195
▁loser	-10.9196
▁pil	-10.9198
ка	-10.9198
▁herb	-10.9202
▁kids	-10.9203
▁entrepreneur	-10.9204
mini	-10.9206
▁establish	-10.9208
▁cass	-10.9208
▁cc	-10.9209
▁landmarks	-10.9209
endra	-10.921
▁bos	-10.9213
=1	-10.9216
▁racial	-10.9218
mun	-10.9219
mmer	-10.922
▁powerful	-10.922
▁buy	-10.9223
▁manitoba	-10.9225
▁lodge	-10.9225
▁ana	-10.9226
video	-10.9229
▁diver	-10.9229
▁mega	-10.923
▁visitors	-10.9233
oro	-10.9236
▁attend	-10.9238
▁rangers	-10.9239
▁homepage	-10.9243
yang	-10.9244
teams	-10.9244
▁users	-10.9245
yard	-10.9248
▁milwaukee	-10.9248
▁(1995)	-10.9249
enko	-10.925
jp	-10.9252
▁julian	-10.9253
lio	-10.9253
charts	-10.9254
▁exist	-10.9254
▁degrees	-10.9255
ла	-10.9258
▁parent	-10.9264
ô	-10.9265
▁ensemble	-10.9272
▁mé	-10.9274
ces	-10.9275
▁scha	-10.9275
▁az	-10.9275
▁inaugural	-10.9276
▁florence	-10.9276
▁bai	-10.9278
mill	-10.9278
ux	-10.9279
chu	-10.9282
▁truth	-10.9283
▁lion	-10.9284
▁birthday	-10.9285
▁$2	-10.9288
ged	-10.9288
▁krishna	-10.929
▁tommy	-10.9292
▁butterfly	-10.9294
▁herself	-10.9294
▁monday	-10.9296
▁giovanni	-10.9309
▁indicated	-10.9312
▁innings	-10.9313
▁lac	-10.9315
lau	-10.9316
▁ballet	-10.9317
▁indie	-10.9317
its	-10.9321
kun	-10.9325
▁soil	-10.9326
▁failure	-10.9327
iu	-10.9329
▁editorial	-10.933
▁retail	-10.9333
▁speech	-10.9334
▁coverage	-10.9334
▁flowering	-10.9334
rna	-10.9335
hart	-10.9337
▁gol	-10.9342
▁reasons	-10.9343
▁attached	-10.9348
▁meta	-10.9348
▁franz	-10.9352
cm	-10.9355
▁latest	-10.9357
▁tomb	-10.9357
▁newcastle	-10.936
6.	-10.9362
▁fee	-10.9364
▁widow	-10.9367
▁elite	-10.9368
▁1984)	-10.9369
-25	-10.937
▁heaven	-10.9372
▁occupation	-10.9374
ej	-10.9375
miss	-10.9375
rl	-10.9376
later	-10.9378
shaw	-10.9379
▁sung	-10.9381
▁bryan	-10.9381
ij	-10.9383
▁recipient	-10.9388
▁harbor	-10.9389
▁aero	-10.939
sim	-10.939
▁lisa	-10.939
oi	-10.9393
▁1982)	-10.9398
orum	-10.9402
▁fcc	-10.9402
iza	-10.9405
bell	-10.9409
▁1869	-10.9412
▁hughes	-10.9413
▁blind	-10.9414
▁journalism	-10.9414
▁request	-10.9416
▁boxer	-10.9418
▁afterwards	-10.9419
▁actors	-10.942
app	-10.9423
dl	-10.9426
▁administrator	-10.9426
▁distinct	-10.9426
cel	-10.9427
aud	-10.9428
hoe	-10.9433
▁quite	-10.9436
▁joins	-10.9442
▁maintained	-10.9443
▁(2015)	-10.9444
▁childhood	-10.9445
▁bet	-10.945
▁psychology	-10.9452
▁(1996)	-10.9453
aux	-10.9454
phon	-10.9459
▁rough	-10.9462
▁tried	-10.9463
▁(2009	-10.9463
▁annually	-10.9468
ht	-10.9468
phil	-10.9474
▁taka	-10.9475
▁offering	-10.9477
▁beer	-10.9477
leg	-10.9478
▁possibly	-10.9479
▁managing	-10.9479
▁serie	-10.9481
▁dated	-10.9482
▁на	-10.9482
▁palmer	-10.9483
▁collegiate	-10.9485
lepidoptera	-10.9488
▁silva	-10.9489
profit	-10.9489
sum	-10.949
167	-10.9491
11.	-10.9493
▁libraries	-10.9493
▁cells	-10.9494
▁storage	-10.9494
▁andrea	-10.9495
▁pack	-10.9497
▁otherwise	-10.95
/10	-10.9502
▁ein	-10.9503
▁cum	-10.9504
google	-10.9505
bul	-10.9509
ters	-10.9509
-24	-10.9509
ement	-10.951
▁rou	-10.9514
▁tiger	-10.9515
▁tourist	-10.9517
france	-10.9518
▁espncricinfo	-10.9519
four	-10.9522
▁selling	-10.9524
05.	-10.9524
lake	-10.9525
▁estonian	-10.9527
▁polo	-10.9531
open	-10.954
winning	-10.9541
beat	-10.9541
▁1987,	-10.9541
▁invasion	-10.9542
▁mystery	-10.9547
900	-10.9556
▁2008)	-10.9558
ο	-10.956
▁peerage	-10.9561
▁views	-10.9562
▁mineral	-10.9566
▁determined	-10.9567
▁edmonton	-10.9568
▁nh	-10.9569
5.	-10.957
▁ahmed	-10.9571
▁essex	-10.9572
▁contain	-10.9573
ack	-10.9573
space	-10.9573
▁sculptor	-10.9576
▁whilst	-10.9579
▁coached	-10.9581
▁ut	-10.9582
▁funds	-10.9582
▁emergency	-10.9583
▁eagles	-10.9586
▁versus	-10.9587
▁dai	-10.9588
▁surgery	-10.9591
▁sem	-10.9598
04.	-10.9601
▁hammer	-10.9604
cott	-10.9606
▁adaptation	-10.9607
▁mixing	-10.9609
gui	-10.961
▁94	-10.961
▁rifle	-10.961
▁santiago	-10.9613
▁tal	-10.9613
ð	-10.9614
▁describes	-10.9615
▁youngest	-10.9617
▁percent	-10.962
lich	-10.9622
α	-10.9624
cca	-10.9631
▁giants	-10.9633
▁zhang	-10.9634
ireland	-10.9634
26.	-10.9634
▁pl	-10.9636
ن	-10.9637
▁loop	-10.9638
ingham	-10.964
lc	-10.9641
pper	-10.9643
▁°	-10.9644
▁studying	-10.9646
▁representation	-10.9646
▁shanghai	-10.9648
▁vladimir	-10.9651
til	-10.9651
▁denver	-10.9654
ule	-10.9658
▁mtv	-10.9658
beck	-10.9658
▁quartet	-10.9658
▁printing	-10.9659
▁airline	-10.9662
▁pac	-10.9663
▁dol	-10.9664
▁struggle	-10.9665
»	-10.9668
inger	-10.9672
week	-10.9672
▁virtual	-10.9672
▁friendly	-10.9675
oda	-10.9676
▁lam	-10.9677
▁merit	-10.9678
▁cent	-10.9679
mid	-10.9679
▁drawn	-10.968
/2	-10.968
▁raise	-10.9687
▁skills	-10.9688
rit	-10.9695
▁tip	-10.9697
▁rib	-10.97
ι	-10.97
▁jamaica	-10.97
rail	-10.9702
arabic	-10.9702
▁zoo	-10.9702
▁linda	-10.9706
▁hyper	-10.9708
▁chem	-10.971
▁bach	-10.9711
▁operate	-10.9711
▁1859	-10.9713
▁bod	-10.9715
▁beau	-10.9715
▁mirror	-10.9723
▁ellis	-10.9723
▁photographer	-10.9726
▁safe	-10.9726
▁adrian	-10.9726
mie	-10.9733
▁gau	-10.9736
hra	-10.9738
ify	-10.974
▁1840	-10.974
jer	-10.9741
▁ways	-10.9741
▁merging	-10.9746
▁ready	-10.9749
▁roots	-10.975
▁anchor	-10.9751
▁decade	-10.9754
issa	-10.9755
mé	-10.9759
▁nie	-10.976
borough	-10.9763
▁vir	-10.9769
moto	-10.9771
▁autonomous	-10.9772
eni	-10.9776
▁35.	-10.9778
▁wan	-10.9784
▁lau	-10.979
ça	-10.9791
▁stein	-10.9791
▁requires	-10.9792
▁microsoft	-10.9793
▁1988,	-10.9793
▁wool	-10.9795
▁apart	-10.9796
dh	-10.9799
▁hopkins	-10.9799
▁md	-10.98
rell	-10.98
▁siege	-10.9802
▁venture	-10.9802
▁rooms	-10.9806
▁videos	-10.9808
roy	-10.9809
hem	-10.981
▁printed	-10.981
idi	-10.9811
▁bennett	-10.9812
made	-10.9812
▁egg	-10.9813
▁enterprise	-10.9814
▁2004).	-10.9818
▁lei	-10.9818
▁unable	-10.9821
▁mumbai	-10.9822
▁conf	-10.9823
▁seal	-10.9824
▁descent	-10.9824
▁employees	-10.9825
▁(2)	-10.9828
▁nc	-10.9831
▁necessary	-10.9834
phi	-10.9835
▁(1994)	-10.9843
iko	-10.9843
country	-10.9846
spect	-10.9848
▁tries	-10.985
graph	-10.9851
▁1978.	-10.9853
▁mental	-10.9853
750	-10.9853
tracks	-10.9856
▁detail	-10.9857
▁pitt	-10.9858
gc	-10.9864
▁manuscript	-10.9869
▁neighbourhood	-10.9869
▁kid	-10.9869
▁fed	-10.9869
▁suit	-10.987
▁schi	-10.9872
ties	-10.9874
bot	-10.9876
cn	-10.9876
eno	-10.9876
▁lancashire	-10.9876
▁mud	-10.988
songwriter	-10.988
escu	-10.9884
▁ninth	-10.9885
zia	-10.9885
▁achievement	-10.9885
▁platforms	-10.9886
▁indigenous	-10.9888
▁rally	-10.989
▁blake	-10.989
▁clerk	-10.9892
▁breed	-10.9893
▁sau	-10.9894
▁novelist	-10.9894
pass	-10.9894
hab	-10.9901
lip	-10.9905
mara	-10.9906
eve	-10.9908
▁gbif	-10.9911
▁angle	-10.9914
uro	-10.9915
16.	-10.992
▁1985,	-10.9922
igan	-10.9924
▁spencer	-10.9925
acre	-10.9927
п	-10.9929
▁diplomat	-10.993
ref	-10.9931
results	-10.9933
local	-10.9935
▁panama	-10.9936
vid	-10.9936
ual	-10.9936
▁ratio	-10.9936
▁aires	-10.9937
dt	-10.994
▁salvador	-10.9942
lik	-10.9943
▁abdul	-10.9955
▁dem	-10.9958
▁liberty	-10.9959
load	-10.9965
▁pel	-10.9968
gur	-10.9973
berry	-10.9974
▁interactive	-10.9975
▁concrete	-10.9977
▁drop	-10.9977
▁resistance	-10.9978
▁surrounded	-10.9978
▁wallace	-10.9979
sse	-10.9979
▁abstract	-10.9982
vas	-10.9983
good	-10.9984
een	-10.9985
та	-10.9985
▁rum	-10.9986
real	-10.9988
rel	-10.9989
ably	-10.999
▁andré	-10.999
▁threat	-10.999
▁synonym	-10.9993
▁nun	-10.9994
brand	-10.9996
nel	-11.0001
lett	-11.0005
▁newton	-11.0006
▁raw	-11.0008
▁symbol	-11.0008
▁marsh	-11.0009
ault	-11.0013
▁tales	-11.0013
member	-11.0014
▁consul	-11.0015
ition	-11.0016
▁presenter	-11.0021
▁burke	-11.0021
fra	-11.0021
7.	-11.0022
▁1857	-11.0022
tina	-11.0023
▁división	-11.0024
▁porter	-11.0027
▁crisis	-11.0029
▁venice	-11.0029
▁vegas	-11.0031
▁improve	-11.0031
▁spoken	-11.0032
ih	-11.0036
▁rhode	-11.0039
▁actions	-11.004
▁pour	-11.004
stock	-11.004
▁(1980)	-11.004
▁everything	-11.0042
▁gram	-11.0042
▁44.	-11.0043
rol	-11.0045
wald	-11.0046
▁heavily	-11.0048
▁nashville	-11.0049
rm	-11.005
▁java	-11.0051
▁agreed	-11.0051
▁capture	-11.0053
▁lor	-11.0054
▁temperature	-11.0055
▁ea	-11.0056
▁specialist	-11.0057
▁odd	-11.0059
▁replacement	-11.0062
▁decades	-11.0063
▁transition	-11.0063
▁subsidiary	-11.0064
self	-11.0065
▁thin	-11.0066
▁fellowship	-11.0066
hum	-11.0066
▁curtis	-11.007
▁1981)	-11.0078
▁wait	-11.0079
▁chester	-11.0082
▁compiled	-11.0087
bet	-11.0088
▁bil	-11.0088
ร	-11.0091
▁1979.	-11.0093
▁fla	-11.0095
▁revised	-11.0095
▁(31	-11.0103
▁frankfurt	-11.0103
▁stayed	-11.0104
▁walking	-11.0107
▁businesses	-11.0109
kr	-11.0111
lv	-11.0111
▁cards	-11.0111
▁gam	-11.0113
▁paralympic	-11.0116
▁dawn	-11.012
▁leslie	-11.0121
▁earn	-11.0122
▁geography	-11.0123
▁1980.	-11.0123
4,	-11.0123
oph	-11.0124
face	-11.0125
nagar	-11.013
▁contributing	-11.0135
▁territories	-11.0135
china	-11.014
▁driving	-11.014
rak	-11.0141
will	-11.0142
▁eldest	-11.0147
▁leeds	-11.0149
▁shan	-11.0149
▁voyage	-11.0151
asia	-11.0152
▁saudi	-11.0153
▁opposed	-11.0154
▁mediterranean	-11.0155
has	-11.0156
▁push	-11.0157
▁yoshi	-11.0159
▁sn	-11.016
ش	-11.0161
▁separated	-11.0162
▁dialect	-11.0167
▁pete	-11.0168
▁zimbabwe	-11.0169
▁resource	-11.0172
ân	-11.0173
▁standings	-11.0178
▁subdivision	-11.0179
▁grammar	-11.0183
where	-11.0186
▁sessions	-11.0187
player	-11.0187
▁1986,	-11.0188
▁albanian	-11.0189
gl	-11.019
▁jennifer	-11.0192
▁jag	-11.0192
▁36.	-11.0193
ants	-11.0194
▁isaac	-11.0194
stic	-11.0197
▁timber	-11.0197
ista	-11.0199
▁pir	-11.02
і	-11.02
▁allowing	-11.0202
▁demand	-11.0205
▁(1995).	-11.0206
vision	-11.0206
mbo	-11.0206
uru	-11.0208
▁tied	-11.0209
▁drawing	-11.0211
3).	-11.0212
▁romantic	-11.0213
odes	-11.0214
▁felt	-11.0214
rang	-11.0216
▁rabbi	-11.0218
ucci	-11.0219
▁tale	-11.0219
▁mann	-11.0222
▁copenhagen	-11.0223
▁marco	-11.0226
▁exit	-11.0227
▁fernando	-11.0233
pus	-11.0234
▁hispanic	-11.0235
▁congregation	-11.0235
imo	-11.0236
▁1854	-11.0238
bla	-11.024
▁expert	-11.0241
▁mario	-11.0244
▁lynn	-11.0245
▁bend	-11.0246
▁doing	-11.0249
▁embassy	-11.0252
▁longest	-11.0253
rom	-11.0253
▁rebuilt	-11.0254
tl	-11.0254
▁pala	-11.0256
▁celtic	-11.0257
▁sheriff	-11.0259
ome	-11.0261
anta	-11.0262
▁networks	-11.0262
▁heath	-11.0262
▁bodies	-11.0272
▁pul	-11.0274
▁montgomery	-11.0274
▁sheffield	-11.0275
▁gel	-11.0276
▁georgian	-11.0276
▁didn	-11.0276
▁passage	-11.0279
hit	-11.0281
▁onto	-11.0282
sted	-11.0282
▁(2016).	-11.0282
▁finding	-11.0285
▁motorcycle	-11.0287
▁inducted	-11.0291
▁equivalent	-11.0291
series	-11.0292
23.	-11.0293
vey	-11.0294
pho	-11.0297
▁todd	-11.0297
▁random	-11.0301
▁locomotive	-11.0302
omo	-11.0304
▁hus	-11.0309
▁expression	-11.0311
▁isolated	-11.0311
▁characteristics	-11.0313
▁pic	-11.0314
])	-11.0316
▁advertising	-11.032
▁seconds	-11.032
▁nest	-11.0324
super	-11.0324
น	-11.0327
ва	-11.0328
333	-11.0328
lick	-11.0331
por	-11.0333
-26	-11.0334
▁armenia	-11.0334
▁flu	-11.0334
▁maría	-11.0338
cross	-11.0342
▁brooks	-11.0344
gene	-11.0348
▁abroad	-11.0348
▁debate	-11.0349
▁clock	-11.0352
▁aria	-11.0355
▁adventures	-11.0355
▁visiting	-11.0355
eth	-11.0357
▁sword	-11.0359
▁ruled	-11.0362
▁sleep	-11.0363
ו	-11.0364
▁1848	-11.0364
▁shut	-11.0367
elo	-11.0368
▁vii	-11.037
▁uniform	-11.037
▁astronomy	-11.0372
▁designation	-11.0374
iucn	-11.038
▁pure	-11.0381
kara	-11.0383
▁ibn	-11.0384
▁nr	-11.0386
▁ultra	-11.0389
▁scout	-11.039
▁buenos	-11.0392
-01	-11.0393
▁linked	-11.0395
three	-11.0396
▁surviving	-11.0396
▁1980)	-11.0397
▁eugene	-11.0398
serv	-11.0399
▁gerald	-11.0405
▁spots	-11.0408
▁simpson	-11.0409
▁1855	-11.041
▁thunder	-11.0413
ons	-11.0416
▁nancy	-11.0417
tag	-11.0417
és	-11.0418
▁guild	-11.042
ст	-11.042
▁1972.	-11.0422
uka	-11.0423
▁influenced	-11.0427
▁really	-11.0428
▁forewings	-11.0431
▁(2008	-11.0438
▁antarctica	-11.0439
▁(1997).	-11.0439
xa	-11.044
oke	-11.0443
▁wrestler	-11.0448
after	-11.0448
▁calls	-11.0449
▁rica	-11.0452
▁stakes	-11.0456
▁technique	-11.0456
▁1858	-11.0459
▁vis	-11.0462
ě	-11.0462
▁qualify	-11.0464
▁gift	-11.0466
▁cbc	-11.0468
▁holiday	-11.0468
▁devon	-11.0469
vir	-11.0472
▁regarded	-11.0474
▁lance	-11.0474
mble	-11.0476
gro	-11.0482
▁shrub	-11.0483
▁pearl	-11.0484
▁depth	-11.0488
▁1979)	-11.0489
▁rein	-11.0491
enne	-11.0492
▁wol	-11.0493
▁airlines	-11.0496
150	-11.0499
grad	-11.05
▁leigh	-11.0502
▁800	-11.0502
▁belle	-11.0503
▁throw	-11.0505
▁danny	-11.0505
▁elect	-11.0507
▁opportunity	-11.0507
▁nasa	-11.0509
▁formal	-11.0514
▁sussex	-11.0515
try	-11.0519
▁goods	-11.0521
▁thick	-11.0524
▁250	-11.0525
▁serious	-11.0525
▁constitutional	-11.0535
▁roughly	-11.0536
▁rao	-11.0537
▁servant	-11.054
hang	-11.0544
▁relief	-11.0544
▁(2010	-11.0546
kins	-11.0548
bis	-11.055
▁(2016)	-11.055
term	-11.0551
▁cop	-11.0552
▁bishops	-11.0556
dos	-11.0561
wei	-11.0562
uel	-11.0563
▁sandy	-11.0563
▁cream	-11.0564
▁kitchen	-11.0565
▁heights	-11.0566
mol	-11.0568
▁latino	-11.0568
mina	-11.0571
▁syn	-11.0574
▁interests	-11.0576
▁instrument	-11.0577
▁residing	-11.0577
▁wr	-11.0578
▁consumer	-11.0583
▁toward	-11.0585
greek	-11.0588
hof	-11.0588
▁demolished	-11.059
ан	-11.0592
▁ticket	-11.0592
▁tun	-11.0592
wind	-11.0594
▁aaron	-11.0594
▁cameron	-11.0596
▁stages	-11.0596
▁determine	-11.06
iba	-11.0602
▁jet	-11.0603
▁gall	-11.0603
making	-11.0604
▁bran	-11.0605
say	-11.0609
▁landmark	-11.061
lian	-11.061
▁ordained	-11.0611
▁subjects	-11.0613
▁mate	-11.0615
stat	-11.0615
shima	-11.0619
▁none	-11.0619
▁allmovie	-11.062
▁alpine	-11.0621
▁roth	-11.0622
▁alpha	-11.0622
chel	-11.0626
▁cannot	-11.0628
▁georg	-11.0628
▁cle	-11.0629
▁stefan	-11.063
78°	-11.063
▁tools	-11.0633
▁yi	-11.0634
▁pha	-11.0634
▁weapons	-11.0637
ę	-11.0637
ová	-11.0639
▁gul	-11.0642
jun	-11.0643
▁54.	-11.0644
▁slovakia	-11.0645
▁(2011	-11.0645
active	-11.065
▁wake	-11.0651
▁mt	-11.0652
public	-11.0656
▁makeup	-11.0658
▁fossil	-11.066
▁democracy	-11.0661
▁tanzania	-11.0661
▁celebrated	-11.0661
ls	-11.0667
▁advisory	-11.0667
▁gender	-11.0668
lei	-11.067
▁42.	-11.0674
sko	-11.0675
▁1856	-11.0678
une	-11.0681
▁grown	-11.0681
83°	-11.0685
▁judicial	-11.0686
▁robertson	-11.0688
▁delta	-11.0688
▁causes	-11.0688
▁ultimately	-11.0688
▁carrier	-11.0692
itis	-11.0693
▁sac	-11.0693
▁drag	-11.0694
11°	-11.0695
▁methodist	-11.0696
▁drink	-11.0698
▁span	-11.0701
pers	-11.0702
▁designs	-11.0703
▁aim	-11.0707
gol	-11.0707
▁wear	-11.0707
cam	-11.0707
▁shadow	-11.0707
▁element	-11.0707
▁strength	-11.071
rlt	-11.0714
▁unusual	-11.0721
▁sponsored	-11.0723
nin	-11.0724
▁mansion	-11.0729
▁edit	-11.073
▁patients	-11.073
titled	-11.0732
▁infrastructure	-11.0732
▁origins	-11.0734
ort	-11.0734
▁calling	-11.0735
89°	-11.0735
▁forbes	-11.0736
▁marcus	-11.074
united	-11.0741
science	-11.0741
▁nsw	-11.0742
▁rovers	-11.0744
▁(2007	-11.0745
▁fis	-11.0747
▁identification	-11.0748
▁existed	-11.0748
ern	-11.0749
▁lyon	-11.0751
ри	-11.0752
left	-11.0753
▁fal	-11.0756
▁cargo	-11.0757
▁revision	-11.0758
▁mechanical	-11.0759
order	-11.0761
▁marks	-11.0763
▁grid	-11.0764
▁105	-11.0764
▁batting	-11.0764
quarterfinals	-11.0764
stown	-11.0764
▁carlo	-11.0764
dog	-11.0766
▁hd	-11.0767
▁pattern	-11.0769
▁ak	-11.0769
▁dock	-11.077
▁update	-11.0778
▁romance	-11.0784
pic	-11.0784
▁orbit	-11.0787
▁alto	-11.0787
tle	-11.0788
▁duncan	-11.0789
?]	-11.0789
▁sz	-11.0792
▁hub	-11.0793
▁respect	-11.0794
▁mara	-11.0794
▁controlled	-11.0796
▁items	-11.0796
emi	-11.0796
▁wie	-11.0797
▁1971.	-11.0797
dle	-11.0798
ц	-11.0798
▁richardson	-11.0798
▁altitude	-11.0799
▁1974.	-11.0799
94°	-11.0802
▁kho	-11.0804
▁acted	-11.0805
fly	-11.0805
111	-11.0807
heart	-11.0808
▁ov	-11.0811
▁traded	-11.0815
▁ideas	-11.0815
▁testing	-11.0817
isch	-11.0817
▁stick	-11.0818
▁cornwall	-11.0821
fur	-11.0822
ère	-11.0822
"),	-11.0824
▁protest	-11.0827
▁lecturer	-11.0828
▁infobox	-11.083
▁anglo	-11.0831
▁fit	-11.0833
rud	-11.0833
yev	-11.0835
▁manila	-11.0839
▁sap	-11.0839
ison	-11.0842
▁tau	-11.0844
sche	-11.0845
▁1975.	-11.0847
▁1976.	-11.0849
▁filmed	-11.0849
▁bang	-11.085
▁sailing	-11.0853
▁bridges	-11.0854
▁offensive	-11.0855
2305/	-11.0855
▁spiritual	-11.0855
vat	-11.0857
ops	-11.0859
writer	-11.086
ción	-11.0861
hour	-11.0861
▁karnataka	-11.0864
▁routledge	-11.0868
▁boundaries	-11.0868
bahn	-11.0869
▁wet	-11.087
▁legacy	-11.0871
▁produces	-11.0877
artist	-11.0878
enti	-11.0878
▁pitch	-11.0879
roman	-11.0882
tham	-11.0887
hurst	-11.0889
▁purple	-11.089
33;	-11.0893
▁py	-11.0899
anza	-11.09
▁segment	-11.0901
gie	-11.0901
bee	-11.0904
▁inspector	-11.0907
▁concerts	-11.0908
brown	-11.091
▁santos	-11.0914
than	-11.0916
▁holder	-11.0918
pot	-11.0919
erson	-11.0919
17°	-11.0919
ре	-11.0919
pla	-11.092
▁trading	-11.092
▁stem	-11.0923
39°	-11.0926
▁(1993)	-11.0927
▁bee	-11.0929
cle	-11.093
▁jstor	-11.0933
▁1978)	-11.0934
▁woodland	-11.0936
▁craft	-11.0936
saint	-11.0941
▁suggested	-11.0943
vit	-11.0943
▁inches	-11.0944
roll	-11.0945
▁soap	-11.0945
▁advisor	-11.0946
▁homes	-11.0947
reg	-11.0948
body	-11.095
pil	-11.0951
▁tool	-11.0953
▁grandfather	-11.0956
▁masa	-11.0957
mg	-11.0958
▁rankings	-11.0959
stead	-11.0959
▁(1996).	-11.0962
▁pakistani	-11.0963
▁1981.	-11.0964
▁feel	-11.0967
brien	-11.0968
corn	-11.097
▁perhaps	-11.0971
▁canyon	-11.0971
▁gy	-11.0972
pg	-11.0972
▁kos	-11.0972
▁renaissance	-11.0976
odi	-11.0976
rec	-11.0976
games	-11.0979
▁ace	-11.0981
▁lift	-11.0981
▁smooth	-11.0984
▁·	-11.0985
▁measure	-11.0989
▁burn	-11.0989
▁context	-11.099
▁chal	-11.099
bird	-11.0991
▁fixed	-11.0992
͡	-11.0993
▁strategy	-11.0993
hil	-11.0993
▁chad	-11.0993
▁judges	-11.0995
iata	-11.0996
▁occur	-11.0997
▁patron	-11.0997
▁1973.	-11.0999
▁fol	-11.1
▁moment	-11.1001
▁petr	-11.1001
▁kla	-11.1001
handed	-11.1002
ular	-11.1005
▁mei	-11.1005
▁congressional	-11.1006
▁forming	-11.1006
▁suicide	-11.1006
▁genre	-11.101
founder	-11.1013
▁mali	-11.1014
▁worship	-11.1015
▁kurt	-11.1017
▁ot	-11.1019
lá	-11.102
▁honors	-11.1021
▁rim	-11.1025
▁(1992)	-11.1026
▁farmers	-11.1027
▁brasil	-11.1028
▁techniques	-11.1029
ando	-11.1036
▁hang	-11.1036
..."	-11.1038
arn	-11.1039
▁columbus	-11.1042
▁grandson	-11.1042
▁toured	-11.1044
▁posted	-11.1044
mura	-11.1048
▁wounded	-11.1049
▁preserved	-11.105
▁mercury	-11.1051
rain	-11.1055
▁kei	-11.1056
scale	-11.1058
ш	-11.1059
▁dame	-11.1059
▁battery	-11.1062
▁archaeology	-11.1062
▁connecting	-11.1064
▁slovak	-11.1066
cla	-11.1066
▁assistance	-11.1067
holm	-11.1067
44°	-11.1068
▁attempts	-11.107
▁lud	-11.1072
▁ple	-11.1073
ál	-11.1074
▁louise	-11.1077
▁rpm	-11.1077
▁dreams	-11.1078
▁†	-11.1079
▁verlag	-11.1079
▁actual	-11.1081
source	-11.1081
▁pie	-11.1082
david	-11.1082
▁shoot	-11.1083
▁harper	-11.1084
▁replacing	-11.1084
▁innovation	-11.1084
▁reserves	-11.1087
▁1977.	-11.1088
▁changing	-11.109
4-	-11.1092
▁improved	-11.1097
▁butterflies	-11.1101
▁7:	-11.1105
▁strategic	-11.1106
▁bailey	-11.111
▁artwork	-11.1112
▁julia	-11.1112
▁couples	-11.1113
test	-11.1113
▁bul	-11.1114
llo	-11.1114
28°	-11.1115
▁killer	-11.1117
▁earning	-11.1118
▁macmillan	-11.1119
▁solomon	-11.1119
struct	-11.112
▁intermediate	-11.1123
▁fortune	-11.1124
▁doctorate	-11.1128
▁ownership	-11.113
▁sample	-11.1133
▁anglican	-11.1137
22°	-11.1137
▁shock	-11.1139
ivo	-11.1144
dur	-11.1145
ilo	-11.1145
▁depot	-11.1146
▁educator	-11.115
▁playoff	-11.1152
▁roberto	-11.1152
▁125	-11.1152
▁powell	-11.1153
▁tenor	-11.1154
▁sudan	-11.1154
▁lund	-11.1155
▁rocks	-11.1156
▁accompanied	-11.1159
▁pronunciation	-11.1163
▁donated	-11.1163
▁jul	-11.1164
released	-11.1165
τ	-11.1166
▁regarding	-11.1167
▁comprehensive	-11.1167
▁2)	-11.1168
▁pull	-11.1169
▁raid	-11.117
tler	-11.1171
elia	-11.1171
▁henderson	-11.1172
sl	-11.1175
fel	-11.1178
▁nearest	-11.1179
▁reich	-11.1179
▁rival	-11.1179
▁neck	-11.1181
▁stoke	-11.1182
▁meant	-11.1182
▁showed	-11.1184
▁0-3	-11.1185
▁locomotives	-11.1185
human	-11.1186
yon	-11.1186
icus	-11.1188
▁2011".	-11.1189
▁comedian	-11.119
▁1852	-11.119
▁formally	-11.119
▁(1978)	-11.1191
▁istat	-11.1192
▁technologies	-11.1194
written	-11.1194
▁guides	-11.1194
▁strange	-11.1197
tai	-11.1199
▁badminton	-11.12
▁marcel	-11.1202
▁orders	-11.1202
▁certificate	-11.1202
▁surrey	-11.1203
▁architects	-11.1204
ude	-11.1204
tern	-11.1206
▁thousand	-11.121
▁retiring	-11.1211
▁crater	-11.1212
▁jail	-11.1214
56°	-11.1217
▁knights	-11.122
▁prepared	-11.122
▁vinyl	-11.1224
▁festivals	-11.1224
′′	-11.1226
▁plaza	-11.1227
▁leksikon	-11.1228
ines	-11.1228
▁lebanon	-11.1229
▁arnett	-11.123
rp	-11.1231
▁tasmania	-11.1233
▁temporary	-11.1233
▁patricia	-11.1234
▁spi	-11.1234
ann	-11.1235
▁ara	-11.1235
bourne	-11.1235
▁shares	-11.1236
▁sig	-11.1237
▁canterbury	-11.1238
▁wyoming	-11.1238
▁abraham	-11.1238
▁estonia	-11.1238
jon	-11.1239
▁una	-11.1242
▁courthouse	-11.1243
▁maharashtra	-11.1244
▁civilian	-11.1245
▁diversity	-11.1249
▁refused	-11.1254
▁rider	-11.1255
:10.10	-11.1256
▁graphic	-11.1256
▁nurse	-11.1257
▁truck	-11.1257
▁rapper	-11.1259
▁shelter	-11.126
▁1976)	-11.1262
06°	-11.1263
▁coffee	-11.1265
▁rab	-11.1265
wr	-11.1266
▁1977)	-11.1268
▁48.	-11.127
plan	-11.127
▁(2012	-11.1271
▁caps	-11.1273
igo	-11.1273
footballer	-11.1274
-05-	-11.1275
▁wire	-11.1276
72°	-11.1276
kur	-11.1277
▁easily	-11.1278
ency	-11.1279
▁extreme	-11.128
apa	-11.128
kes	-11.128
▁opinion	-11.1285
mt	-11.1293
dha	-11.1294
▁oriental	-11.1294
gni	-11.1295
▁dispute	-11.1297
editor	-11.1299
▁51.	-11.13
▁proposal	-11.13
ро	-11.1302
▁liquid	-11.1305
▁rip	-11.1305
organ	-11.1308
iga	-11.131
▁metre	-11.131
bil	-11.1312
▁conduct	-11.1312
▁fiji	-11.1313
▁astro	-11.1314
gger	-11.1315
▁vessels	-11.1315
▁robot	-11.1315
▁criticism	-11.1316
▁mora	-11.1321
gren	-11.1321
fen	-11.1323
▁internationally	-11.1325
▁nickname	-11.1327
rb	-11.1327
▁retained	-11.1329
kill	-11.1335
listed	-11.1336
▁sept	-11.1337
▁copper	-11.1338
logy	-11.134
▁cyprus	-11.134
667	-11.1343
▁destination	-11.1345
▁meyer	-11.1345
▁leipzig	-11.1346
30.	-11.1347
▁extremely	-11.1348
works	-11.1348
▁webb	-11.135
sham	-11.1351
▁ö	-11.1355
▁missile	-11.1356
▁mines	-11.1356
eira	-11.1358
▁learned	-11.1361
▁seems	-11.1365
▁dy	-11.1366
▁zen	-11.1367
lac	-11.1373
▁favor	-11.1374
rill	-11.1376
▁1851	-11.1377
▁luxembourg	-11.1378
▁somewhat	-11.1378
▁surgeon	-11.1378
▁dancing	-11.1378
iger	-11.1378
▁jews	-11.138
▁jenkins	-11.1381
▁contrast	-11.1384
▁nut	-11.1387
▁affiliate	-11.1388
gb	-11.1388
cul	-11.139
▁dale	-11.1392
oxy	-11.1393
bf	-11.1398
▁moor	-11.14
▁sche	-11.14
▁purposes	-11.1401
ê	-11.1403
▁34.	-11.1404
club	-11.1404
▁seminary	-11.1405
nr	-11.1405
rot	-11.1407
▁по	-11.1407
▁highways	-11.1413
▁haven	-11.1416
▁capita	-11.1418
▁playoffs	-11.1419
▁49.	-11.1421
pac	-11.1426
families	-11.1428
rou	-11.1429
▁rounds	-11.1429
▁1-8	-11.143
▁sacred	-11.1431
phe	-11.1432
▁favorite	-11.1433
ité	-11.1433
▁1973)	-11.1434
▁karen	-11.1436
▁measures	-11.1439
ering	-11.144
nh	-11.1442
▁trying	-11.1445
▁ms	-11.1446
rac	-11.1449
▁herman	-11.145
▁duties	-11.1451
▁contribution	-11.1451
fre	-11.1453
vert	-11.1458
▁flags	-11.1459
azi	-11.1461
▁receptor	-11.1461
▁2015)	-11.1462
ør	-11.1462
mani	-11.1464
nier	-11.1464
oba	-11.1465
▁detective	-11.1467
▁cavalry	-11.1467
▁message	-11.1468
▁kl	-11.1472
imi	-11.1472
▁interested	-11.1474
▁fraser	-11.1477
▁2007)	-11.1478
inn	-11.1478
▁questions	-11.1484
▁dna	-11.1484
▁instruction	-11.1489
▁jorge	-11.1492
sberg	-11.1494
▁operator	-11.1494
▁bench	-11.1498
▁bug	-11.1498
▁fen	-11.1499
ła	-11.1499
▁130	-11.1499
▁pitched	-11.15
evich	-11.1501
▁kap	-11.1502
▁falling	-11.1505
▁flute	-11.1506
κ	-11.1507
lea	-11.151
cock	-11.151
▁erected	-11.1511
doc	-11.1512
▁modified	-11.1512
22.	-11.1513
▁hearts	-11.1514
▁moh	-11.1515
▁warm	-11.1515
▁influential	-11.1517
▁fran	-11.1518
▁spur	-11.1518
pid	-11.152
▁faced	-11.1521
▁indicates	-11.1521
া	-11.1521
▁biolib	-11.1522
|	-11.1527
▁preliminary	-11.1528
nova	-11.1532
▁horses	-11.1534
15.	-11.1535
▁sw	-11.1535
▁pipe	-11.1538
▁(2013	-11.1538
▁(1976)	-11.1541
▁م	-11.1544
61°	-11.1545
lou	-11.1548
etz	-11.1549
cp	-11.155
▁103	-11.1552
young	-11.1552
▁assumed	-11.1554
australian	-11.1556
▁destroyer	-11.1556
atter	-11.1559
gia	-11.1563
cept	-11.1566
▁fk	-11.157
▁processing	-11.1574
rag	-11.1574
ль	-11.1577
▁115	-11.1577
▁1974)	-11.1581
▁yugoslavia	-11.1582
finals	-11.1582
▁alter	-11.1583
▁glenn	-11.1583
▁teen	-11.1584
▁gale	-11.1584
01.	-11.1584
▁echo	-11.1586
▁1830	-11.1586
▁sort	-11.1588
▁106	-11.1593
▁sie	-11.1595
oto	-11.1595
▁devil	-11.1596
ign	-11.1597
bh	-11.1599
▁dil	-11.1599
▁2009)	-11.16
▁manner	-11.1603
▁rosen	-11.1604
▁farming	-11.1607
né	-11.1608
yle	-11.1609
▁voting	-11.161
▁quick	-11.1613
oko	-11.1614
tree	-11.1616
▁detailed	-11.1617
▁attacks	-11.1618
▁vor	-11.162
▁export	-11.1622
▁1984,	-11.1624
jin	-11.1624
▁survive	-11.1625
▁civic	-11.1627
ient	-11.1627
▁1997)	-11.1627
▁noise	-11.1628
▁ensembl	-11.1631
uer	-11.1631
▁completion	-11.1631
▁brun	-11.1632
▁jen	-11.1633
ovo	-11.1633
▁tru	-11.1636
hun	-11.1638
▁reid	-11.1639
ios	-11.1641
cum	-11.1641
▁eg	-11.1642
ssa	-11.1642
▁cornell	-11.1643
hav	-11.1645
▁lamp	-11.1647
▁gibson	-11.165
▁violence	-11.1651
▁filmmaker	-11.1659
▁malta	-11.1661
▁allied	-11.1661
▁forty	-11.1663
س	-11.1665
▁merc	-11.1672
▁lamb	-11.1673
▁dual	-11.1673
just	-11.1676
▁caught	-11.1678
▁delivered	-11.1679
▁chancellor	-11.168
pf	-11.1682
▁arxiv	-11.1682
ле	-11.1688
▁moss	-11.1689
nation	-11.1689
▁monitor	-11.1691
▁heroes	-11.1692
▁assessment	-11.1693
▁definition	-11.1695
▁acquisition	-11.1701
arra	-11.1704
▁ranks	-11.1704
little	-11.1705
▁1971)	-11.1706
▁locally	-11.171
gold	-11.171
▁automobile	-11.171
▁compositions	-11.171
▁fastest	-11.1712
boat	-11.1712
woman	-11.1713
▁121	-11.1714
▁frequency	-11.1714
▁barr	-11.1714
▁xu	-11.1715
dig	-11.1716
pping	-11.1716
aca	-11.1722
inda	-11.1724
tine	-11.1725
tail	-11.1726
▁08	-11.1729
▁sher	-11.1729
▁holmes	-11.173
▁doug	-11.1731
▁reaches	-11.1732
▁sounds	-11.1733
chrom	-11.1733
akh	-11.1734
▁pastor	-11.1735
oa	-11.1736
sat	-11.1736
50,000	-11.1737
▁armstrong	-11.1738
▁lifetime	-11.1739
▁1972)	-11.1739
▁warriors	-11.174
dine	-11.174
▁accept	-11.174
syn	-11.1741
quest	-11.1745
▁1982,	-11.1746
▁cl	-11.1747
▁blade	-11.1747
▁gap	-11.1747
bbc	-11.1747
▁paleontology	-11.1747
▁prospect	-11.1748
mart	-11.1749
dou	-11.1749
ester	-11.175
50°	-11.1752
▁manhattan	-11.1753
dk	-11.1753
λ	-11.1754
▁sail	-11.1755
▁clo	-11.1755
▁eli	-11.1756
▁bibliography	-11.1757
▁marion	-11.1757
▁filled	-11.1758
text	-11.1759
tru	-11.1759
▁observatory	-11.1761
lies	-11.1762
tell	-11.1765
▁mack	-11.1766
▁sight	-11.1767
▁virus	-11.177
▁160	-11.177
asi	-11.177
▁ludwig	-11.1771
▁connects	-11.1771
▁catch	-11.1777
▁114	-11.1777
▁steps	-11.1777
▁ss	-11.1778
▁comprises	-11.1779
▁ox	-11.1779
▁kru	-11.178
▁freight	-11.178
▁1,000	-11.1781
▁angels	-11.1781
tens	-11.1782
・	-11.1785
train	-11.1786
script	-11.1786
▁(1989)	-11.1787
cid	-11.1792
sil	-11.1793
▁tenure	-11.1794
▁alma	-11.1797
▁radical	-11.1798
▁topics	-11.1803
jack	-11.1808
kom	-11.1808
▁eurovision	-11.1808
▁electro	-11.1811
▁sca	-11.1811
▁reader	-11.1811
rugby	-11.1816
utter	-11.1817
▁calgary	-11.1818
▁visible	-11.1818
▁chip	-11.1818
arian	-11.182
▁ré	-11.182
great	-11.182
▁wiki	-11.1823
▁(2016	-11.1828
▁primera	-11.1828
▁1975)	-11.1829
▁compound	-11.1829
▁personality	-11.1832
▁proper	-11.1832
▁cattle	-11.1833
▁herzegovina	-11.1834
glo	-11.1834
haus	-11.1836
eki	-11.1838
▁macro	-11.1842
achi	-11.1842
▁roma	-11.1843
、	-11.1846
▁clinton	-11.1848
▁arrangement	-11.185
▁enjoy	-11.1851
▁(1977)	-11.1852
▁mori	-11.1853
▁emma	-11.1857
hiro	-11.1857
mala	-11.1859
2/	-11.1859
ias	-11.1861
▁polar	-11.1862
▁(1975)	-11.1862
▁cannon	-11.1862
hari	-11.1863
▁hindi	-11.1866
▁1983,	-11.1869
▁certified	-11.1871
▁ernst	-11.1874
▁occasionally	-11.1874
▁bolivia	-11.1875
person	-11.1875
assi	-11.1876
ete	-11.1879
won	-11.188
▁bowling	-11.1885
▁}	-11.1886
meter	-11.1894
▁markets	-11.1899
▁exercise	-11.1902
▁overseas	-11.1903
▁dramatic	-11.1903
▁cruise	-11.1903
▁(1988)	-11.1904
▁uc	-11.1905
▁flash	-11.1906
▁2006)	-11.1906
▁bradford	-11.1909
hin	-11.1911
▁veteran	-11.1912
▁powers	-11.1914
▁а	-11.1914
▁devi	-11.1914
▁speak	-11.1915
ق	-11.1918
▁indies	-11.1923
▁josh	-11.1925
ids	-11.1926
tian	-11.1927
▁(1974)	-11.1928
▁klein	-11.1928
▁zip	-11.1928
▁(2014	-11.1928
zio	-11.1931
▁huge	-11.1931
▁bone	-11.1933
▁wants	-11.1935
front	-11.1937
▁ole	-11.1938
building	-11.1938
▁coup	-11.1939
ain	-11.1943
▁franco	-11.1944
▁faces	-11.1946
▁1969)	-11.1949
▁andrews	-11.195
▁stevens	-11.1953
▁root	-11.1953
ز	-11.1954
tc	-11.196
▁conversion	-11.196
▁scan	-11.1962
г	-11.1962
▁gable	-11.1964
▁custom	-11.1966
▁uttar	-11.1967
▁gem	-11.1967
▁snails	-11.1969
mma	-11.1971
latin	-11.1972
▁dong	-11.1974
▁sant	-11.1975
▁tape	-11.1976
▁operational	-11.1977
▁(1991)	-11.1983
cup	-11.1983
aid	-11.1984
-22	-11.1985
sty	-11.1986
▁amy	-11.1986
▁epic	-11.1989
▁cry	-11.199
▁saga	-11.1991
▁mouse	-11.1994
stand	-11.1997
▁ahmad	-11.1999
▁plantation	-11.2002
ά	-11.2003
dio	-11.2003
▁links	-11.2003
grand	-11.2004
▁stretch	-11.2005
dz	-11.2006
▁turning	-11.2008
ischen	-11.2008
ml	-11.2009
ż	-11.2009
▁barb	-11.2009
▁clement	-11.2011
wire	-11.2013
cb	-11.2013
▁hugo	-11.2014
▁explorer	-11.2014
▁liber	-11.2015
▁140	-11.202
▁solution	-11.2022
▁seoul	-11.2026
▁cara	-11.2028
2-	-11.2028
such	-11.2032
qi	-11.2032
▁vertical	-11.2032
dong	-11.2032
́	-11.2033
▁rowing	-11.2036
▁ratings	-11.2038
▁carrying	-11.2041
igh	-11.2042
▁package	-11.2045
▁canberra	-11.2046
▁fifty	-11.2046
five	-11.2046
▁tara	-11.2046
▁attempted	-11.2049
▁46.	-11.205
▁ultimate	-11.205
vet	-11.2051
▁(1990)	-11.2051
pad	-11.2053
▁maintenance	-11.2055
ý	-11.2055
▁presents	-11.206
▁matters	-11.2062
mand	-11.2063
lib	-11.2063
lah	-11.2065
▁autumn	-11.2066
ym	-11.2066
▁estimates	-11.2067
▁increasing	-11.2067
▁sue	-11.2067
minute	-11.2068
▁galaxy	-11.207
▁workshop	-11.2071
▁nigerian	-11.2073
▁sony	-11.2074
▁cuban	-11.2076
▁1974,	-11.2077
▁dominican	-11.2078
▁evil	-11.2078
tsch	-11.208
road	-11.2083
▁graduation	-11.2084
▁edgar	-11.2084
▁swing	-11.2085
▁wen	-11.2085
business	-11.2086
god	-11.2088
▁aspects	-11.2089
▁rachel	-11.21
▁queens	-11.2102
ote	-11.2103
▁(2006	-11.2103
▁chef	-11.2105
zone	-11.2105
▁1847	-11.2107
▁jeremy	-11.2108
dol	-11.2109
▁sought	-11.2111
international	-11.2112
▁maxim	-11.2113
▁cameroon	-11.2113
▁(2015	-11.2115
shu	-11.2116
dian	-11.2117
▁fabric	-11.2117
ев	-11.212
▁attacked	-11.2122
nom	-11.2126
▁viola	-11.2127
▁cooperation	-11.2128
ost	-11.2129
oku	-11.213
▁semifinals	-11.2133
▁francesco	-11.2133
▁600	-11.2134
british	-11.2135
▁committed	-11.2138
▁indianapolis	-11.2138
zzo	-11.2142
dad	-11.2142
▁rebellion	-11.2142
sbury	-11.2143
▁ellen	-11.2147
▁reduce	-11.2153
▁relative	-11.2153
▁thomson	-11.2154
▁sullivan	-11.2154
▁devices	-11.2154
▁1.5	-11.2155
pos	-11.2156
▁philosopher	-11.2157
▁organic	-11.2159
▁chat	-11.2159
▁1853	-11.2162
▁isle	-11.2162
hood	-11.2163
▁moist	-11.2164
▁(2017	-11.2165
î	-11.2166
-29	-11.2166
▁employment	-11.2167
▁striker	-11.2168
▁parade	-11.2168
mount	-11.2169
names	-11.2171
▁madagascar	-11.2171
▁examination	-11.2171
▁newport	-11.2171
▁papua	-11.2171
▁happened	-11.2172
▁gothic	-11.2173
▁lucas	-11.2173
▁uruguay	-11.2175
▁accompanying	-11.2176
grave	-11.2176
▁fest	-11.2177
▁consultant	-11.2181
▁nephew	-11.2183
mari	-11.2184
▁→	-11.2184
▁helping	-11.2185
▁tournaments	-11.2186
▁morocco	-11.2191
dun	-11.2191
▁predecessor	-11.2196
▁biodiversity	-11.2196
family	-11.2196
▁claude	-11.2197
▁belfast	-11.2201
▁damaged	-11.2201
▁nathan	-11.2202
tron	-11.2202
▁mention	-11.2202
▁switch	-11.2205
▁mach	-11.2205
tain	-11.2206
▁hurling	-11.2207
▁gemeinden	-11.2207
▁relocated	-11.2209
sai	-11.2209
lina	-11.2212
▁108	-11.2212
▁dag	-11.2219
▁roland	-11.222
rant	-11.222
▁entomological	-11.2221
▁housed	-11.2221
120	-11.2221
▁hur	-11.2221
110	-11.2225
▁cardiff	-11.2226
nat	-11.2227
▁rey	-11.2229
▁г	-11.223
▁cheese	-11.2231
vier	-11.2232
▁proved	-11.2232
isi	-11.2232
▁boats	-11.2233
▁zero	-11.2234
▁pap	-11.2235
▁edwin	-11.2235
▁1849	-11.2239
▁monarch	-11.224
▁tend	-11.224
lap	-11.2242
church	-11.2243
▁secure	-11.2244
▁mythology	-11.2245
▁seeds	-11.2245
▁freshwater	-11.2245
ulus	-11.2247
▁myanmar	-11.2249
▁hole	-11.2251
▁throne	-11.2252
▁dé	-11.2253
▁coral	-11.2255
path	-11.2257
stadt	-11.2258
▁collective	-11.2258
full	-11.2259
▁participation	-11.2259
▁lutheran	-11.2262
▁practical	-11.2265
▁interface	-11.2265
som	-11.2266
▁rie	-11.2268
▁oz	-11.2271
▁gru	-11.2271
▁julie	-11.2272
sound	-11.2273
▁occasions	-11.2276
ß	-11.2276
rev	-11.2278
ground	-11.2278
▁budapest	-11.2279
▁kenny	-11.2279
hay	-11.228
▁continuing	-11.2284
zhou	-11.2285
▁tortricidae	-11.2289
▁involving	-11.2289
▁transmission	-11.2289
▁click	-11.229
mato	-11.229
▁vene	-11.2294
▁advantage	-11.2294
ald	-11.2298
enstein	-11.2298
▁wonder	-11.23
▁á	-11.2301
▁moves	-11.2302
▁jury	-11.2302
any	-11.2303
george	-11.2303
▁excellence	-11.2304
▁kri	-11.2306
-08	-11.2306
▁remote	-11.2307
▁nottingham	-11.2308
▁passion	-11.2309
▁crosses	-11.2309
ovi	-11.2309
▁maz	-11.2311
▁hide	-11.2312
▁brussels	-11.2316
▁1500	-11.2316
▁stern	-11.2319
▁hurricane	-11.2319
▁pig	-11.232
▁champ	-11.2321
▁dress	-11.2322
101	-11.2323
▁ceased	-11.2323
▁sick	-11.2323
▁missionary	-11.2327
related	-11.2327
▁iceland	-11.2329
▁disco	-11.2329
▁jurisdiction	-11.2333
▁screenwriter	-11.2334
▁1)	-11.2335
▁casa	-11.2338
▁lib	-11.2339
▁popularity	-11.2339
▁107	-11.2339
italian	-11.234
osh	-11.234
▁stat	-11.234
▁additionally	-11.2342
▁1979,	-11.2342
lig	-11.2344
▁exp	-11.2345
aku	-11.2345
▁barnes	-11.2346
museum	-11.2348
▁chennai	-11.2353
tana	-11.2354
ström	-11.2354
▁scorer	-11.2354
▁1964)	-11.2354
vil	-11.2357
▁essential	-11.2359
▁manufactured	-11.236
ович	-11.2361
kle	-11.2362
rine	-11.2362
▁ties	-11.2363
▁burns	-11.2363
cis	-11.2364
guide	-11.2365
▁1981,	-11.2365
17.	-11.2367
▁comparison	-11.2368
oso	-11.2368
bes	-11.2369
▁yacht	-11.2369
▁belonged	-11.237
coleoptera	-11.2372
▁extends	-11.2375
▁correct	-11.2375
print	-11.2377
▁gin	-11.2378
onym	-11.2378
▁plastic	-11.2379
▁denis	-11.2382
▁shar	-11.2383
▁vil	-11.2385
sign	-11.2386
▁executed	-11.2391
▁curling	-11.2391
▁gir	-11.2392
▁cited	-11.2394
▁depending	-11.2394
ар	-11.2396
ister	-11.2397
▁blocks	-11.2398
▁experiment	-11.2399
▁ages	-11.2399
▁bau	-11.2402
:10.1111/	-11.2403
▁sf	-11.2404
phor	-11.2407
▁essays	-11.2408
ación	-11.2409
36.	-11.241
▁1969.	-11.241
jr	-11.2412
▁scho	-11.2414
б	-11.2415
▁magazines	-11.2415
tric	-11.2415
▁lim	-11.2418
▁variable	-11.2418
▁dh	-11.2421
▁ic	-11.2422
▁bac	-11.2423
▁electricity	-11.2423
▁2010)	-11.2424
▁kö	-11.2427
craft	-11.2427
▁mathematician	-11.2428
emp	-11.2428
▁rainer	-11.2431
▁liner	-11.2432
university	-11.2438
▁heir	-11.2439
▁stable	-11.2447
▁newfoundland	-11.2453
村	-11.2453
▁naga	-11.2455
chal	-11.2455
▁clare	-11.2456
people	-11.2458
▁subtropical	-11.2458
▁organised	-11.2462
tone	-11.2462
gno	-11.2463
▁winnipeg	-11.2463
▁macdonald	-11.2463
▁jung	-11.2463
▁kala	-11.2465
▁suite	-11.2467
▁exhibited	-11.2469
ige	-11.247
▁understanding	-11.2471
rzy	-11.2471
▁anthology	-11.2473
month	-11.2473
ende	-11.2475
▁1968.	-11.2476
▁sala	-11.2477
▁gates	-11.2479
iano	-11.2479
▁constant	-11.248
▁lithuanian	-11.2485
▁102	-11.2486
▁bradley	-11.2487
▁mess	-11.2488
mul	-11.249
kul	-11.249
▁wiley	-11.2491
▁gustav	-11.2491
▁frost	-11.2493
▁construct	-11.2494
▁arabia	-11.2494
▁icelandic	-11.2495
▁1998)	-11.2495
▁notice	-11.2497
angel	-11.2498
lb	-11.25
william	-11.2501
▁rid	-11.2502
▁(1985)	-11.2502
canada	-11.2508
▁disaster	-11.2508
▁hidden	-11.2508
▁1972,	-11.251
–6	-11.2511
▁focuses	-11.2512
▁arrival	-11.2513
▁oc	-11.2516
author	-11.2518
▁exception	-11.2518
▁benefit	-11.2519
▁playwright	-11.2519
▁vit	-11.2519
▁(1971)	-11.252
▁ear	-11.252
ś	-11.2525
▁brass	-11.2525
▁legs	-11.2526
▁martial	-11.2528
release	-11.2529
▁graves	-11.2529
2010	-11.2531
▁sud	-11.2532
▁cartoon	-11.2535
▁gla	-11.2535
▁meat	-11.2536
▁penalty	-11.2538
▁accused	-11.2538
kl	-11.2542
▁pageant	-11.2543
▁wikipedia	-11.2543
▁liberation	-11.2545
▁humans	-11.2545
▁premiership	-11.2547
▁colors	-11.2547
▁gp	-11.2547
ree	-11.2547
blog	-11.2549
frac	-11.2551
▁1970)	-11.2551
▁charged	-11.2551
▁producers	-11.2552
▁error	-11.2558
▁specialized	-11.2558
▁dome	-11.2559
▁caroline	-11.2563
▁tenth	-11.2566
▁interstate	-11.2566
▁wer	-11.2567
▁kot	-11.2568
▁hou	-11.2571
cro	-11.2572
rn	-11.2577
▁paint	-11.258
kt	-11.258
▁fern	-11.2583
▁welcome	-11.2584
▁đ	-11.2585
▁frontier	-11.2586
те	-11.2586
▁1965)	-11.2586
▁pos	-11.2589
▁clar	-11.259
nath	-11.259
interview	-11.259
▁1968)	-11.2593
▁sentence	-11.2596
▁wheat	-11.2596
▁wrong	-11.2596
▁speedway	-11.2597
2011	-11.2599
▁interchange	-11.2604
kka	-11.2607
▁favour	-11.2612
▁alien	-11.2612
▁solutions	-11.2614
▁legends	-11.2614
▁hectares	-11.2615
▁historia	-11.2615
lect	-11.2616
▁2011)	-11.2617
но	-11.2617
▁breaking	-11.2618
ulu	-11.2619
him	-11.2622
lk	-11.2624
▁1800	-11.2625
vr	-11.2629
▁confused	-11.2629
▁1945.	-11.263
▁lecture	-11.263
fil	-11.263
bir	-11.263
▁boom	-11.2632
▁paradise	-11.2632
▁trap	-11.2633
▁rookie	-11.2635
▁chorus	-11.2635
dem	-11.2637
▁terra	-11.2639
▁mcdonald	-11.264
▁wagner	-11.2641
ار	-11.2642
▁113	-11.2644
oj	-11.2645
▁hunting	-11.2646
▁spy	-11.2646
▁alive	-11.2648
ière	-11.265
ened	-11.2655
▁protocol	-11.2655
▁mla	-11.2656
▁jer	-11.2659
iah	-11.266
▁finn	-11.2661
▁wish	-11.2664
▁kad	-11.2664
▁responsibility	-11.2665
▁1999)	-11.2666
▁marry	-11.2668
▁profession	-11.2669
▁spe	-11.2669
77.	-11.2669
▁ferdinand	-11.267
▁spec	-11.2671
hausen	-11.2675
▁pursuit	-11.2676
▁2002).	-11.2676
ة	-11.2676
▁elliott	-11.2679
人	-11.2681
▁trials	-11.2683
rada	-11.2693
▁pairs	-11.2694
▁preston	-11.2694
▁#2	-11.2695
ril	-11.2696
▁ō	-11.2697
η	-11.2697
▁rocket	-11.2699
▁2003).	-11.2702
▁prop	-11.2703
▁jamie	-11.2703
▁centers	-11.2705
▁rotten	-11.2708
▁gymnastics	-11.2712
07.	-11.2713
▁wai	-11.2715
700	-11.2717
▁$3	-11.2718
▁powered	-11.272
▁1978,	-11.2721
owned	-11.2721
▁rafael	-11.2722
▁tons	-11.2722
▁nationality	-11.2725
locator	-11.2726
▁collect	-11.2728
tang	-11.2729
–15	-11.2729
6-	-11.273
▁markku	-11.2731
▁carpenter	-11.2732
▁accurate	-11.2733
lem	-11.2737
1/	-11.274
▁interviews	-11.274
▁negative	-11.2741
▁yar	-11.2741
ña	-11.2742
▁traditionally	-11.2744
athi	-11.2745
▁witt	-11.2746
▁wh	-11.2747
▁boulevard	-11.2747
▁asteroid	-11.2747
▁orlando	-11.2748
▁prayer	-11.2748
riz	-11.2748
▁104	-11.2749
▁carroll	-11.275
▁fifteen	-11.2751
▁dou	-11.2752
▁proc	-11.2752
▁icon	-11.2752
▁johan	-11.2753
ы	-11.2754
▁wise	-11.2756
▁1967.	-11.276
ache	-11.2765
▁fre	-11.2765
sec	-11.2766
gil	-11.277
▁stor	-11.277
sdale	-11.2772
▁dans	-11.2772
lı	-11.2774
▁thursday	-11.2775
2008	-11.2775
▁stri	-11.2777
▁wilderness	-11.2783
7-	-11.2783
▁heinrich	-11.2784
:15	-11.2784
fest	-11.2785
▁unsuccessful	-11.2787
▁^	-11.279
▁122	-11.2791
97.	-11.2791
uit	-11.2793
ook	-11.2796
lund	-11.2796
▁hook	-11.2798
▁confederate	-11.2799
▁funk	-11.28
peter	-11.28
▁resignation	-11.2801
ró	-11.2801
then	-11.2804
▁nominations	-11.2804
駅	-11.2804
tig	-11.2805
14.	-11.2805
insky	-11.2807
ulla	-11.2809
▁britannica	-11.2809
▁nz	-11.2811
▁cel	-11.2811
▁pirates	-11.2812
▁comm	-11.2813
▁cluster	-11.2816
▁struck	-11.2817
▁observed	-11.2819
▁ant	-11.2824
▁deck	-11.2825
▁1966)	-11.2826
▁blow	-11.283
evi	-11.283
▁electronics	-11.2833
▁rand	-11.2836
▁rus	-11.2837
atic	-11.2839
quet	-11.2841
unda	-11.2842
ashi	-11.2842
▁earthquake	-11.2842
▁savela	-11.2843
▁santo	-11.2844
▁columns	-11.2846
▁seek	-11.2847
▁oakland	-11.2848
▁1976,	-11.2848
dot	-11.2851
ingen	-11.2852
▁facts	-11.2856
▁olive	-11.2859
fici	-11.286
▁1967)	-11.286
▁mot	-11.2863
▁translator	-11.2863
poli	-11.2864
▁developer	-11.2866
–8	-11.2869
▁quarterly	-11.287
uncredited	-11.2872
▁afc	-11.2873
▁(0	-11.2874
▁cult	-11.2877
▁ensure	-11.2878
▁blu	-11.2879
kers	-11.2881
▁sofia	-11.2883
▁mechanism	-11.2893
▁stopped	-11.2894
▁balance	-11.2895
▁tuesday	-11.2895
▁(1986)	-11.2896
▁voices	-11.2898
mov	-11.2898
▁α	-11.2903
ר	-11.2903
▁garcía	-11.2903
▁mohammad	-11.2903
▁ministers	-11.2906
ح	-11.2907
ening	-11.2912
▁47.	-11.2912
▁taste	-11.2912
▁uci	-11.2913
▁collector	-11.2917
▁1966.	-11.2919
only	-11.2919
▁hood	-11.2919
▁jeffrey	-11.2919
▁2012)	-11.292
▁diplomatic	-11.2921
▁10,000	-11.2921
mail	-11.2921
▁shrine	-11.2922
▁drugs	-11.2922
▁hear	-11.2922
▁eclipse	-11.2924
▁usgs	-11.2924
lene	-11.2925
kor	-11.2926
kat	-11.2928
▁downloaded	-11.2929
▁johnston	-11.2931
iq	-11.2932
▁monuments	-11.2932
ć	-11.2932
dé	-11.2933
▁helsinki	-11.2935
alli	-11.2936
max	-11.2936
▁(1972)	-11.2937
▁installation	-11.2937
ame	-11.294
▁counsel	-11.294
▁attending	-11.2942
▁2.5	-11.2944
▁householder	-11.2945
▁zur	-11.2945
▁monk	-11.2948
that	-11.2951
gard	-11.2951
▁commanded	-11.2951
▁(2017)	-11.2952
▁cine	-11.2953
▁eat	-11.2955
▁psycho	-11.2955
▁kingston	-11.2957
▁provinces	-11.2957
▁restaurants	-11.2958
▁(1994).	-11.296
fair	-11.296
▁theology	-11.2961
▁minimum	-11.2961
▁pga	-11.2962
loo	-11.2963
▁mae	-11.2964
pis	-11.2965
dro	-11.2967
▁cata	-11.2967
▁abd	-11.2968
tab	-11.2968
▁1845	-11.2968
▁choose	-11.2972
▁nach	-11.2972
jen	-11.2974
▁kle	-11.2975
ising	-11.2979
▁1841	-11.2979
не	-11.2979
▁ranch	-11.2979
tos	-11.2981
▁amar	-11.2983
▁2014)	-11.2984
▁graph	-11.2985
▁economist	-11.2987
▁exclusive	-11.2989
lev	-11.2989
omy	-11.299
▁renovation	-11.2993
▁....	-11.2993
03.	-11.2993
▁sidney	-11.2994
▁illness	-11.2994
09.	-11.2994
▁windsor	-11.2995
speed	-11.3002
▁139	-11.3003
alo	-11.3004
▁accessible	-11.3005
coming	-11.3005
amp	-11.3006
atory	-11.3006
▁shift	-11.3007
▁lithuania	-11.3008
▁ris	-11.3009
▁ang	-11.301
▁hometown	-11.3011
▁emmy	-11.3013
▁convert	-11.3013
cell	-11.3015
2.5	-11.3015
▁participating	-11.3019
▁tram	-11.302
▁doll	-11.3021
ope	-11.3021
▁jac	-11.3023
▁martha	-11.3031
ural	-11.3033
jean	-11.3035
▁guatemala	-11.3035
gent	-11.3036
▁plum	-11.3039
dorf	-11.304
seat	-11.3041
cke	-11.3043
▁stroke	-11.3045
▁intellectual	-11.3046
▁ordnance	-11.3046
bou	-11.3046
▁chandra	-11.3052
2000	-11.3054
▁angola	-11.3055
access	-11.3057
▁behavior	-11.3059
▁generic	-11.3059
▁snake	-11.3061
▁elevated	-11.3062
▁fate	-11.3062
▁ethiopia	-11.3063
▁1832	-11.3063
▁sheep	-11.3064
▁banking	-11.3064
▁lesser	-11.3064
ppen	-11.3065
▁[3]	-11.3066
▁1975,	-11.3067
▁gym	-11.3067
▁assault	-11.3068
▁grad	-11.3068
eria	-11.3068
▁pres	-11.3068
▁riders	-11.307
▁ruler	-11.3072
▁halifax	-11.3072
▁valle	-11.3072
▁geoffrey	-11.3072
▁trainer	-11.3074
bru	-11.3075
bai	-11.3076
ienne	-11.3077
−	-11.3077
▁funeral	-11.3078
▁radar	-11.3079
▁hind	-11.3079
ς	-11.3083
▁julius	-11.3084
▁ballad	-11.3084
▁cliff	-11.3086
▁ev	-11.3088
▁astronomical	-11.3088
▁lasted	-11.309
87.	-11.3093
▁tampa	-11.3093
▁telephone	-11.3094
▁vie	-11.3094
▁bound	-11.3094
▁papa	-11.3095
bing	-11.3096
▁tas	-11.3097
▁tomatoes	-11.3099
eman	-11.31
▁andy	-11.31
▁algeria	-11.3102
▁2-	-11.3103
▁dio	-11.3103
▁chronology	-11.3104
▁arn	-11.3105
egan	-11.3107
σ	-11.3108
▁photographic	-11.3109
bass	-11.311
▁commentary	-11.311
▁lights	-11.311
▁shops	-11.3111
ador	-11.3112
{	-11.3112
ก	-11.3115
▁preparation	-11.3115
▁fry	-11.3117
▁suspended	-11.3118
vfl	-11.3121
▁kel	-11.3122
▁nag	-11.3124
▁feat	-11.3125
yar	-11.3125
▁lynch	-11.3126
▁facing	-11.3128
ε	-11.313
▁1977,	-11.3131
▁inspiration	-11.3131
▁albania	-11.3134
▁myth	-11.3142
▁stones	-11.3146
tidae	-11.3146
▁bab	-11.3147
▁sequel	-11.3148
▁undergraduate	-11.3148
▁bruno	-11.3152
▁bucurești	-11.3152
esi	-11.3154
hee	-11.3156
▁trustees	-11.3156
ün	-11.3157
▁bark	-11.3159
▁arrest	-11.3161
▁spending	-11.3161
gm	-11.3161
▁achieve	-11.3164
rica	-11.3166
▁vicar	-11.3167
▁tribes	-11.3168
▁(1987)	-11.3168
dance	-11.3171
▁honey	-11.3175
▁genome	-11.3176
▁buses	-11.3177
engine	-11.3181
-28	-11.3181
▁possession	-11.3182
▁andreas	-11.3182
▁treasure	-11.3182
▁protestant	-11.3183
▁hypo	-11.3185
▁logo	-11.3186
▁1837	-11.3187
▁nit	-11.3187
▁presentation	-11.3187
ffe	-11.3188
esse	-11.3188
▁2013)	-11.319
▁sentenced	-11.319
▁112	-11.319
▁1958)	-11.3192
▁hua	-11.3194
▁reynolds	-11.3195
▁percentage	-11.3197
ono	-11.3198
▁dow	-11.3201
▁ud	-11.3202
▁causing	-11.3207
ching	-11.3208
▁clinic	-11.3209
▁1983)	-11.321
▁rené	-11.3211
magazine	-11.3212
▁devoted	-11.3218
▁fortress	-11.3218
kol	-11.3221
▁wednesday	-11.3223
▁worker	-11.3224
bara	-11.3225
opsis	-11.3226
▁illegal	-11.3228
▁localities	-11.323
ти	-11.323
▁banner	-11.3231
pit	-11.3231
inch	-11.3232
▁vest	-11.3232
▁(1973)	-11.3235
▁walsh	-11.3237
rig	-11.324
年	-11.3244
▁burg	-11.3247
▁cove	-11.3248
▁provider	-11.3248
▁verse	-11.3249
host	-11.3251
▁kul	-11.3254
▁glory	-11.3257
▁fig	-11.326
itch	-11.3261
▁dru	-11.3263
eux	-11.3264
bang	-11.3264
▁legislation	-11.3266
▁prairie	-11.3266
▁coleoptera	-11.3266
ridae	-11.3269
ís	-11.3271
▁agencies	-11.3271
▁westminster	-11.3273
▁headquartered	-11.3274
▁idol	-11.3275
▁beating	-11.3276
▁creator	-11.3276
ك	-11.3278
isbn	-11.3278
2012	-11.3278
bid	-11.3278
▁reputation	-11.3282
▁1965.	-11.3286
▁rub	-11.3286
▁thereafter	-11.3289
▁istanbul	-11.329
▁2005)	-11.329
andra	-11.3291
▁2018".	-11.3291
▁117	-11.3292
°30′	-11.3293
▁houghton	-11.3293
▁109	-11.3296
▁airfield	-11.3297
▁norton	-11.3297
▁dra	-11.3299
▁1846	-11.3299
▁schmidt	-11.3299
▁shire	-11.3299
▁ark	-11.3299
▁receives	-11.3299
▁sebastian	-11.33
▁chuck	-11.3302
▁alberto	-11.3302
▁roller	-11.3303
ime	-11.3304
▁diploma	-11.3309
▁capable	-11.3309
▁1844	-11.3309
▁lima	-11.331
▁ž	-11.3313
combe	-11.3313
▁supports	-11.3313
▁indians	-11.3315
▁patriarch	-11.3315
▁botany	-11.3315
kie	-11.3316
▁ideal	-11.3317
▁beam	-11.3318
▁participants	-11.332
was	-11.332
▁eve	-11.332
ė	-11.332
▁roc	-11.3323
ń	-11.3324
▁councillor	-11.3325
robert	-11.3325
▁<	-11.3326
▁gab	-11.3326
▁sitting	-11.3327
▁1963)	-11.3328
america	-11.3329
arts	-11.3331
▁renowned	-11.3332
▁helm	-11.3332
pk	-11.3332
wu	-11.3336
▁lil	-11.3336
tun	-11.3337
86.	-11.3338
▁riley	-11.334
▁chambers	-11.334
▁buddhist	-11.3342
special	-11.3343
action	-11.3343
▁relegation	-11.3348
▁trinidad	-11.3348
▁scholars	-11.3349
▁burton	-11.3352
▁palestine	-11.3353
▁stamp	-11.3353
▁glo	-11.3355
71.	-11.3355
▁maintain	-11.3356
spor	-11.3357
dus	-11.3357
▁exists	-11.3358
christ	-11.3358
▁builder	-11.336
▁bike	-11.3363
▁emb	-11.3364
:45	-11.3364
▁dorsal	-11.3365
ов	-11.3365
pia	-11.3365
▁gig	-11.3366
▁iz	-11.3367
▁heading	-11.3367
croft	-11.3369
▁fold	-11.337
▁founders	-11.3371
flu	-11.3371
▁shipping	-11.3373
▁font	-11.3374
▁broadcaster	-11.3375
イ	-11.3375
▁prototype	-11.3375
▁nomenclature	-11.3382
▁strain	-11.3383
▁shri	-11.3384
▁yama	-11.3384
ès	-11.3385
▁jesse	-11.3386
▁consensus	-11.3386
▁exploration	-11.3386
▁dig	-11.3386
▁gaelic	-11.3387
ode	-11.3388
ologie	-11.3388
▁berry	-11.3388
▁harp	-11.3389
▁sketch	-11.339
▁bron	-11.339
▁timothy	-11.3391
▁latitude	-11.3392
▁hine	-11.3392
▁wells	-11.3393
▁meetings	-11.3394
▁lev	-11.3396
▁categories	-11.3397
▁tours	-11.3397
bos	-11.3398
▁vent	-11.3399
▁1980,	-11.3399
▁historically	-11.3399
▁agree	-11.34
▁habitats	-11.3403
gat	-11.3406
▁shakespeare	-11.3408
▁syndrome	-11.3408
▁funded	-11.3409
alia	-11.3409
dai	-11.341
▁cohen	-11.341
▁marina	-11.3411
▁affair	-11.3411
▁sib	-11.3411
cit	-11.3413
▁transactions	-11.3414
▁moral	-11.3414
bha	-11.3417
▁lat	-11.3417
▁exhibitions	-11.3417
▁subspecies	-11.342
▁64,	-11.3421
▁remainder	-11.3422
▁limits	-11.3424
▁nik	-11.3424
▁disbanded	-11.3425
新	-11.3425
▁presbyterian	-11.3425
▁1954)	-11.3425
▁1962)	-11.3427
▁opponents	-11.3431
▁temp	-11.3434
▁false	-11.3435
ē	-11.3436
▁confederation	-11.3436
▁auction	-11.3436
▁joyce	-11.3438
▁massive	-11.344
▁welfare	-11.3441
pedia	-11.3442
asco	-11.3445
76.	-11.3449
▁requirements	-11.345
amo	-11.345
▁trailer	-11.3451
▁spiders	-11.3451
▁implementation	-11.3454
▁screenplay	-11.3459
▁tests	-11.3461
ats	-11.3462
▁nicola	-11.3463
▁bicycle	-11.3464
▁1964.	-11.3464
jet	-11.3464
▁pyr	-11.3465
▁vu	-11.3468
▁computing	-11.3469
nate	-11.347
oise	-11.3472
▁zagreb	-11.3474
nea	-11.3474
▁troy	-11.3475
▁lis	-11.3475
▁mand	-11.3477
match	-11.3477
▁1970.	-11.3478
sq	-11.3479
▁specimens	-11.3481
▁output	-11.3481
japanese	-11.3482
▁zhu	-11.3482
gt	-11.3484
▁bavaria	-11.3485
▁weak	-11.3486
▁runway	-11.3489
▁slovenian	-11.349
▁0.1	-11.3492
▁nominees	-11.3493
▁mata	-11.3494
cip	-11.3494
▁hybrid	-11.3494
▁ion	-11.3497
▁burma	-11.35
ink	-11.3509
▁janeiro	-11.3509
onne	-11.351
▁(1983)	-11.3511
▁som	-11.3512
▁reuters	-11.3513
agne	-11.3514
▁abolished	-11.3515
▁stereo	-11.3515
▁hindwings	-11.3516
▁sever	-11.3517
▁bam	-11.3518
▁hut	-11.352
▁longitude	-11.3521
▁hir	-11.3521
▁fab	-11.3522
encia	-11.3525
▁oval	-11.3527
▁geology	-11.3528
vie	-11.3529
james	-11.353
▁radi	-11.3534
▁europa	-11.3534
▁grammy	-11.3534
▁emily	-11.3535
▁dangerous	-11.3536
canadian	-11.3536
▁rochester	-11.3537
▁legion	-11.3538
▁1947)	-11.3539
ales	-11.3546
▁send	-11.3548
▁answer	-11.3549
▁guru	-11.355
design	-11.355
▁rated	-11.355
▁32.	-11.3551
▁bh	-11.3553
▁2000)	-11.3553
▁withdrew	-11.3553
▁mona	-11.3553
▁lens	-11.3554
▁kazakhstan	-11.3558
▁valencia	-11.3558
▁talks	-11.3559
ahan	-11.3559
np	-11.3563
▁nautical	-11.3563
alla	-11.3565
▁diesel	-11.3567
▁missed	-11.3568
stre	-11.3569
▁arctic	-11.3571
shin	-11.3571
▁carries	-11.3572
▁opens	-11.3572
▁frequent	-11.3573
▁assets	-11.3574
hong	-11.3574
▁departure	-11.3575
▁pump	-11.3576
▁programmes	-11.3579
▁severe	-11.3581
▁steep	-11.3583
seven	-11.3585
▁namibia	-11.3586
▁lem	-11.359
▁gad	-11.3591
wise	-11.3591
hwa	-11.3595
cken	-11.3595
▁1973,	-11.3596
▁celebration	-11.3597
▁malcolm	-11.3597
▁mcfarland	-11.3597
▁loud	-11.3598
kra	-11.3599
athlete	-11.36
▁neighboring	-11.3601
▁bore	-11.3602
het	-11.3603
▁1956)	-11.3605
cola	-11.3606
550	-11.3606
uti	-11.3607
ulation	-11.3607
▁naples	-11.3609
▁streak	-11.3609
ress	-11.361
ogo	-11.361
▁mw	-11.3611
ento	-11.3612
isha	-11.3613
83;	-11.3614
▁1961)	-11.3614
▁dust	-11.3614
▁hardy	-11.3614
▁viscount	-11.3615
there	-11.3615
▁components	-11.3618
▁dot	-11.3619
▁opportunities	-11.3619
▁cottage	-11.362
▁equipped	-11.362
▁profit	-11.3621
hey	-11.3621
▁johannes	-11.3623
.”	-11.3624
278	-11.3625
▁rh	-11.3626
▁variant	-11.3628
▁printer	-11.3629
▁automatic	-11.3632
polis	-11.3633
▁stuttgart	-11.3638
director	-11.364
ί	-11.364
▁1842	-11.3641
▁crow	-11.3642
▁decorated	-11.3642
michael	-11.3643
▁berth	-11.3644
▁paralympics	-11.3644
▁interaction	-11.3646
▁eligibility	-11.3648
▁matsu	-11.3648
▁monster	-11.3651
gues	-11.3652
rist	-11.3652
▁instructor	-11.3653
▁haute	-11.3656
▁mb	-11.3657
tico	-11.3657
shot	-11.3658
θ	-11.3659
▁limestone	-11.3659
▁knee	-11.3662
▁44,	-11.3663
中	-11.3665
gla	-11.3666
▁mounted	-11.3667
▁pepper	-11.3668
▁lunar	-11.3669
wang	-11.3671
▁travels	-11.3672
▁ix	-11.3674
vec	-11.3676
dir	-11.3676
▁bassist	-11.3676
mouth	-11.3676
▁bloom	-11.3681
▁thirteen	-11.3681
▁tube	-11.3682
▁tetra	-11.3683
▁missions	-11.3685
▁mani	-11.3685
▁1959)	-11.3685
tation	-11.3686
▁1960)	-11.3687
▁pablo	-11.3688
▁peri	-11.3689
read	-11.3689
▁grape	-11.369
▁minneapolis	-11.3693
▁anatomy	-11.3693
▁theatrical	-11.3693
▁medien	-11.3694
▁dissolved	-11.3695
founded	-11.3696
ин	-11.3698
agi	-11.3698
▁grades	-11.3698
▁(1970)	-11.3699
▁univers	-11.3699
lop	-11.37
bun	-11.3701
▁viii	-11.3702
▁gauge	-11.3703
thai	-11.3703
山	-11.3704
▁besides	-11.3705
▁ruins	-11.3705
▁kew	-11.3705
daily	-11.3705
▁agents	-11.3707
ع	-11.3708
▁closure	-11.371
▁coin	-11.3711
▁bout	-11.3712
▁diet	-11.3713
▁mam	-11.3713
▁118	-11.3715
▁1953)	-11.3716
direct	-11.3717
▁(1969)	-11.3717
▁controversial	-11.3721
▁kro	-11.3721
▁mlb	-11.3722
▁eggs	-11.3723
▁1969,	-11.3724
▁linear	-11.3725
▁(1984)	-11.3729
▁annals	-11.373
▁(2005	-11.373
▁cherry	-11.3731
stats	-11.3732
▁milton	-11.3732
да	-11.3735
▁catalan	-11.3735
ār	-11.3735
kot	-11.3737
itu	-11.3739
▁lover	-11.3739
kumar	-11.3742
1986	-11.3743
▁quit	-11.3745
▁praised	-11.3746
▁dunn	-11.3749
yō	-11.3754
fifa	-11.3755
▁excellent	-11.3755
enza	-11.376
▁chilean	-11.3761
▁performer	-11.3761
▁memoir	-11.3764
pul	-11.3766
▁surprise	-11.3773
▁eco	-11.3773
bow	-11.3774
▁lt	-11.3776
dhi	-11.3776
ulf	-11.3777
▁boris	-11.3778
▁editors	-11.3778
▁plymouth	-11.3778
▁poli	-11.3781
ovsky	-11.3783
▁charges	-11.3783
▁hun	-11.3783
▁discover	-11.3783
ifolia	-11.3784
asse	-11.3784
▁château	-11.3785
▁(1968)	-11.3786
connor	-11.3786
▁phys	-11.3788
▁prestigious	-11.379
iso	-11.3791
▁belief	-11.3795
▁1968,	-11.3797
▁doesn	-11.3798
system	-11.38
▁1971,	-11.3802
▁voters	-11.3802
▁lowest	-11.3806
▁bringing	-11.3807
▁compact	-11.381
▁principles	-11.381
ania	-11.3812
tini	-11.3815
▁occasion	-11.3815
3/	-11.3819
74.	-11.3819
▁weapon	-11.3822
▁verde	-11.3824
▁dell	-11.3825
ardo	-11.3827
ark	-11.3829
ス	-11.383
▁pitkin	-11.3832
▁cheng	-11.3836
cil	-11.3836
▁logan	-11.3838
▁morrison	-11.3839
yam	-11.384
▁111	-11.3842
service	-11.3842
▁experiences	-11.3842
▁cedar	-11.3844
▁zan	-11.3844
▁hence	-11.3846
▁1955)	-11.3846
▁978-9	-11.3846
29.	-11.3847
▁completing	-11.3847
▁ruling	-11.3847
▁1945,	-11.3849
▁abuse	-11.3849
▁cran	-11.385
▁prisoners	-11.3852
▁picked	-11.3853
▁courier	-11.3854
ì	-11.3859
▁exterior	-11.3859
▁(1991).	-11.3862
turn	-11.3865
▁nice	-11.3866
▁silk	-11.3866
dica	-11.3867
▁towers	-11.3868
pas	-11.3869
▁135	-11.3869
hom	-11.387
walk	-11.3873
▁pt	-11.3874
leigh	-11.3875
ج	-11.3879
jam	-11.3879
hold	-11.3883
call	-11.3883
tak	-11.3887
ò	-11.3887
▁1843	-11.3891
fact	-11.3895
833	-11.3897
pon	-11.3897
eller	-11.3898
rg	-11.3899
vé	-11.3901
▁derek	-11.3904
market	-11.3904
▁customers	-11.3904
ال	-11.3906
66.	-11.3906
▁reporting	-11.3908
▁injuries	-11.3911
▁traveled	-11.3912
force	-11.3914
ific	-11.3915
▁thousands	-11.3916
õ	-11.3916
▁3.0	-11.3917
▁grain	-11.3918
▁sham	-11.3919
▁å	-11.392
▁channels	-11.3922
▁syracuse	-11.3922
opa	-11.3922
nai	-11.3923
▁iso	-11.3924
▁tonight	-11.3924
▁1947.	-11.3924
▁portraits	-11.3925
▁pursue	-11.3925
▁3)	-11.3926
dina	-11.3926
▁retain	-11.3929
guin	-11.3929
fp	-11.393
rob	-11.3934
▁taipei	-11.3934
▁aboriginal	-11.3935
color	-11.3936
▁leone	-11.3937
▁llan	-11.3937
uchi	-11.3938
▁remember	-11.3938
63.	-11.394
▁layer	-11.394
▁lancaster	-11.394
mod	-11.3941
▁pride	-11.3941
▁sixteen	-11.3941
evo	-11.3942
nos	-11.3943
▁1839	-11.3945
called	-11.3945
▁exam	-11.3946
pack	-11.3947
vall	-11.3949
▁cancelled	-11.3951
▁fried	-11.3953
▁gaz	-11.3954
▁blo	-11.3954
▁twentieth	-11.3957
att	-11.3957
▁33.	-11.396
scape	-11.3966
▁о	-11.3966
aries	-11.3968
sr	-11.3971
yk	-11.3972
sir	-11.3972
▁dre	-11.3975
–20	-11.3979
▁witch	-11.3981
▁intention	-11.3982
▁regulations	-11.3983
▁smoke	-11.3988
▁muscle	-11.3989
▁bail	-11.3991
▁apartment	-11.3995
ught	-11.3995
▁inherited	-11.3996
▁deliver	-11.3999
▁thriller	-11.4
▁arrow	-11.4
▁mcg	-11.4002
▁colon	-11.4002
▁fired	-11.4002
050	-11.4002
ер	-11.4004
ulo	-11.4004
▁closing	-11.401
▁repair	-11.4011
▁ulster	-11.4011
▁exclusively	-11.4012
onic	-11.4012
ike	-11.4013
pie	-11.4015
ñ	-11.4015
▁relationships	-11.4018
kas	-11.4019
▁rebel	-11.4026
▁crawford	-11.4027
▁dorothy	-11.4027
▁suffering	-11.403
▁cardinals	-11.403
▁expand	-11.403
▁lucy	-11.4031
▁concentration	-11.4033
▁harvest	-11.4033
417	-11.4034
▁doors	-11.4035
▁clip	-11.4035
ush	-11.4036
mona	-11.4037
▁fuji	-11.4038
▁grim	-11.4039
▁hymn	-11.4039
▁1962.	-11.404
▁component	-11.4041
rier	-11.4042
▁concerto	-11.4045
stage	-11.4045
▁bour	-11.4047
▁dubai	-11.4048
▁yemen	-11.4049
▁spend	-11.4049
▁receiver	-11.405
▁artificial	-11.4051
▁syrian	-11.4057
▁saxony	-11.4057
college	-11.4057
▁reef	-11.4057
▁retreat	-11.4059
ket	-11.4059
otte	-11.406
bling	-11.4066
▁volunteers	-11.4066
▁auf	-11.4067
▁2001).	-11.4068
▁defunct	-11.4069
▁facade	-11.4069
▁bia	-11.4072
▁pon	-11.4074
phone	-11.4074
▁170	-11.408
▁democrats	-11.4082
cula	-11.4084
ő	-11.4086
▁1946.	-11.4087
vio	-11.4088
ف	-11.4089
▁116	-11.4089
▁gli	-11.4091
▁byzantine	-11.4092
▁kicker	-11.4093
rank	-11.4093
kim	-11.4094
че	-11.4095
▁2004)	-11.4095
tner	-11.4096
ident	-11.4096
▁nineteenth	-11.4097
jos	-11.4098
64.	-11.4098
▁strongly	-11.4099
▁whereas	-11.4103
▁narrative	-11.4104
eti	-11.4107
▁franc	-11.4109
▁expressed	-11.4112
▁memphis	-11.4115
▁flies	-11.4117
ж	-11.4119
▁::	-11.4122
ancy	-11.4123
▁tyler	-11.4125
▁apelor	-11.4127
▁archdiocese	-11.4127
▁assisted	-11.4129
berger	-11.4131
▁sé	-11.4131
▁1961.	-11.4134
osi	-11.4136
▁macedonia	-11.4138
gp	-11.4138
–5	-11.4139
ος	-11.4139
ät	-11.4142
во	-11.4144
▁hayes	-11.4144
▁brands	-11.4145
eight	-11.4145
▁plains	-11.4148
etto	-11.4149
clo	-11.4151
lach	-11.4152
moor	-11.4154
▁bengali	-11.4157
▁mare	-11.4159
▁1957)	-11.416
▁cnn	-11.4161
▁mast	-11.4162
▁greene	-11.4163
ве	-11.4164
2009	-11.4164
got	-11.4164
▁halt	-11.4166
photo	-11.4166
ishi	-11.4167
▁1963.	-11.4167
▁significance	-11.4169
▁directorate	-11.417
odont	-11.417
fon	-11.417
▁strand	-11.4172
▁steal	-11.4173
▁reception	-11.4175
lf	-11.4178
▁1970,	-11.4178
ilia	-11.418
-11-	-11.4181
650	-11.4182
▁hermann	-11.4183
▁2.0	-11.4186
▁beta	-11.4186
▁dialogue	-11.4187
isse	-11.4188
biography	-11.4189
▁pocket	-11.419
▁novo	-11.419
hole	-11.419
▁latvian	-11.4192
▁felix	-11.4194
▁lone	-11.4194
▁andhra	-11.4194
tf	-11.4194
▁jaya	-11.4194
atta	-11.4195
▁rector	-11.4197
:10.1093/	-11.4199
▁(1993).	-11.4199
▁writes	-11.42
65.	-11.42
583	-11.4201
rama	-11.4202
▁metrolyrics	-11.4205
▁loch	-11.4205
duct	-11.4206
▁chap	-11.4207
amine	-11.4207
mah	-11.421
otic	-11.4211
▁casino	-11.4212
lä	-11.4213
ungen	-11.4215
▁rebecca	-11.4216
▁nj	-11.4216
▁officials	-11.4218
▁holdings	-11.4219
▁affected	-11.4221
rä	-11.4221
▁skater	-11.4222
▁keen	-11.4223
▁burial	-11.4225
▁remembered	-11.4225
▁launches	-11.4226
grade	-11.4227
ovic	-11.4227
▁recognised	-11.4227
▁(1966)	-11.423
▁128	-11.4233
prop	-11.4234
half	-11.4234
zie	-11.4235
/4	-11.4235
▁desire	-11.4235
▁recipients	-11.4237
lane	-11.424
▁tak	-11.4242
▁styles	-11.4247
▁accounts	-11.4249
▁streams	-11.4249
▁victims	-11.4249
lier	-11.4249
▁quest	-11.425
▁willie	-11.425
record	-11.4253
▁advice	-11.4253
▁indo	-11.4254
▁1838	-11.4254
neill	-11.4255
▁valid	-11.4258
▁haz	-11.4259
▁cabin	-11.426
1-2	-11.4261
▁drivers	-11.4262
lines	-11.4262
rim	-11.4262
▁martyr	-11.4262
gaon	-11.4264
ābād	-11.4264
▁1820	-11.4265
▁hom	-11.4266
erman	-11.4269
▁belgrade	-11.4271
▁dogs	-11.4271
08.	-11.4272
▁objective	-11.4272
▁connect	-11.4275
nice	-11.4276
▁helicopter	-11.4276
▁danger	-11.4282
▁spelling	-11.4283
▁wis	-11.4284
▁parameter	-11.4284
▁exhibit	-11.4285
gha	-11.4288
▁fond	-11.4288
plane	-11.4288
▁gonzález	-11.4288
▁laugh	-11.429
▁genetic	-11.429
▁peterson	-11.4292
exp	-11.4293
▁attributed	-11.4294
▁perspective	-11.4295
▁naka	-11.4299
gawa	-11.43
▁2002)	-11.43
▁anything	-11.4301
coordinates	-11.4303
pé	-11.4304
▁debt	-11.4304
▁pace	-11.4305
oca	-11.4306
▁belong	-11.4306
▁handle	-11.4306
▁lose	-11.4306
▁(5):	-11.4306
rop	-11.4306
semifinals	-11.4309
▁castro	-11.4311
▁instance	-11.4313
▁livingston	-11.4313
▁adding	-11.4313
▁scientists	-11.4314
▁2003)	-11.4314
tol	-11.4316
duc	-11.4318
র	-11.4318
▁costume	-11.4319
▁aerial	-11.432
wave	-11.4321
▁partly	-11.4321
disc	-11.4322
▁stating	-11.4323
▁(1982)	-11.4324
17;	-11.4324
109	-11.4324
▁thesis	-11.4325
death	-11.4326
rik	-11.4326
▁freeman	-11.4326
▁skiing	-11.4327
▁aka	-11.4327
न	-11.4331
ná	-11.4332
▁preserve	-11.4333
▁1836	-11.4334
eiro	-11.4334
▁fossils	-11.4334
▁maker	-11.4336
▁placing	-11.4337
▁holt	-11.4338
▁looks	-11.4338
mere	-11.4338
▁phrase	-11.4339
▁alcohol	-11.4339
▁assist	-11.4341
▁speaking	-11.4342
▁refuge	-11.4343
▁fishbase	-11.4344
▁ped	-11.4344
wil	-11.4347
5-	-11.4348
▁else	-11.4348
ppa	-11.4349
▁valuable	-11.4349
▁honored	-11.4349
▁hc	-11.435
130	-11.4351
rh	-11.4353
°10′	-11.4355
▁sym	-11.4355
▁thom	-11.436
rf	-11.436
▁cheshire	-11.4362
irish	-11.4362
▁4-	-11.4363
▁pru	-11.4365
▁nordic	-11.4367
▁controversy	-11.4367
▁texts	-11.437
▁vault	-11.437
▁gala	-11.4378
▁atlético	-11.4379
▁torpedo	-11.4379
cies	-11.4381
logical	-11.4381
short	-11.4381
▁partial	-11.4384
ки	-11.439
▁relation	-11.4391
▁cali	-11.4391
▁1967,	-11.4391
▁trails	-11.4392
uw	-11.4397
▁metacritic	-11.4397
▁typ	-11.44
▁1835	-11.4401
▁apollo	-11.4402
▁canoe	-11.4402
▁comparative	-11.4403
▁mutual	-11.4404
▁springfield	-11.4404
▁classics	-11.4405
uh	-11.4406
wich	-11.4408
wie	-11.4409
▁switched	-11.4409
▁cambodia	-11.4409
▁nursing	-11.441
eger	-11.4411
▁jobs	-11.4412
▁liv	-11.4414
▁09	-11.4416
▁fel	-11.4416
39.	-11.4416
▁albany	-11.4417
hei	-11.4418
▁apr	-11.4418
ön	-11.4418
ega	-11.4421
▁180	-11.4421
▁correspondent	-11.4422
▁frei	-11.4423
▁attracted	-11.4423
▁spark	-11.4425
ל	-11.4428
▁quiet	-11.4431
▁toll	-11.4431
▁07	-11.4433
nomination	-11.4433
00)	-11.4436
▁matthews	-11.4437
▁(1988).	-11.4437
го	-11.4437
▁corp	-11.4438
▁strat	-11.4438
volume	-11.4441
▁broadcasts	-11.4441
plant	-11.4442
singer	-11.4443
kam	-11.4444
▁qi	-11.4445
▁keys	-11.4446
▁discontinued	-11.4446
▁depression	-11.4446
ór	-11.4447
▁boyd	-11.4447
methyl	-11.4449
▁baba	-11.4449
atum	-11.4452
▁plateau	-11.4453
25.	-11.4453
▁commenced	-11.4455
▁genealogy	-11.4458
holder	-11.4459
▁ˈ	-11.4459
▁garcia	-11.4461
▁mask	-11.4462
rata	-11.4464
▁exile	-11.4465
02.	-11.4466
▁hale	-11.4471
ambi	-11.4471
▁brings	-11.4473
ott	-11.4473
▁maa	-11.4474
72.	-11.4476
▁spelled	-11.4476
talk	-11.4477
▁filipino	-11.4479
▁arrangements	-11.4479
▁como	-11.4483
tea	-11.4484
ю	-11.4484
54.	-11.4485
▁delivery	-11.4488
▁waste	-11.4488
°20′	-11.4489
▁aggregate	-11.4489
▁lópez	-11.4489
▁bros	-11.449
▁reconstruction	-11.449
issue	-11.449
▁basal	-11.449
▁ost	-11.4491
▁dragons	-11.4493
▁theological	-11.4494
ković	-11.4494
▁esc	-11.4494
▁trick	-11.4496
▁potter	-11.4497
augh	-11.4498
▁normally	-11.4501
ways	-11.4501
▁mainland	-11.4503
▁cp	-11.4503
▁processes	-11.4504
▁tucker	-11.4505
▁drake	-11.4507
▁hatch	-11.4511
▁1951)	-11.4511
▁malayalam	-11.4514
▁norske	-11.4514
ators	-11.4517
aldo	-11.4517
160	-11.4518
र	-11.4521
frank	-11.4522
▁petro	-11.4522
▁enrolled	-11.4523
▁randy	-11.4525
▁unofficial	-11.4526
▁navigation	-11.4526
culture	-11.4529
2015	-11.4533
▁forever	-11.4535
▁(2004	-11.4535
▁tight	-11.4537
▁chau	-11.454
5.5	-11.454
▁6–4	-11.4541
enia	-11.4542
▁ful	-11.4544
sei	-11.4547
▁1952)	-11.4554
▁1966,	-11.4554
▁movements	-11.4555
▁continuous	-11.4556
▁displayed	-11.4556
▁encyclopædia	-11.4557
oco	-11.4558
▁mastering	-11.4559
μ	-11.4559
▁philippe	-11.456
▁finalist	-11.4561
▁к	-11.4562
surname	-11.4563
▁singers	-11.4563
nard	-11.4565
▁arte	-11.4567
/11	-11.4568
▁inventor	-11.4569
▁wimbledon	-11.4569
:10.11	-11.457
än	-11.4571
002	-11.4573
rv	-11.4573
δ	-11.4573
core	-11.4574
▁medalist	-11.4577
ending	-11.4579
arte	-11.4579
lite	-11.4579
pec	-11.458
▁kemp	-11.458
▁begun	-11.458
▁codes	-11.458
yat	-11.4581
▁wald	-11.4582
▁afro	-11.4583
▁campaigns	-11.4583
▁extensively	-11.4584
jah	-11.4584
uba	-11.4586
▁119	-11.4586
▁kang	-11.4587
▁hundreds	-11.4588
▁mps	-11.459
lak	-11.459
▁kata	-11.4591
▁saba	-11.4592
distance	-11.4592
▁useful	-11.4592
1.5	-11.4593
▁betty	-11.4593
▁governing	-11.4593
lai	-11.4593
lough	-11.4597
▁waiting	-11.4599
tani	-11.46
sho	-11.46
▁aims	-11.4602
▁colours	-11.4602
▁viewed	-11.4602
▁tune	-11.4603
▁ska	-11.4603
▁crest	-11.4604
route	-11.4604
child	-11.4605
assa	-11.4607
▁museums	-11.4608
▁monroe	-11.4609
lead	-11.4609
▁(2018).	-11.461
pierre	-11.4611
▁patterson	-11.4612
▁veterans	-11.4613
illon	-11.4613
▁bergen	-11.4614
▁attract	-11.4614
inski	-11.4615
▁patri	-11.4615
▁originated	-11.4616
ло	-11.4616
▁behalf	-11.4618
▁diverse	-11.4619
▁webster	-11.462
▁д	-11.4622
▁hansen	-11.4623
:10.1007/	-11.4623
▁1956.	-11.4623
▁faa	-11.4624
▁trek	-11.4624
marie	-11.4627
▁decline	-11.4627
▁marshal	-11.463
sure	-11.4631
▁regime	-11.4631
▁bangkok	-11.4631
▁succession	-11.4634
▁deer	-11.4643
▁structural	-11.4643
eda	-11.4644
▁trace	-11.4645
▁administered	-11.4649
kir	-11.4649
hk	-11.465
▁manufacture	-11.4651
keeper	-11.4652
trop	-11.4654
▁commanding	-11.4654
▁sutton	-11.4656
dora	-11.4657
▁distinctive	-11.4658
▁proto	-11.4659
modern	-11.4662
▁giuseppe	-11.4662
morph	-11.4664
▁cock	-11.4664
river	-11.4666
pole	-11.4666
nb	-11.4666
▁concluded	-11.4668
▁01	-11.467
▁1959.	-11.4671
▁sox	-11.4672
dies	-11.4672
▁option	-11.4675
xia	-11.4677
▁experienced	-11.4677
▁barber	-11.4677
59.	-11.4679
[1]	-11.4681
▁ranges	-11.4682
▁swamp	-11.4683
▁concerns	-11.4683
▁emil	-11.4683
▁encyclopaedia	-11.4687
▁endangered	-11.4687
▁pitchfork	-11.4687
▁christianity	-11.4689
▁2000).	-11.4692
original	-11.4693
sher	-11.4693
▁teammate	-11.4696
▁stuff	-11.4696
wat	-11.4697
▁cecil	-11.4698
▁cafe	-11.4699
add	-11.4699
louis	-11.47
▁associates	-11.47
osis	-11.4703
▁superintendent	-11.4706
▁entries	-11.4706
▁dinosaur	-11.4707
▁sav	-11.471
ա	-11.4712
▁crowned	-11.4713
▁ballot	-11.4714
▁fled	-11.4714
▁diana	-11.4715
▁shooter	-11.4717
fk	-11.4717
▁apparently	-11.4719
▁maple	-11.472
▁jug	-11.4721
▁greenwood	-11.4722
▁porto	-11.4723
▁theodore	-11.4724
▁practices	-11.4726
▁2001)	-11.4731
iii	-11.4735
uca	-11.4737
▁conversation	-11.4737
▁scandal	-11.474
▁minority	-11.4741
▁slave	-11.4741
erie	-11.4741
▁malaysian	-11.4744
ghan	-11.4746
40.	-11.4752
▁123	-11.4753
▁climb	-11.4755
°46′	-11.4756
▁describe	-11.4758
▁promise	-11.476
▁qatar	-11.4762
▁mom	-11.4764
▁bread	-11.4765
35.	-11.4765
▁»	-11.4766
ь	-11.4766
▁rig	-11.4766
1.9	-11.4767
fiction	-11.4769
▁colombian	-11.4775
▁corresponding	-11.4778
91.	-11.4778
▁friendship	-11.4779
bishop	-11.4781
cen	-11.4783
wel	-11.4791
zal	-11.4792
▁1831	-11.4793
102	-11.4794
quil	-11.4795
▁suburbs	-11.4797
tto	-11.4798
tele	-11.4798
▁logic	-11.48
▁janet	-11.4801
▁capitol	-11.4801
▁patient	-11.4802
▁lid	-11.4804
▁rapids	-11.4805
▁references	-11.4806
▁soc	-11.4807
°45′	-11.4807
▁serra	-11.4807
▁prisoner	-11.4808
▁portrayed	-11.4811
▁ming	-11.4814
▁crack	-11.4814
▁clothing	-11.4814
▁walkover	-11.4814
▁rhodes	-11.4816
▁marvel	-11.4816
82.	-11.4817
▁scales	-11.4818
kk	-11.4821
fold	-11.4821
▁(1987).	-11.4821
▁koch	-11.4822
▁coleman	-11.4822
▁gt	-11.4822
اد	-11.4822
▁cons	-11.4823
even	-11.4823
rach	-11.4824
▁reduction	-11.4824
▁1939.	-11.4825
▁warehouse	-11.4826
92.	-11.4828
▁clara	-11.4828
▁legendary	-11.4828
wide	-11.4829
chem	-11.483
▁algorithm	-11.4832
▁negro	-11.4833
▁lung	-11.4833
0.5	-11.4833
125	-11.4834
▁1944)	-11.4835
▁03	-11.4837
▁collaborated	-11.4837
▁sten	-11.4838
▁bottle	-11.484
bey	-11.484
lli	-11.484
▁cube	-11.4841
chester	-11.4841
1-3	-11.4843
khan	-11.4844
▁leicester	-11.4845
▁sou	-11.4845
▁arcade	-11.4846
▁(1967)	-11.4847
▁(1979)	-11.4849
ango	-11.485
▁bald	-11.4851
sby	-11.4851
°12′	-11.4851
°15′	-11.4851
▁presidency	-11.4851
cri	-11.4853
▁nicolas	-11.4854
0-0	-11.4854
▁announcement	-11.4854
gee	-11.4856
teen	-11.4856
▁consequence	-11.4858
sized	-11.4859
78.	-11.486
ight	-11.4862
▁michelle	-11.4862
▁louisville	-11.4863
▁assists	-11.4865
▁1948)	-11.4866
▁león	-11.4867
▁transform	-11.487
▁eligible	-11.487
▁partially	-11.4872
▁stre	-11.4872
kei	-11.4873
tik	-11.4875
▁(1990).	-11.4876
fast	-11.4876
cole	-11.4877
chart	-11.4877
350	-11.488
▁guil	-11.488
ა	-11.4883
oki	-11.4886
▁brill	-11.4888
▁hey	-11.4889
°40′	-11.489
▁customs	-11.489
▁gateway	-11.4892
▁(2018	-11.4896
simplified	-11.4896
▁hail	-11.4896
▁neg	-11.4897
▁mandal	-11.49
▁descendants	-11.49
3.2	-11.49
eye	-11.4903
▁midnight	-11.4904
▁dealer	-11.4905
▁racer	-11.4907
hana	-11.4908
▁1–1	-11.4909
▁hardware	-11.491
▁skier	-11.4912
▁1964,	-11.4914
▁frances	-11.4915
▁dro	-11.4916
▁bedford	-11.4918
▁1958.	-11.4918
▁josef	-11.4919
▁pes	-11.4921
▁claire	-11.4923
▁str	-11.4924
▁apostolic	-11.4924
▁descriptions	-11.4925
▁drain	-11.4926
^{	-11.4926
boo	-11.4926
/?	-11.4926
mph	-11.4926
lton	-11.4926
▁teach	-11.4926
imp	-11.4928
°25′	-11.4928
▁fountain	-11.4928
▁tehran	-11.4928
▁parishes	-11.4928
itter	-11.4931
▁brent	-11.4932
▁baden	-11.4933
▁mira	-11.4933
▁jur	-11.4934
▁0.2	-11.4934
gang	-11.4935
▁(1992).	-11.4935
▁diving	-11.4936
υ	-11.4937
▁themes	-11.4938
▁fourteen	-11.4939
▁brewer	-11.4939
▁slam	-11.4939
▁davidson	-11.4943
0000	-11.4943
46.	-11.4945
lion	-11.4946
▁samoa	-11.4949
140	-11.495
meet	-11.4953
▁населения	-11.4954
ocera	-11.4955
▁vr	-11.4956
▁closer	-11.4956
▁guards	-11.4958
alt	-11.496
▁execution	-11.496
billboard	-11.4962
mund	-11.4967
▁п	-11.4967
▁harald	-11.4968
▁wealthy	-11.497
▁1949)	-11.4973
▁bordered	-11.4973
▁fungi	-11.4973
▁hag	-11.4973
.10	-11.4974
105	-11.4974
▁0.5	-11.4975
▁interpretation	-11.4975
28.	-11.4977
posed	-11.4978
▁footballers	-11.4979
子	-11.4979
▁graphics	-11.4982
▁ira	-11.4983
3)	-11.4985
▁conce	-11.4985
▁poets	-11.4986
▁treat	-11.4986
break	-11.4986
▁eb	-11.4988
▁charleston	-11.4988
▁reflect	-11.499
▁ley	-11.4991
▁05	-11.4991
dding	-11.4992
▁(1965)	-11.4994
illy	-11.4995
▁fork	-11.4999
▁dixon	-11.4999
▁electorate	-11.5001
▁circular	-11.5001
▁dei	-11.5001
▁gua	-11.5004
▁characterized	-11.5005
▁enjoyed	-11.5005
▁suffolk	-11.5005
▁irregular	-11.5005
▁monitoring	-11.5006
▁kunst	-11.5008
▁parking	-11.5008
▁1957.	-11.5009
ди	-11.501
▁nagar	-11.501
roc	-11.5011
▁triangle	-11.5012
▁promoting	-11.5012
stream	-11.5014
▁145	-11.5016
▁contra	-11.5016
▁load	-11.5017
°35′	-11.5018
▁dozen	-11.5018
buch	-11.5023
▁carabidae	-11.5025
▁sanctuary	-11.5025
▁synthesizer	-11.5025
▁derbyshire	-11.5025
2.4	-11.5026
▁bah	-11.5026
▁encourage	-11.5029
▁retire	-11.5031
▁nationalist	-11.5031
▁lub	-11.5036
xton	-11.5036
เ	-11.5038
▁triumph	-11.5038
enda	-11.5038
gaard	-11.5039
▁digest	-11.5041
1.1	-11.5041
▁hank	-11.5042
chia	-11.5046
▁obe	-11.5047
▁diseases	-11.5048
▁blast	-11.505
martin	-11.5051
▁kawa	-11.5053
▁nau	-11.5053
▁travelled	-11.5054
▁poker	-11.5056
▁worcester	-11.5057
▁widespread	-11.5057
▁panchayat	-11.5057
▁everyone	-11.5057
▁1950)	-11.5057
▁ske	-11.5058
“	-11.5059
▁marble	-11.5059
▁spr	-11.5059
▁walt	-11.5059
▁coins	-11.5061
▁suburban	-11.5064
π	-11.5065
▁adolf	-11.5065
screen	-11.5067
▁equi	-11.5067
▁cham	-11.5069
▁joshua	-11.5071
illi	-11.5071
▁providence	-11.5071
note	-11.5071
inder	-11.5075
▁jake	-11.5075
current	-11.5077
▁doo	-11.5077
▁aberdeen	-11.5077
▁gü	-11.5078
▁dish	-11.5078
▁2016)	-11.508
fb	-11.5082
38.	-11.5082
▁(2009-03-1	-11.5082
▁permit	-11.5082
▁1918.	-11.5085
▁vital	-11.5085
sworth	-11.5085
▁galway	-11.5086
▁geneva	-11.5086
▁notre	-11.5086
rem	-11.5086
▁lyal	-11.5087
°11′	-11.509
▁griffin	-11.509
designated	-11.5094
▁distinction	-11.5094
▁tide	-11.5095
▁russ	-11.5096
eto	-11.5096
▁elephant	-11.5096
▁127	-11.5097
▁mob	-11.5097
obituary	-11.5098
75.	-11.5098
▁hotels	-11.51
etic	-11.5101
▁stephan	-11.5101
▁morton	-11.5101
▁heavyweight	-11.5103
hui	-11.5103
▁amendment	-11.5105
108	-11.5105
▁(1981)	-11.5106
▁brod	-11.5108
▁policies	-11.5109
tb	-11.511
feat	-11.511
▁kerr	-11.5111
▁invest	-11.5112
▁strait	-11.5114
▁mick	-11.5116
sic	-11.5117
plus	-11.5117
▁professionals	-11.5117
ič	-11.5118
▁osaka	-11.5118
▁yearbook	-11.512
▁1944.	-11.512
▁sage	-11.512
▁marker	-11.5121
▁fletcher	-11.5122
thorpe	-11.5128
▁mifflin	-11.5129
γ	-11.513
▁treasurer	-11.5131
▁nicknamed	-11.5132
▁rhine	-11.5133
▁1948.	-11.5134
▁soccerbase	-11.5137
cop	-11.5139
°55′	-11.5142
▁supplies	-11.5142
▁considerable	-11.5143
▁bust	-11.5144
▁1812	-11.5145
135	-11.5146
lant	-11.5147
articles	-11.5148
▁curriculum	-11.5148
▁nationwide	-11.5149
rep	-11.5149
▁chicken	-11.515
▁monkey	-11.5152
▁rainbow	-11.5155
xx	-11.5158
yana	-11.5158
▁infant	-11.5158
▁allies	-11.5158
▁resign	-11.5159
°22′	-11.5161
▁chocolate	-11.5161
▁wade	-11.5164
▁grab	-11.5165
▁thu	-11.5166
wiki	-11.5167
▁circulation	-11.5168
▁fitted	-11.5169
▁disk	-11.517
von	-11.5171
▁torre	-11.5174
▁portfolio	-11.5175
▁establishing	-11.5175
▁hiro	-11.5176
▁jos	-11.5177
84.	-11.5179
▁brighton	-11.518
▁jessica	-11.5182
▁ari	-11.5182
▁christine	-11.5184
▁organisations	-11.5185
▁mort	-11.5186
▁nominee	-11.5186
▁depend	-11.5187
▁pupils	-11.5187
▁clyde	-11.5188
nad	-11.5189
▁tran	-11.5192
▁rudolf	-11.5194
▁swift	-11.5196
▁fischer	-11.5198
guitar	-11.5198
anov	-11.5198
▁latvia	-11.5198
cie	-11.52
▁175	-11.5201
°34′	-11.5201
▁cb	-11.5201
aran	-11.5201
enbach	-11.5203
▁mistake	-11.5203
▁136	-11.5204
archives	-11.5204
▁slo	-11.5205
yt	-11.5207
°23′	-11.5208
gis	-11.5208
▁cairo	-11.5209
▁unesco	-11.5209
▁1815	-11.5211
▁reformed	-11.5214
▁ling	-11.5214
▁settlers	-11.5214
2007	-11.5218
▁liz	-11.5218
▁andre	-11.5218
▁crossed	-11.5219
▁keyboard	-11.5219
▁1825	-11.5223
▁beaver	-11.5224
iaceae	-11.5224
kowski	-11.5224
▁tackle	-11.5226
past	-11.5226
onda	-11.5226
▁atp	-11.5227
/3	-11.5229
alan	-11.5231
▁fool	-11.5231
▁wickets	-11.5234
▁cir	-11.5237
ijs	-11.5241
▁1833	-11.5242
▁sb	-11.5243
▁bars	-11.5244
▁(2003	-11.5244
▁1834	-11.5245
▁ussr	-11.5245
▁comuni	-11.5247
▁jockey	-11.5247
fus	-11.5248
▁crusade	-11.5248
bull	-11.525
oga	-11.525
▁editing	-11.5251
▁keeping	-11.5251
▁listen	-11.5252
▁boo	-11.5252
▁conway	-11.5252
ал	-11.5253
▁(6):	-11.5254
▁inscription	-11.5254
▁pall	-11.5255
▁botanic	-11.5259
mata	-11.526
ás	-11.5261
▁sailed	-11.5262
bhl	-11.5263
▁warning	-11.5263
sex	-11.5263
▁cul	-11.5265
leh	-11.5265
built	-11.5265
▁chor	-11.5266
2014	-11.5266
▁taxonomy	-11.5267
rif	-11.5267
107	-11.5268
▁concerning	-11.5268
13.	-11.5268
];	-11.5269
ished	-11.527
▁emi	-11.527
pher	-11.5271
iran	-11.5271
▁brock	-11.5276
metre	-11.5276
▁bates	-11.5277
▁1965,	-11.5278
▁elm	-11.5278
▁cart	-11.5278
▁mint	-11.5279
010	-11.5281
▁enters	-11.5282
▁committees	-11.5283
start	-11.5283
▁1962,	-11.5283
▁doc	-11.5284
▁memoirs	-11.5284
nah	-11.5284
▁ordinary	-11.5284
▁alexandra	-11.5285
°18′	-11.5287
▁gh	-11.5287
ù	-11.5287
▁antenna	-11.5288
▁hawk	-11.5288
▁composers	-11.5288
▁measurement	-11.5289
spring	-11.529
crea	-11.529
▁nico	-11.5293
ders	-11.5294
▁botanist	-11.5294
▁furniture	-11.5294
▁nai	-11.5294
accessed	-11.5294
:10	-11.5296
117	-11.5298
°28′	-11.53
ม	-11.53
37.	-11.5303
▁harmon	-11.5304
▁highland	-11.5304
other	-11.5305
▁af	-11.5305
▁aimed	-11.5306
gill	-11.5306
cular	-11.5307
▁defaulted	-11.5307
▁thanks	-11.5308
▁framework	-11.531
mass	-11.531
pani	-11.5314
-27	-11.5315
3.7	-11.5315
lom	-11.5316
▁brandon	-11.5316
▁dynamic	-11.532
skaya	-11.532
▁gerard	-11.5321
nit	-11.5321
▁gha	-11.5322
single	-11.5323
rand	-11.5324
▁alexandria	-11.5325
▁1946)	-11.5326
jak	-11.5327
°43′	-11.5327
dict	-11.5327
▁annie	-11.5329
▁rises	-11.5329
▁institut	-11.5331
18.	-11.5331
▁functional	-11.5331
°19′	-11.5334
▁baroque	-11.5334
▁phillip	-11.5334
▁harcourt	-11.5335
▁manage	-11.5335
project	-11.5337
wl	-11.5338
lift	-11.5338
50;	-11.5338
▁nur	-11.5338
▁thy	-11.5341
444	-11.5342
▁colleges	-11.5342
003	-11.5342
▁thorn	-11.5343
▁finger	-11.5344
▁celebrity	-11.5344
▁turk	-11.5348
▁6–3	-11.5349
movie	-11.5351
▁roh	-11.5352
°44′	-11.5354
produced	-11.5354
playing	-11.5354
▁fundamental	-11.5354
▁126	-11.5355
▁layout	-11.5356
sell	-11.5359
139	-11.536
▁illustrator	-11.536
▁pavilion	-11.536
▁meanwhile	-11.536
anto	-11.5362
▁convicted	-11.5365
▁ref	-11.5366
japan	-11.5366
ako	-11.5367
▁700	-11.537
▁import	-11.537
bian	-11.5371
▁borg	-11.5373
deep	-11.5373
্	-11.5374
▁gardner	-11.5375
▁banned	-11.5376
▁delegate	-11.5376
utc	-11.5377
3.1	-11.5381
450	-11.5381
▁spaces	-11.5382
▁cello	-11.5383
plex	-11.5383
81.	-11.5383
▁1943)	-11.5386
▁configuration	-11.5387
▁illustrations	-11.5387
▁massacre	-11.5388
zin	-11.5391
▁abs	-11.5391
position	-11.5396
chor	-11.5397
▁tallest	-11.5397
uddin	-11.5397
▁(1962)	-11.5398
▁almanac	-11.54
ी	-11.5401
▁mohammed	-11.5401
eum	-11.5405
▁yuan	-11.5406
ivity	-11.5407
opo	-11.5407
▁platinum	-11.5407
▁absence	-11.5408
▁gaming	-11.5408
tara	-11.5408
▁pf	-11.5409
▁55.	-11.5409
voice	-11.5409
▁nash	-11.5409
▁blend	-11.541
ง	-11.5414
°31′	-11.5414
°50′	-11.5414
▁beneath	-11.5414
▁reveals	-11.5414
▁convent	-11.5414
▁kerry	-11.5416
▁pauly	-11.5416
hur	-11.5417
123	-11.5418
county	-11.5418
▁oral	-11.5419
▁lessons	-11.5422
▁kana	-11.5424
▁pdf	-11.5424
▁venues	-11.5426
▁motorway	-11.5427
°54′	-11.5428
▁1944,	-11.543
▁mainstream	-11.543
▁vita	-11.5431
este	-11.5433
°47′	-11.5434
fri	-11.5435
uan	-11.5439
bei	-11.5441
▁kab	-11.5442
▁extract	-11.5443
▁blair	-11.5443
ω	-11.5444
▁roe	-11.5446
▁mentor	-11.5446
▁whale	-11.5446
▁salem	-11.5447
°29′	-11.5448
▁carnegie	-11.5448
▁comprising	-11.5448
▁ef	-11.5448
▁recovery	-11.545
▁(1964)	-11.545
six	-11.545
anger	-11.545
°26′	-11.5455
▁survival	-11.5455
▁suggests	-11.5457
▁estates	-11.5457
kko	-11.5458
izz	-11.5458
european	-11.5459
wheel	-11.5459
sf	-11.546
▁goddess	-11.5461
▁mama	-11.5463
▁shiva	-11.5464
▁poison	-11.5464
▁angus	-11.5465
▁salon	-11.5466
▁ave	-11.5466
▁ned	-11.5467
ру	-11.5467
▁rodríguez	-11.5468
▁bracket	-11.5468
▁chapman	-11.5469
▁sup	-11.5472
▁recommended	-11.5473
▁miya	-11.5473
▁2015–16	-11.5473
swa	-11.5475
°36′	-11.5475
▁signature	-11.5475
agan	-11.5477
center	-11.5478
▁2014–15	-11.5479
▁kc	-11.548
kova	-11.5482
°38′	-11.5482
.25	-11.5482
▁airports	-11.5483
care	-11.5483
”,	-11.5484
▁stake	-11.5484
▁bollywood	-11.5484
enna	-11.5486
▁textile	-11.5486
▁maxwell	-11.5487
▁decides	-11.5488
°14′	-11.5488
°57′	-11.5488
▁138	-11.5488
ddle	-11.549
850	-11.5491
▁chand	-11.5491
▁myspace	-11.5492
event	-11.5492
▁belarus	-11.5492
▁fro	-11.5492
ots	-11.5493
tung	-11.5494
▁brett	-11.5495
▁sustainable	-11.5496
kit	-11.5497
ि	-11.5502
summer	-11.5504
▁ب	-11.5505
▁porch	-11.5505
geo	-11.5506
▁waterfall	-11.5506
▁repeat	-11.5507
▁regulation	-11.5507
abi	-11.5507
▁universidad	-11.5511
▁favourite	-11.5512
fit	-11.5512
▁stint	-11.5512
door	-11.5515
▁concern	-11.5519
riya	-11.5521
▁batsman	-11.5521
▁sus	-11.5524
▁leagues	-11.5527
▁lindsay	-11.553
/2011	-11.553
▁guilty	-11.5531
tet	-11.5532
▁maiden	-11.5532
iol	-11.5533
▁shall	-11.5535
▁cyclo	-11.5536
▁soprano	-11.5539
▁nights	-11.554
dev	-11.554
▁wor	-11.554
bek	-11.5542
े	-11.5543
▁stro	-11.5545
▁client	-11.5545
▁wit	-11.5547
otti	-11.5548
▁telugu	-11.555
2.8	-11.555
▁booth	-11.5553
▁naming	-11.5553
▁у	-11.5553
1.7	-11.5554
▁vä	-11.5556
suke	-11.5557
chang	-11.5558
▁readers	-11.5558
▁wel	-11.5559
▁crypt	-11.5561
▁breeding	-11.5562
▁łódź	-11.5563
▁sergeant	-11.5564
▁zam	-11.5565
▁strings	-11.5565
piece	-11.5565
▁lowland	-11.5566
▁declined	-11.5567
▁lea	-11.5569
°53′	-11.557
▁kuwait	-11.557
▁1953.	-11.5571
▁wong	-11.5572
▁proteins	-11.5572
▁rc	-11.5572
bob	-11.5574
▁outbreak	-11.5574
▁spectrum	-11.5577
sv	-11.5578
▁cli	-11.558
▁shallow	-11.5581
▁oversee	-11.5582
serbian	-11.5583
ʻ	-11.5584
▁militia	-11.5584
cci	-11.5585
▁1828	-11.5586
▁basket	-11.5587
▁midland	-11.559
்	-11.5591
df	-11.5592
saki	-11.5593
▁meyrick	-11.5595
omer	-11.5596
▁cyber	-11.5597
▁observation	-11.5597
▁slav	-11.5597
▁watts	-11.5597
°13′	-11.5597
▁telescope	-11.5598
▁oricon	-11.5598
▁healthcare	-11.5599
▁bry	-11.5599
▁counts	-11.5601
bund	-11.5602
▁literally	-11.5604
▁physicist	-11.5606
▁paolo	-11.5606
spiel	-11.5606
1-1	-11.5608
ión	-11.5608
▁mohan	-11.5609
▁nm	-11.5609
▁rau	-11.561
▁kali	-11.5611
▁involvement	-11.5612
▁dominic	-11.5616
").	-11.5616
jay	-11.5616
qual	-11.5617
ically	-11.5617
▁rt	-11.5618
▁má	-11.5618
▁wolfgang	-11.5618
▁bolton	-11.5619
coll	-11.562
▁169	-11.5621
▁stade	-11.5621
▁ranging	-11.5624
▁kv	-11.5625
ardi	-11.5625
2006	-11.5625
▁assignment	-11.5628
▁neighbouring	-11.5628
▁usage	-11.5632
▁apparent	-11.5632
rup	-11.5632
▁pep	-11.5632
▁inhabited	-11.5634
shore	-11.5636
rush	-11.5636
▁bwf	-11.5637
weight	-11.5638
▁antoine	-11.5639
luc	-11.564
▁knockout	-11.564
▁feather	-11.564
▁hyde	-11.564
albert	-11.564
dj	-11.5641
▁sco	-11.5644
2001	-11.5645
▁slopes	-11.5646
έ	-11.5646
▁synagogue	-11.5646
▁trunk	-11.5646
▁conservatory	-11.5648
▁1945)	-11.565
nee	-11.565
▁exact	-11.5652
▁adel	-11.5654
▁toledo	-11.5654
▁dash	-11.5654
▁rna	-11.5655
▁04	-11.5657
▁saved	-11.5657
andy	-11.5658
▁supporters	-11.5658
▁kml	-11.5659
▁apo	-11.566
▁sas	-11.5661
▁fritz	-11.5664
▁155	-11.5664
▁terrace	-11.5665
baseball	-11.5667
fs	-11.5668
▁theorem	-11.567
▁manufacturers	-11.567
eric	-11.567
uv	-11.5671
phan	-11.5671
▁baku	-11.5672
▁researcher	-11.5672
▁tum	-11.5673
▁consecrated	-11.568
▁guests	-11.5682
▁batted	-11.5682
▁rejected	-11.5683
°58′	-11.5687
▁licence	-11.5687
▁kashmir	-11.5687
africa	-11.5688
▁bombay	-11.5688
▁fitz	-11.569
▁petit	-11.5691
rone	-11.5691
sław	-11.5692
▁stress	-11.5694
°41′	-11.5694
▁decide	-11.5696
▁lal	-11.5697
bear	-11.5699
▁hin	-11.5701
°56′	-11.5701
▁pierce	-11.5701
一	-11.5701
▁froese	-11.5701
▁writings	-11.5702
84)	-11.5703
▁2019,	-11.5705
▁(1989).	-11.5706
▁elsewhere	-11.5708
▁riot	-11.5708
▁patch	-11.5709
▁hearing	-11.5709
▁sindh	-11.5711
▁circus	-11.5711
▁societies	-11.5715
▁integration	-11.5716
rí	-11.5716
▁cooperative	-11.5719
▁rin	-11.5721
°27′	-11.5722
▁basil	-11.5726
/2012	-11.5728
▁tehsil	-11.5729
▁wound	-11.5729
fund	-11.573
▁utc	-11.5732
▁lizard	-11.5732
▁eighteen	-11.5733
▁ent	-11.5733
minors	-11.5735
▁horizon	-11.5735
▁obtain	-11.5735
234	-11.5736
▁regent	-11.5738
wee	-11.5738
▁filed	-11.5739
onian	-11.5741
9-	-11.5742
retrieved	-11.5742
▁immediate	-11.5742
ɡ	-11.5743
▁approval	-11.5743
▁emerging	-11.5743
472	-11.5743
hou	-11.5743
11)	-11.5743
▁interim	-11.5746
▁hak	-11.5747
mai	-11.5747
▁photograph	-11.5748
▁traditions	-11.5748
ees	-11.575
▁(2018)	-11.5751
▁reviewed	-11.5751
▁loose	-11.5754
▁competitors	-11.5754
▁perennial	-11.5756
channel	-11.5757
5,	-11.5757
▁0-4	-11.5758
▁granite	-11.5759
/2014	-11.5762
то	-11.5763
3.5	-11.5763
8,000	-11.5765
wc	-11.5765
▁anthem	-11.5766
▁privately	-11.5766
cate	-11.5767
pala	-11.5769
rez	-11.577
lets	-11.577
▁absolute	-11.577
°39′	-11.577
▁hyderabad	-11.577
burgh	-11.577
▁kō	-11.5773
▁nascar	-11.5773
▁segments	-11.5773
▁dys	-11.5775
▁differences	-11.5775
-2006	-11.5776
▁québec	-11.5777
▁bihar	-11.5778
region	-11.578
▁nishi	-11.5782
garh	-11.5784
▁geometridae	-11.5784
▁relating	-11.5784
hus	-11.5785
▁madras	-11.5787
1.2	-11.5788
rated	-11.5788
▁rode	-11.579
pacific	-11.5792
litz	-11.5792
tov	-11.5793
gé	-11.5794
ais	-11.5795
▁differ	-11.5798
917	-11.5798
°16′	-11.5798
▁chelsea	-11.5799
4.0	-11.5801
▁subway	-11.5803
marinespecies	-11.5803
▁paz	-11.5807
▁adapt	-11.5808
▁burned	-11.5809
▁improvement	-11.5811
uring	-11.5812
▁upcoming	-11.5813
gul	-11.5816
▁knock	-11.5816
▁flank	-11.5817
spot	-11.5818
▁gai	-11.5819
bron	-11.5819
2003	-11.5819
▁destruction	-11.5819
▁inaugurated	-11.5819
▁clarinet	-11.5819
count	-11.582
1-4	-11.582
sio	-11.5821
word	-11.5821
▁victim	-11.5823
=2	-11.5824
083	-11.5825
▁sali	-11.5825
62.	-11.5826
▁1949.	-11.5828
▁permission	-11.5829
▁thames	-11.5832
▁cone	-11.5833
▁melody	-11.5834
wear	-11.5835
ppe	-11.5835
actor	-11.5837
▁amanda	-11.5837
▁bei	-11.5838
zhi	-11.5838
astro	-11.5841
indian	-11.5841
▁vietnamese	-11.5842
▁divide	-11.5842
▁dana	-11.5843
80.	-11.5845
▁motorsport	-11.5846
▁mohamed	-11.5847
▁portsmouth	-11.5848
▁enforcement	-11.5848
royal	-11.585
19.	-11.5853
▁(1960)	-11.5855
▁163	-11.5856
▁myr	-11.5857
rrell	-11.5859
▁exposed	-11.586
▁beast	-11.5861
nav	-11.5864
bone	-11.5865
medi	-11.5866
aru	-11.5867
6.5	-11.5867
▁hyp	-11.5868
avan	-11.587
▁oka	-11.587
▁slide	-11.5873
▁eng	-11.5874
▁campo	-11.5877
▁climbing	-11.5878
▁chant	-11.5878
▁genes	-11.5879
▁holm	-11.5879
quel	-11.5879
ographic	-11.588
▁punt	-11.5881
▁extending	-11.5882
▁assam	-11.5883
▁shoulder	-11.5883
▁numbered	-11.5884
cf	-11.5884
▁costs	-11.5885
cano	-11.5885
▁savage	-11.5886
▁dad	-11.5887
▁jas	-11.5887
ered	-11.5887
▁cutting	-11.5888
▁tribal	-11.5888
▁macedonian	-11.5889
▁protagonist	-11.589
▁renovated	-11.589
biz	-11.589
▁predominantly	-11.5891
▁schwe	-11.5892
owner	-11.5892
▁moldova	-11.5893
▁hampton	-11.5894
▁2019).	-11.5894
stars	-11.5895
▁1955.	-11.5895
–2	-11.5895
/2013	-11.5896
neu	-11.5896
34.	-11.5898
▁shirley	-11.5899
▁fairly	-11.59
rog	-11.5902
aves	-11.5902
▁seine	-11.5905
▁therapy	-11.5906
▁shed	-11.5907
▁ret	-11.591
▁yes	-11.5911
▁journals	-11.5911
▁noel	-11.5912
marc	-11.5913
▁mck	-11.5913
▁bullet	-11.5915
▁opponent	-11.5916
aar	-11.5917
▁abbot	-11.5917
▁1960.	-11.5917
°48′	-11.5917
田	-11.5918
▁overlook	-11.5921
80)	-11.5923
etter	-11.5923
▁spike	-11.5924
▁1961,	-11.5925
°49′	-11.5925
▁(1956)	-11.5927
▁prove	-11.5928
aea	-11.5929
erton	-11.593
ב	-11.5932
▁wealth	-11.5936
▁hari	-11.5936
nak	-11.5937
▁corruption	-11.5937
▁montenegro	-11.5939
owa	-11.594
67)	-11.5942
▁pak	-11.5942
▁sits	-11.5942
nji	-11.5943
eff	-11.5943
▁rower	-11.5943
▁vernon	-11.5943
▁yong	-11.5944
▁specimen	-11.5945
▁exceed	-11.5946
pter	-11.5948
ttle	-11.5951
▁knox	-11.5951
▁ó	-11.5951
horse	-11.5951
▁evangelical	-11.5954
镇	-11.5954
▁restricted	-11.596
2.0	-11.5961
▁1963,	-11.5961
▁murdered	-11.5962
▁sharma	-11.5963
▁1946,	-11.5964
▁diary	-11.5964
га	-11.5964
▁immigrants	-11.5965
▁continent	-11.5966
004	-11.5967
°24′	-11.5968
▁mes	-11.5968
spir	-11.5968
standing	-11.5969
▁trevor	-11.5969
▁ferguson	-11.5969
▁werner	-11.597
▁vera	-11.5973
▁plates	-11.5973
vice	-11.5973
▁quin	-11.5974
igen	-11.5974
▁fernández	-11.5975
▁neither	-11.5975
global	-11.5977
/5	-11.5978
▁showcase	-11.5978
urs	-11.5978
▁sacramento	-11.5981
▁tit	-11.5981
▁mapping	-11.5982
▁substance	-11.5982
duction	-11.5982
▁rounded	-11.5983
▁birdlife	-11.5983
▁hack	-11.5984
▁124	-11.5985
▁boh	-11.5985
▁require	-11.5986
uku	-11.5987
▁amor	-11.5988
▁auxiliary	-11.5989
▁ville	-11.599
▁(1958)	-11.5991
▁gaa	-11.5991
▁kum	-11.5991
▁lug	-11.5995
°32′	-11.5996
▁leopold	-11.5996
▁driven	-11.5997
▁engagement	-11.5999
lix	-11.5999
▁hul	-11.6
▁kut	-11.6002
▁fir	-11.6003
°52′	-11.6003
▁loaned	-11.6006
wara	-11.6006
castle	-11.6006
anus	-11.6007
fat	-11.6009
ched	-11.601
°33′	-11.601
▁comune	-11.6011
▁fellows	-11.6011
▁pleasant	-11.6011
▁aus	-11.6012
▁jaw	-11.6012
pes	-11.6013
baum	-11.6014
▁ff	-11.602
otta	-11.602
▁harmony	-11.6022
2016	-11.6023
auto	-11.6023
▁bombing	-11.6024
°17′	-11.6025
121	-11.6025
▁pearson	-11.6026
ump	-11.6028
loe	-11.6029
tw	-11.6032
▁raising	-11.6034
nium	-11.6035
41.	-11.6035
ço	-11.6036
▁duchy	-11.6038
/2010	-11.6039
players	-11.604
103	-11.6041
hoff	-11.6043
▁greenland	-11.6044
▁seeking	-11.6045
▁jets	-11.6047
▁aur	-11.6048
▁carmen	-11.6048
▁fitzgerald	-11.6053
▁barrett	-11.6054
▁bundesliga	-11.6054
▁sax	-11.6054
nio	-11.6055
389	-11.6056
▁bats	-11.6057
▁apex	-11.6058
▁connections	-11.606
▁hammond	-11.6062
slav	-11.6066
very	-11.6066
/12	-11.6066
▁accommodate	-11.6068
▁département	-11.6068
buck	-11.6068
adam	-11.6071
2.7	-11.6074
hed	-11.6074
▁dominated	-11.6076
▁quantum	-11.6076
▁impression	-11.6076
▁sequences	-11.6078
▁gon	-11.608
▁resumed	-11.6082
▁mandate	-11.6084
▁giro	-11.6085
▁slot	-11.6087
ject	-11.6087
▁1919.	-11.6088
▁xiao	-11.6088
loch	-11.609
▁brit	-11.609
▁himalaya	-11.6091
32.	-11.6093
rip	-11.6094
quer	-11.6094
gau	-11.6095
1983	-11.6095
▁méxico	-11.6097
gic	-11.6097
library	-11.6099
isto	-11.6099
▁ostr	-11.6101
▁banker	-11.6101
▁kaz	-11.6101
▁vfl	-11.6101
▁cadet	-11.6102
68.	-11.6103
▁jakarta	-11.6104
teri	-11.6104
rav	-11.6105
▁transmitter	-11.6105
▁defend	-11.6105
thon	-11.6106
▁tunisia	-11.6107
▁1826	-11.6108
girl	-11.611
▁synthesis	-11.6111
▁lucia	-11.6111
here	-11.6114
▁gö	-11.6114
▁funet	-11.6115
aphia	-11.6115
▁vos	-11.6117
ص	-11.6118
▁campeonato	-11.6118
5962/	-11.6118
dah	-11.6119
106	-11.612
▁2016–17	-11.612
lok	-11.6121
57.	-11.6122
4/	-11.6122
▁mano	-11.6123
lad	-11.6124
▁wat	-11.6126
▁punch	-11.6127
pell	-11.6129
3-4	-11.613
▁borneo	-11.613
▁raven	-11.6132
▁width	-11.6132
▁tat	-11.6135
×	-11.6135
▁woo	-11.6135
▁ik	-11.6136
▁terror	-11.6137
▁ashley	-11.6137
▁1951.	-11.6137
▁gujarat	-11.6138
▁nel	-11.6139
▁willis	-11.6143
ibility	-11.6145
rita	-11.6146
▁acad	-11.6146
▁dim	-11.6146
78)	-11.6148
▁zambia	-11.615
104	-11.6151
▁emp	-11.6153
▁publishes	-11.6153
▁nav	-11.6153
▁emigrated	-11.6154
▁gradually	-11.6154
cata	-11.6156
▁2017–18	-11.6157
1982	-11.6158
quit	-11.6161
▁lambert	-11.6161
▁supervisor	-11.6162
▁engel	-11.6162
▁iraqi	-11.6163
▁lorenzo	-11.6166
°59′	-11.6169
83)	-11.6169
▁(1963)	-11.6171
▁eduardo	-11.6171
▁styl	-11.6172
iman	-11.6175
▁2013–14	-11.6176
▁identical	-11.6176
ní	-11.6177
▁lun	-11.6177
fred	-11.6178
hungarian	-11.6179
10)	-11.6179
▁pyraloidea	-11.6183
▁ricardo	-11.6183
2002	-11.6185
▁pounds	-11.6185
ijn	-11.6189
urg	-11.619
▁mura	-11.619
°51′	-11.6191
▁kau	-11.6191
▁lifestyle	-11.6191
▁insect	-11.6191
flow	-11.6192
▁recovered	-11.6192
▁synth	-11.6192
auer	-11.6194
▁levi	-11.6194
▁mechanics	-11.6194
toria	-11.6196
▁prem	-11.6197
▁viewers	-11.6198
▁mikhail	-11.6198
▁147	-11.6198
▁tiny	-11.6198
▁councillors	-11.6198
147	-11.6201
linger	-11.6203
▁drawings	-11.6203
▁delay	-11.6205
▁rak	-11.6205
▁gymnasium	-11.6205
▁guinness	-11.6205
▁berk	-11.6206
▁praise	-11.6206
▁hospitals	-11.6207
▁conrad	-11.6207
▁professionally	-11.6207
▁variation	-11.621
21)	-11.6212
kö	-11.6214
▁middlesex	-11.6214
▁watt	-11.6216
signed	-11.6216
▁aleksandr	-11.622
ugu	-11.6221
pres	-11.6223
▁rams	-11.6223
▁cau	-11.6225
75)	-11.6225
orn	-11.6227
▁measuring	-11.6227
▁advertiser	-11.6227
▁skull	-11.6227
▁tir	-11.623
‘	-11.623
▁sd	-11.623
▁prima	-11.6231
133	-11.6234
▁argument	-11.6234
▁tender	-11.6235
▁lectures	-11.6236
▁reportedly	-11.6236
▁slip	-11.6236
öl	-11.624
inho	-11.624
▁€	-11.6241
▁μ	-11.6242
▁brasileiro	-11.6242
▁garrison	-11.6243
▁calder	-11.6245
▁norsk	-11.6246
▁resides	-11.6246
▁transformation	-11.6246
▁newman	-11.6247
▁silence	-11.625
tif	-11.6251
hid	-11.6252
ulated	-11.6255
▁1950.	-11.6255
dov	-11.6255
rei	-11.6256
▁kane	-11.6259
▁2017)	-11.6259
▁pia	-11.6261
▁165	-11.6262
▁harm	-11.6262
▁governorate	-11.6262
▁fau	-11.6263
▁peaks	-11.6263
▁statute	-11.6264
▁157	-11.6266
xo	-11.6269
115	-11.627
▁bonn	-11.6271
▁succeed	-11.6272
office	-11.6272
▁trent	-11.6273
▁barker	-11.6274
featuring	-11.6274
▁1954.	-11.6275
▁1942)	-11.6276
▁recipe	-11.6277
▁emeritus	-11.6278
▁exeter	-11.6278
▁escort	-11.6279
2013	-11.6281
why	-11.6282
▁celebrate	-11.6283
ко	-11.6283
phosphate	-11.6286
▁rup	-11.6287
mour	-11.6287
▁hassan	-11.6289
▁decree	-11.629
ulating	-11.6292
kil	-11.6293
▁elisabeth	-11.6293
▁afternoon	-11.6293
▁expressway	-11.6293
▁clifford	-11.6293
▁bride	-11.6294
▁shorter	-11.6294
▁module	-11.6294
▁ecology	-11.6294
▁payne	-11.6296
▁une	-11.6297
pura	-11.6297
▁kb	-11.6298
360	-11.63
▁baltic	-11.63
:10.1038/	-11.63
56.	-11.6302
▁sanders	-11.6302
chev	-11.6302
▁koo	-11.6303
06)	-11.6303
49.	-11.6303
▁ravi	-11.6304
loy	-11.6304
▁ig	-11.6305
82)	-11.6305
▁gum	-11.6306
▁mog	-11.6307
▁chop	-11.6307
▁worst	-11.6308
▁clash	-11.6309
vig	-11.631
▁richards	-11.6311
▁hoy	-11.6312
paris	-11.6313
/2009	-11.6313
ddington	-11.6314
▁fuscous	-11.6315
1-5	-11.6317
▁sailor	-11.6319
ি	-11.6322
▁cumberland	-11.6323
▁habit	-11.6328
▁titular	-11.633
▁speakers	-11.6331
▁lum	-11.6332
▁camps	-11.6335
▁taxi	-11.6335
ride	-11.6338
rani	-11.6339
rab	-11.6339
▁1952.	-11.6339
▁barrel	-11.6341
▁shaped	-11.6344
▁hetero	-11.6344
ɨ	-11.6345
▁omaha	-11.6345
▁percy	-11.6345
urus	-11.6347
▁burning	-11.6348
▁samples	-11.6351
owo	-11.6352
▁beccaloni	-11.6352
▁linux	-11.6353
-05	-11.6354
/0	-11.6354
ambo	-11.636
▁lig	-11.636
case	-11.636
▁vy	-11.6361
▁conventional	-11.6361
▁1810	-11.6362
▁flo	-11.6363
▁significantly	-11.6363
▁enable	-11.6365
wild	-11.6365
▁ceylon	-11.6367
▁prose	-11.6368
novel	-11.6369
▁evaluation	-11.637
▁footage	-11.6371
44.	-11.6373
▁moy	-11.6375
▁alleged	-11.6375
▁hurt	-11.6375
▁jewel	-11.6376
▁violent	-11.6376
~	-11.6379
since	-11.638
ying	-11.6381
▁swim	-11.6381
▁warfare	-11.6382
section	-11.6385
gazette	-11.6387
▁aba	-11.6388
ल	-11.6389
ller	-11.639
otto	-11.6391
▁alps	-11.6392
▁bé	-11.6394
▁fallen	-11.6395
xin	-11.6396
▁lords	-11.6397
▁observations	-11.6397
▁pau	-11.6398
aged	-11.6399
nine	-11.64
▁zookeys	-11.6401
▁analog	-11.6401
▁1935.	-11.6402
▁memories	-11.6404
▁manuscripts	-11.6404
▁(1920)	-11.6405
▁casey	-11.6405
arc	-11.6405
113	-11.6407
kri	-11.6407
guard	-11.6412
▁winston	-11.6414
▁sparta	-11.6414
bak	-11.6415
nig	-11.6415
▁aviv	-11.6415
▁raiders	-11.6416
▁painters	-11.6417
日	-11.6419
88)	-11.642
▁newsletter	-11.6421
▁enlisted	-11.6422
▁vast	-11.6422
accessdate	-11.6423
ukrainian	-11.6423
▁(1985).	-11.6424
▁appeals	-11.6426
ross	-11.6427
▁revenge	-11.6428
øy	-11.6428
uj	-11.643
poly	-11.6432
▁battles	-11.6433
▁seeing	-11.6433
▁ceiling	-11.6434
▁pyramid	-11.6434
richard	-11.6437
▁crane	-11.6437
wyn	-11.6438
▁khu	-11.6439
▁sak	-11.6441
▁contents	-11.6445
ogen	-11.6445
▁usual	-11.6446
▁batt	-11.6446
▁flee	-11.6446
2,000	-11.6447
union	-11.6448
▁tong	-11.6448
▁conclusion	-11.6449
▁pistol	-11.6449
eurs	-11.6452
▁wb	-11.6452
74)	-11.6453
▁microbiology	-11.6456
▁concerned	-11.6457
▁rav	-11.6458
▁bent	-11.6458
▁mollusca	-11.6458
▁randall	-11.6459
hc	-11.646
33.	-11.646
▁barrier	-11.6461
72)	-11.6462
▁unity	-11.6462
▁equity	-11.6465
vale	-11.6465
rice	-11.6466
-2010	-11.6468
▁raz	-11.6469
▁kosovo	-11.6471
▁knew	-11.6473
hardt	-11.6473
osus	-11.6475
▁accounting	-11.6476
▁0-6	-11.6476
▁1941)	-11.6477
▁govt	-11.6478
▁farms	-11.6478
father	-11.648
ryn	-11.6482
▁verb	-11.6482
▁0.3	-11.6486
▁customer	-11.6487
▁lyn	-11.6487
81)	-11.6487
nette	-11.6489
antha	-11.649
▁stol	-11.649
oun	-11.6493
charles	-11.6493
▁marg	-11.6493
▁shepherd	-11.6494
tip	-11.6497
▁1940.	-11.6497
▁fighters	-11.6497
hri	-11.6498
▁lé	-11.6499
4)	-11.65
apple	-11.65
▁astronomer	-11.6501
▁flights	-11.6501
▁pé	-11.6502
▁populated	-11.6504
▁floors	-11.6504
ibi	-11.6506
0.6	-11.6506
▁unter	-11.6506
cover	-11.6507
▁nicole	-11.6508
lived	-11.6508
▁dismissed	-11.6509
▁pharmaceutical	-11.6509
▁ibm	-11.6512
▁deb	-11.6515
rium	-11.6516
▁sterling	-11.6516
▁spiral	-11.6517
▁0-5	-11.6518
metal	-11.6521
▁holly	-11.6521
tou	-11.6522
mut	-11.6522
uto	-11.6522
▁bundes	-11.6522
▁zootaxa	-11.6523
▁awareness	-11.6524
▁circa	-11.6524
▁girlfriend	-11.6524
56)	-11.6526
yuki	-11.6528
▁wider	-11.6528
950	-11.6529
э	-11.6531
▁deportivo	-11.6531
▁129	-11.6531
birth	-11.6532
▁rei	-11.6533
▁wir	-11.6534
rae	-11.6536
thal	-11.6536
51.	-11.6536
▁corridor	-11.6539
▁elena	-11.6539
staff	-11.6543
▁faction	-11.6545
▁kü	-11.6545
▁calli	-11.6546
▁snap	-11.6549
▁gm	-11.6551
▁salmon	-11.6551
▁167	-11.6552
ラ	-11.6554
bé	-11.6554
aldi	-11.6555
▁warrior	-11.6555
▁evolutionary	-11.6556
▁hab	-11.6556
5.0	-11.6561
▁1947,	-11.6561
geographic	-11.6561
▁kou	-11.6566
▁"2016	-11.6567
hierarchy	-11.6567
90.	-11.6567
model	-11.6568
awards	-11.6569
▁dwarf	-11.6569
▁acro	-11.6569
▁clients	-11.6569
▁modest	-11.657
▁boot	-11.657
▁lateral	-11.657
▁rarely	-11.657
party	-11.657
hani	-11.6571
rö	-11.6572
pay	-11.6574
jal	-11.6575
▁kyle	-11.6576
ิ	-11.6576
▁masovian	-11.6576
▁144	-11.6578
▁senators	-11.6581
-2011	-11.6582
hd	-11.6582
خ	-11.6582
▁ngc	-11.6583
:50	-11.6584
国	-11.6584
▁usda	-11.6584
▁marin	-11.6584
▁regard	-11.6584
edge	-11.6585
▁interesting	-11.6585
▁clayton	-11.6585
▁bally	-11.6586
fun	-11.6587
youtube	-11.659
ifying	-11.659
▁smile	-11.6591
▁nave	-11.6591
▁semifinal	-11.6594
tek	-11.6594
globiz	-11.6595
▁titan	-11.6597
▁gian	-11.6599
-2012	-11.6602
▁sophie	-11.6602
▁shade	-11.6603
▁rue	-11.6604
▁namely	-11.6606
त	-11.6607
bd	-11.6607
▁spoke	-11.6608
53.	-11.6608
▁dug	-11.6609
▁comment	-11.6609
▁teeth	-11.661
▁theoretical	-11.6614
▁liver	-11.6615
▁respective	-11.6617
hydroxy	-11.6617
▁filming	-11.6619
▁rex	-11.6623
▁governors	-11.6624
zawa	-11.6625
▁copyright	-11.6625
▁computers	-11.6626
▁brewery	-11.6627
▁π	-11.6627
-1)	-11.6629
▁katherine	-11.6629
▁sitcom	-11.663
vari	-11.6635
▁terrestrial	-11.6637
jō	-11.6637
47.	-11.6638
▁(1959)	-11.6639
ème	-11.664
▁laser	-11.6641
▁2004:	-11.6642
rer	-11.6642
ulate	-11.6645
▁viktor	-11.6646
▁1948,	-11.6647
▁chemist	-11.6651
▁bucharest	-11.6652
▁akademi	-11.6652
▁oman	-11.6653
▁graf	-11.6654
▁(1961)	-11.6654
yna	-11.6656
fill	-11.6656
▁02	-11.6657
▁turbine	-11.6657
▁hof	-11.6658
nrhp	-11.6659
▁emmanuel	-11.666
▁trombone	-11.666
▁monograph	-11.666
▁phi	-11.6661
▁cod	-11.6662
▁rabbit	-11.6662
rath	-11.6663
tec	-11.6663
ranking	-11.6666
▁nose	-11.6666
▁extend	-11.6667
▁laurent	-11.6667
▁yield	-11.6668
▁understand	-11.6668
fal	-11.6669
▁quarterback	-11.667
▁ibrahim	-11.667
▁weiss	-11.667
▁2,000	-11.6671
▁tissue	-11.6673
ager	-11.6674
▁rajasthan	-11.6675
▁dundee	-11.6675
ф	-11.6676
leader	-11.6676
▁tackles	-11.6676
▁lineup	-11.6677
nac	-11.6678
▁czechoslovakia	-11.6679
▁brig	-11.668
30′′	-11.6681
▁medalists	-11.6681
▁solve	-11.6681
generation	-11.6682
▁miscellaneous	-11.6683
▁sharing	-11.6683
▁dhaka	-11.6683
▁secured	-11.6684
▁aff	-11.6684
▁visits	-11.6684
▁patterns	-11.6686
raz	-11.6686
▁keeper	-11.6687
supplement	-11.6689
▁coordinator	-11.669
rise	-11.6691
▁geometry	-11.6691
▁kitching	-11.6691
▁declaration	-11.6698
▁за	-11.6699
nese	-11.67
▁monica	-11.6701
lica	-11.6702
▁challenger	-11.6704
▁No	-11.6706
▁sherman	-11.6707
iron	-11.6708
eaux	-11.6709
▁lad	-11.671
▁qing	-11.6711
street	-11.6711
▁centro	-11.6712
▁keel	-11.6712
phospho	-11.6712
▁ramp	-11.6713
▁nk	-11.6713
▁emphasis	-11.6713
▁153	-11.6715
▁consider	-11.6718
▁evan	-11.6719
alter	-11.672
▁bologna	-11.6721
▁zh	-11.6722
87)	-11.6722
▁fuller	-11.6723
▁stranger	-11.6724
ewski	-11.6724
▁victories	-11.6724
▁millimetres	-11.6729
▁gloucestershire	-11.6729
▁gods	-11.6732
▁initiated	-11.6732
▁factors	-11.6732
▁bounded	-11.6734
▁dav	-11.6734
▁turtle	-11.6737
ubi	-11.6738
▁xiii	-11.6738
▁adopt	-11.6739
▁archer	-11.6739
▁gloria	-11.6739
▁sed	-11.6739
▁hick	-11.674
▁lying	-11.6741
▁nes	-11.6743
▁1914.	-11.6743
▁iwa	-11.6744
sund	-11.6747
48.	-11.6748
lost	-11.6749
▁stamps	-11.675
ط	-11.6752
▁ethics	-11.6752
.11	-11.6752
▁challenges	-11.6753
▁mash	-11.6753
▁conch	-11.6756
▁researchers	-11.6758
′	-11.6758
common	-11.6758
▁breast	-11.6759
▁fix	-11.6759
▁crazy	-11.676
cheon	-11.6761
▁ucla	-11.6762
▁whip	-11.6762
▁humanities	-11.6764
▁weber	-11.6766
▁coo	-11.6767
▁ieee	-11.6767
▁prepare	-11.6768
▁practiced	-11.6768
▁organist	-11.6771
▁helps	-11.6771
▁mural	-11.6771
domin	-11.6772
86)	-11.6773
area	-11.6773
▁vine	-11.6774
▁cong	-11.6775
▁norwich	-11.6775
▁1937.	-11.6775
▁whitburn	-11.6776
▁variations	-11.6779
58.	-11.6779
▁rhy	-11.678
notes	-11.6781
▁alta	-11.6783
▁supposed	-11.6783
8.5	-11.6783
gum	-11.6784
▁garage	-11.6785
▁ت	-11.6785
▁bella	-11.6786
▁prussia	-11.6786
▁cai	-11.6786
trum	-11.6787
▁venezuelan	-11.6787
▁hartford	-11.6787
▁152	-11.6788
▁chun	-11.6789
▁fault	-11.6791
▁stephens	-11.6792
85)	-11.6792
optic	-11.6794
▁bearing	-11.6795
31)	-11.6796
45.	-11.6797
tura	-11.6797
▁chil	-11.6798
▁softball	-11.6799
▁ub	-11.68
▁daw	-11.68
nja	-11.6801
▁performers	-11.6802
▁huang	-11.6803
mum	-11.6804
▁periods	-11.6804
▁italia	-11.6805
▁plo	-11.6805
▁sarajevo	-11.6806
▁bulldogs	-11.6806
▁1936.	-11.6808
▁criticized	-11.6808
tm	-11.6808
▁talking	-11.6809
▁1959,	-11.6809
1996	-11.681
▁sensor	-11.681
▁musik	-11.6811
saur	-11.6811
▁tho	-11.6813
19)	-11.6813
▁sánchez	-11.6814
▁rapidly	-11.6814
▁paraguay	-11.6815
▁1917.	-11.6816
▁knots	-11.6816
▁spear	-11.6816
▁(1982).	-11.6816
czy	-11.6816
▁1938.	-11.6817
▁butt	-11.6817
▁1824	-11.6819
entry	-11.682
▁countess	-11.6822
▁pubmed	-11.6822
prince	-11.6823
▁gou	-11.6824
26)	-11.6824
▁twins	-11.6825
▁dove	-11.6825
▁2020	-11.6825
▁optical	-11.6826
▁pho	-11.6826
dream	-11.6827
tique	-11.6828
▁closest	-11.6828
cultural	-11.6828
▁appropriate	-11.6828
▁159	-11.6829
▁gmbh	-11.6829
mila	-11.683
▁admission	-11.683
▁dorset	-11.6832
▁spar	-11.6834
strom	-11.6835
ophora	-11.6836
:35	-11.6836
▁1829	-11.6836
▁143	-11.6836
step	-11.6836
▁crab	-11.6837
robin	-11.6837
rini	-11.6839
kou	-11.6839
▁meter	-11.684
▁muse	-11.6841
▁yahoo	-11.6841
bt	-11.6841
▁bases	-11.6841
201	-11.6841
▁mü	-11.6842
▁announce	-11.6842
▁feeling	-11.6843
▁webpage	-11.6843
▁varieties	-11.6845
▁rican	-11.6845
▁insight	-11.6846
hren	-11.6847
▁williamson	-11.6847
▁fever	-11.6851
14)	-11.6852
44)	-11.6853
australia	-11.6853
span	-11.6854
▁sees	-11.6854
detail	-11.6856
▁journalists	-11.6857
idium	-11.6859
▁tul	-11.686
▁baldwin	-11.6861
▁pun	-11.6861
▁breaks	-11.6863
▁cav	-11.6863
▁mvp	-11.6865
giri	-11.6866
▁1.0	-11.6868
▁mic	-11.6871
▁2–1	-11.6871
▁kes	-11.6874
▁166	-11.6875
bour	-11.6875
▁nina	-11.6876
uge	-11.6879
▁(2002	-11.6879
▁juvenile	-11.6883
▁amphibian	-11.6884
▁1960,	-11.6884
▁certification	-11.6885
▁magnus	-11.6885
▁suitable	-11.6886
▁cyrillic	-11.6887
143	-11.6888
▁(3)	-11.6889
▁pike	-11.689
▁1943.	-11.689
▁stolen	-11.6892
▁lauren	-11.6893
▁highlights	-11.6893
64)	-11.6894
▁1912.	-11.6894
▁fluid	-11.6894
▁essay	-11.6895
▁karachi	-11.6896
fford	-11.6896
▁centimetres	-11.6899
▁thur	-11.6901
▁151	-11.6903
▁cic	-11.6903
▁playstation	-11.6906
held	-11.6908
▁sandra	-11.6909
kla	-11.691
▁luna	-11.691
▁162	-11.6911
▁divine	-11.6911
▁peters	-11.6911
vill	-11.6912
▁schu	-11.6912
27.	-11.6914
▁biblical	-11.6915
▁conn	-11.6915
▁delegation	-11.6915
▁kraków	-11.6915
-2000	-11.6915
70)	-11.6917
há	-11.6917
136	-11.6918
▁7"	-11.6919
▁nigel	-11.6919
nay	-11.6922
sig	-11.6922
▁1955,	-11.6923
▁suzuki	-11.6923
ück	-11.6923
▁1958,	-11.6925
1984	-11.6925
▁fairy	-11.6925
▁altar	-11.6929
▁plc	-11.6929
coach	-11.693
7,000	-11.6931
▁sixty	-11.6931
▁amp	-11.6932
▁antoni	-11.6933
31.	-11.6934
▁introduce	-11.6934
▁5000	-11.6934
▁sylv	-11.6936
mind	-11.6937
▁hui	-11.6938
agon	-11.6938
▁vegetation	-11.6938
▁scoble	-11.6939
▁torres	-11.6939
iwa	-11.6939
▁zoology	-11.694
▁lublin	-11.694
▁wheeler	-11.6941
▁2017".	-11.6941
6.2	-11.6942
eco	-11.6943
volution	-11.6943
▁reverse	-11.6944
hak	-11.6946
▁1941.	-11.6946
▁prefer	-11.6946
▁leather	-11.6947
files	-11.6948
▁168	-11.695
▁balkan	-11.695
ried	-11.6951
ša	-11.6951
/2016	-11.6951
▁sko	-11.6952
git	-11.6954
▁cis	-11.6954
▁bloomberg	-11.6955
080	-11.6957
▁1956,	-11.6957
▁referring	-11.6958
30)	-11.696
▁generations	-11.6961
▁explosion	-11.6962
zaki	-11.6962
اب	-11.6963
▁occasional	-11.6963
ody	-11.6964
▁ش	-11.6966
queen	-11.6966
▁topped	-11.6966
▁3,000	-11.6968
▁treated	-11.6968
ener	-11.6968
{\	-11.6968
▁blanc	-11.6969
▁palestinian	-11.697
▁treasury	-11.697
emer	-11.6973
מ	-11.6977
▁philosophical	-11.6977
▁rwanda	-11.6978
statistics	-11.6978
▁repeated	-11.6979
▁rubber	-11.6979
▁dinner	-11.6981
/2015	-11.6982
stop	-11.6982
▁lombard	-11.6983
77)	-11.6984
▁panthers	-11.6984
ghi	-11.6985
▁archipelago	-11.6985
▁roosevelt	-11.6985
▁citizenship	-11.6987
▁sally	-11.6987
▁agnes	-11.6989
mother	-11.699
▁(1983).	-11.699
41)	-11.6991
об	-11.6992
▁alba	-11.6992
▁landed	-11.6992
61.	-11.6993
▁cologne	-11.6993
optera	-11.6994
▁kannada	-11.6994
1,000	-11.6995
▁remove	-11.6996
cet	-11.6997
hf	-11.6997
▁161	-11.6998
.15	-11.7
ский	-11.7001
oir	-11.7002
▁132	-11.7002
15)	-11.7002
▁133	-11.7005
▁arranger	-11.7005
▁ahl	-11.7006
▁labels	-11.7008
ั	-11.7009
▁principle	-11.7009
▁politisch	-11.7009
▁medley	-11.7012
▁buzz	-11.7013
▁workshops	-11.7013
▁1942.	-11.7014
▁#3	-11.7014
▁1821	-11.7016
▁involves	-11.7017
▁shannon	-11.7018
iam	-11.7018
lith	-11.7019
▁savi	-11.7019
▁gandhi	-11.7019
▁1957,	-11.7019
bah	-11.702
▁comb	-11.702
▁attraction	-11.7023
dolphin	-11.7023
jor	-11.7023
▁characteristic	-11.7024
73)	-11.7024
württemberg	-11.7025
▁carriage	-11.7025
▁ritual	-11.7025
mx	-11.7026
ologia	-11.7031
क	-11.7032
▁mart	-11.7033
▁cooking	-11.7034
file	-11.7034
▁3000	-11.7034
▁kita	-11.7035
hala	-11.7035
▁simonsen	-11.7035
▁helena	-11.7039
▁gathering	-11.7043
▁dawson	-11.7043
▁trend	-11.7044
▁1–0	-11.7046
▁س	-11.7046
▁grants	-11.7048
▁griffith	-11.7049
▁doubt	-11.7049
-2009	-11.7053
▁siva	-11.7055
producer	-11.7055
kirk	-11.7056
▁emirates	-11.7057
▁travelling	-11.7057
▁220	-11.7057
▁lisbon	-11.7057
▁darwin	-11.7059
▁tomorrow	-11.7059
pd	-11.7059
▁phylogenetic	-11.706
-2007	-11.7061
▁ancestry	-11.7061
cion	-11.7064
▁influences	-11.7065
▁bara	-11.7065
▁mixture	-11.7066
ages	-11.7066
▁sandstone	-11.7068
70.	-11.7069
version	-11.7071
▁koz	-11.7071
▁seg	-11.7072
aï	-11.7072
▁slalom	-11.7072
▁beard	-11.7073
anthus	-11.7074
4.3	-11.7075
▁3.5	-11.7076
▁philipp	-11.7076
▁petition	-11.7076
▁dairy	-11.7077
▁mcca	-11.7078
▁cellular	-11.708
▁slope	-11.708
°00′	-11.708
still	-11.7082
▁2007-10-25.	-11.7082
▁lonely	-11.7082
speaking	-11.7082
▁cater	-11.7082
▁1999).	-11.7083
scope	-11.7085
▁pav	-11.7086
▁tus	-11.7087
▁978-3-	-11.709
▁motors	-11.7091
activat	-11.7092
▁portions	-11.7093
hali	-11.7093
▁zar	-11.7095
▁benefits	-11.7095
egi	-11.7096
▁achievements	-11.7096
▁arsenal	-11.7096
▁macau	-11.7097
▁substantial	-11.7097
pb	-11.7098
40)	-11.71
.16	-11.7103
▁wein	-11.7104
▁paleobiology	-11.7104
▁beth	-11.7104
cot	-11.7105
▁traveling	-11.711
▁nw	-11.7111
hs	-11.7111
birds	-11.7112
:10.3897/	-11.7112
hos	-11.7112
▁pérez	-11.7112
▁dylan	-11.7113
▁coll	-11.7114
urban	-11.7114
nfl	-11.7115
▁gent	-11.7116
▁hesse	-11.7117
▁chronicles	-11.7117
▁tough	-11.7117
▁149	-11.7117
▁buch	-11.7118
▁baja	-11.7119
▁skill	-11.712
gers	-11.712
▁jungle	-11.7121
tty	-11.7122
▁wireless	-11.7122
▁machines	-11.7123
2017	-11.7123
▁torn	-11.7123
walker	-11.7124
▁6–2	-11.7125
▁č	-11.7125
▁segunda	-11.7128
▁breakfast	-11.7129
vell	-11.7129
▁crush	-11.7132
ül	-11.7133
▁voor	-11.7135
▁defended	-11.7136
▁mysterious	-11.7136
▁bouchet	-11.7136
▁hannah	-11.7137
maine	-11.7137
esti	-11.7138
range	-11.714
▁walton	-11.714
▁cosmo	-11.7144
igny	-11.7144
▁2012–13	-11.7144
ifer	-11.7144
-37	-11.7146
meister	-11.7148
▁ew	-11.7149
▁tate	-11.7151
[...]
