<pad>	0
<unk>	0
▁	0
unused_0	0
unused_1	0
unused_2	0
unused_3	0
unused_4	0
unused_5	0
unused_6	0
unused_7	0
unused_8	0
unused_9	0
unused_10	0
unused_11	0
unused_12	0
e	-1.21463
.	-4.02438
,	-4.25671
the	-4.2604
、	-4.49182
。	-4.56002
(	-4.57357
)	-4.67017
-	-4.78292
s	-4.7956
of	-4.82833
in	-4.83415
a	-4.87775
年	-4.9944
and	-5.13893
の	-5.23245
・	-5.29813
"	-5.39507
:	-5.4054
to	-5.5813
は	-5.63611
月	-5.68763
on	-5.81487
is	-5.84623
d	-5.92915
was	-5.99609
が	-6.03534
1	-6.14833
'	-6.18241
に	-6.20325
を	-6.22699
/	-6.22901
as	-6.236
at	-6.2444
2	-6.27632
日	-6.28264
for	-6.28979
b	-6.41043
3	-6.41867
で	-6.42649
by	-6.42906
".	-6.45818
「	-6.49767
n	-6.49838
r	-6.503
retrieved	-6.51295
^	-6.52987
『	-6.55001
」	-6.55397
と	-6.55536
from	-6.5744
he	-6.59153
4	-6.59793
it	-6.64603
with	-6.64675
p	-6.68196
an	-6.68267
m	-6.69599
』	-6.73463
–	-6.74423
l	-6.8072
5	-6.82389
c	-6.83084
i	-6.83373
t	-6.84254
).	-6.96944
10	-6.99939
6	-7.00631
his	-7.03293
7	-7.0335
8	-7.07547
9	-7.14079
h	-7.149
12	-7.1686
である	-7.18642
th	-7.24801
g	-7.25132
;	-7.25486
11	-7.26264
k	-7.26675
com	-7.26725
し	-7.27741
o	-7.30291
した	-7.31402
or	-7.32833
y	-7.33947
から	-7.35303
that	-7.3671
j	-7.36846
new	-7.4023
v	-7.40872
第	-7.41283
w	-7.41816
や	-7.42472
f	-7.45486
“	-7.47233
ing	-7.49723
u	-7.5011
日閲覧	-7.5469
市	-7.56594
&	-7.57506
する	-7.59701
),	-7.60153
として	-7.61864
has	-7.65612
first	-7.66033
national	-7.66878
also	-7.67674
which	-7.68487
may	-7.69904
are	-7.7084
15	-7.71587
st	-7.72442
も	-7.72522
20	-7.72718
no	-7.73484
=	-7.73581
us	-7.74077
al	-7.75431
this	-7.7589
isbn	-7.76598
16	-7.77059
町	-7.78394
were	-7.78852
大	-7.79198
x	-7.7989
z	-7.80991
her	-7.81055
born	-7.82344
14	-7.85955
号	-7.86613
13	-7.86838
la	-7.87026
では	-7.87659
年に	-7.89202
who	-7.89418
ス	-7.89753
17	-7.89766
its	-7.9004
co	-7.90236
world	-7.91077
man	-7.9171
18	-7.92106
30	-7.92569
university	-7.92698
”.	-7.9301
she	-7.95815
all	-7.96794
25	-7.9731
://	-7.97322
after	-7.97411
昭和	-7.97549
日本	-7.98509
22	-8.00514
ly	-8.01545
た	-8.01831
人	-8.02339
21	-8.03074
archived	-8.03487
19	-8.03513
had	-8.04135
two	-8.04452
american	-8.04698
2018	-8.04982
march	-8.07127
2017	-8.07492
24	-8.07605
school	-8.07617
山	-8.09353
www	-8.10453
には	-8.1065
]	-8.11109
子	-8.11615
線	-8.11833
2012	-8.11944
january	-8.12019
28	-8.12408
29	-8.13324
る	-8.13335
2011	-8.13373
up	-8.13758
2016	-8.13772
23	-8.14128
not	-8.14153
[	-8.15075
2010	-8.15172
august	-8.15282
26	-8.15746
original	-8.16756
state	-8.16942
中	-8.1712
united	-8.17267
2014	-8.17665
27	-8.17839
一	-8.1825
july	-8.18851
分	-8.18895
april	-8.19104
2013	-8.19682
october	-8.19971
but	-8.20967
2015	-8.21497
http	-8.21512
駅	-8.21522
郡	-8.21822
村	-8.2249
september	-8.22652
their	-8.23034
june	-8.23132
list	-8.23869
december	-8.23964
film	-8.24162
な	-8.24574
south	-8.25167
team	-8.2537
』(	-8.26202
2009	-8.26511
november	-8.26743
平成	-8.28315
city	-8.28811
された	-8.29042
county	-8.29239
川	-8.29265
2008	-8.301
di	-8.30123
km	-8.30605
している	-8.30735
february	-8.30964
回	-8.31232
新	-8.32761
time	-8.33109
など	-8.33321
!	-8.3341
東	-8.33585
mi	-8.33684
ア	-8.33691
ic	-8.33739
over	-8.3374
また	-8.33818
district	-8.34615
31	-8.34996
部	-8.3551
この	-8.35793
north	-8.3585
して	-8.35918
ar	-8.35992
上	-8.3737
football	-8.37782
states	-8.37887
2007	-8.38733
music	-8.39521
ma	-8.40376
本	-8.40666
war	-8.41643
they	-8.41833
league	-8.42709
been	-8.42772
du	-8.42835
pdf	-8.42836
history	-8.43516
西	-8.44378
year	-8.44832
ト	-8.45877
during	-8.4595
ズ	-8.46078
john	-8.4659
ド	-8.46627
other	-8.46877
un	-8.47122
part	-8.47367
news	-8.47559
na	-8.48105
南	-8.4818
have	-8.48247
三	-8.48617
2006	-8.4887
ク	-8.48963
under	-8.49174
season	-8.49641
ch	-8.49702
out	-8.49761
英語	-8.49955
album	-8.50259
長	-8.50832
go	-8.50958
国	-8.51828
can	-8.52459
when	-8.5354
press	-8.53584
known	-8.53931
west	-8.53996
その	-8.54317
日に	-8.5436
official	-8.54425
という	-8.54526
house	-8.54612
family	-8.54696
years	-8.55031
international	-8.55692
い	-8.5578
ラ	-8.55863
where	-8.56605
do	-8.57089
there	-8.57672
so	-8.57818
2018.	-8.58128
′	-8.58304
て	-8.58694
played	-8.58915
により	-8.58951
men	-8.58955
カ	-8.59
元	-8.59624
ta	-8.59657
田	-8.59702
作曲	-8.59776
ka	-8.59937
species	-8.60183
名	-8.6033
小	-8.6037
station	-8.60489
北	-8.60536
about	-8.61315
家	-8.62243
york	-8.62414
ナ	-8.62539
より	-8.62716
)、	-8.63013
となる	-8.63049
島	-8.63342
2017.	-8.6449
club	-8.64528
野	-8.64638
three	-8.64681
による	-8.64725
son	-8.64939
da	-8.6525
社	-8.656
〜	-8.65612
道	-8.65645
second	-8.65917
高	-8.66681
位	-8.67034
name	-8.6718
ca	-8.67461
pp	-8.68344
明治	-8.68357
land	-8.68395
village	-8.68452
ra	-8.68546
2016.	-8.68735
度	-8.69116
more	-8.69169
り	-8.69215
town	-8.69561
ni	-8.69762
タ	-8.70274
2015.	-8.70354
ノ	-8.70701
high	-8.70837
となった	-8.71258
下	-8.71551
ル	-8.71559
park	-8.72065
ii	-8.72222
へ	-8.72466
大学	-8.72472
日本の	-8.72562
website	-8.72713
”	-8.72829
コ	-8.732
uk	-8.73251
company	-8.73636
され	-8.73642
between	-8.73797
ko	-8.738
マ	-8.7385
東京	-8.74187
population	-8.74247
株式会社	-8.74409
か	-8.74417
～	-8.74493
100	-8.75173
group	-8.75262
法	-8.75634
2005	-8.76177
作詞	-8.76502
into	-8.767
される	-8.76754
times	-8.77121
only	-8.77261
水	-8.77349
later	-8.77428
series	-8.7765
2014.	-8.77679
+	-8.77722
生	-8.77847
リ	-8.78019
)。	-8.782
0	-8.78628
college	-8.7885
ている	-8.78976
well	-8.78989
per	-8.79152
located	-8.79265
most	-8.79709
east	-8.79781
tv	-8.8023
_	-8.8042
がある	-8.80585
best	-8.8077
made	-8.81208
won	-8.81518
2000	-8.81562
内	-8.81665
同	-8.82232
art	-8.83075
census	-8.83164
平	-8.83293
城	-8.83566
london	-8.83586
song	-8.83766
美	-8.83828
お	-8.8421
area	-8.84418
2004	-8.84707
member	-8.85006
became	-8.85579
原	-8.85842
会	-8.85889
正	-8.86189
river	-8.86218
fc	-8.86527
50	-8.86889
id	-8.86911
?	-8.86999
であり	-8.87008
前	-8.87052
者	-8.87143
バ	-8.8718
org	-8.88127
金	-8.88206
|	-8.88219
service	-8.88263
li	-8.88878
red	-8.89039
british	-8.89382
q	-8.89425
2013.	-8.8952
後	-8.89665
released	-8.89718
life	-8.89719
.;	-8.89755
used	-8.89842
information	-8.90019
き	-8.90122
der	-8.90124
にある	-8.90218
age	-8.90508
寺	-8.90826
州	-8.90913
レ	-8.91181
ro	-8.91285
people	-8.91384
system	-8.91394
some	-8.91689
であった	-8.9188
former	-8.91899
general	-8.92047
木	-8.92114
オ	-8.92386
く	-8.92404
2012.	-8.92746
デ	-8.92949
top	-8.92992
エ	-8.93049
’	-8.93078
み	-8.93225
am	-8.93323
によって	-8.93421
cup	-8.93543
church	-8.93592
until	-8.93707
player	-8.93761
my	-8.93762
文	-8.93812
german	-8.94044
ver	-8.94077
day	-8.94344
光	-8.9471
ダ	-8.95075
book	-8.95098
、「	-8.95119
40	-8.95385
san	-8.95444
されている	-8.95587
car	-8.95752
line	-8.95982
シ	-8.96035
全	-8.96302
代	-8.96572
then	-8.96659
through	-8.96669
史	-8.96706
band	-8.96876
とは	-8.97004
」(	-8.9725
ロ	-8.97282
long	-8.97567
home	-8.97876
four	-8.97901
sports	-8.98044
和	-8.98079
小学校	-8.98439
二	-8.98469
including	-8.9857
県	-8.988
nd	-8.98822
ha	-8.98869
ti	-8.98954
place	-8.99238
フ	-8.99373
english	-8.99658
編曲	-8.99783
ki	-9.00028
now	-9.00131
central	-9.00172
サ	-9.00366
before	-9.00416
2003	-9.00437
地	-9.00496
2002	-9.00522
ム	-9.00735
you	-9.00961
since	-9.01015
イ	-9.01606
区	-9.02017
ザ	-9.02171
air	-9.02444
ジ	-9.02527
public	-9.02552
field	-9.02785
women	-9.02795
work	-9.02814
back	-9.02862
ja	-9.02895
2019	-9.02999
現	-9.03051
明	-9.03121
him	-9.03132
games	-9.03244
戦	-9.03575
game	-9.0364
行	-9.03647
立	-9.03962
巻	-9.04397
学	-9.0454
石	-9.04717
2001	-9.0472
マン	-9.0501
french	-9.05398
橋	-9.05552
love	-9.05945
than	-9.05999
王	-9.06235
化	-9.06359
being	-9.06525
register	-9.06579
役	-9.06579
ミ	-9.06614
中学校	-9.06722
historic	-9.06861
つ	-9.06936
2011.	-9.07117
版	-9.0723
ia	-9.07449
side	-9.07524
died	-9.07844
編	-9.08014
number	-9.08048
神	-9.08146
head	-9.08269
following	-9.08333
served	-9.08522
party	-9.08592
found	-9.08755
cm	-9.08804
mo	-9.0903
department	-9.09079
jr	-9.09174
ley	-9.09266
キ	-9.09277
英語版	-9.09299
sh	-9.09454
月に	-9.09575
チ	-9.09633
性	-9.10203
will	-9.10262
す	-9.10264
ton	-9.1027
まで	-9.10434
ba	-9.10622
勝	-9.10629
star	-9.10682
こ	-9.1078
海	-9.10873
pa	-9.10921
時	-9.11034
many	-9.11102
site	-9.11234
...	-9.11327
年の	-9.11416
con	-9.1144
association	-9.11449
ri	-9.11585
post	-9.12173
final	-9.12269
road	-9.12299
india	-9.12437
jo	-9.12437
government	-9.12465
vol	-9.12822
based	-9.13267
against	-9.1333
named	-9.13476
—	-9.13543
ら	-9.13545
net	-9.13639
such	-9.13925
doi	-9.14485
don	-9.14534
office	-9.14549
portal	-9.14636
その後	-9.14697
",	-9.14825
title	-9.14828
election	-9.14881
型	-9.15142
both	-9.15216
si	-9.15362
賞	-9.15513
van	-9.15614
放送	-9.15635
while	-9.15917
映画	-9.16171
cd	-9.16256
面	-9.1636
見	-9.16501
旧	-9.1659
手	-9.16674
公	-9.16706
society	-9.17015
single	-9.17189
>	-9.17276
division	-9.18056
への	-9.18086
award	-9.18106
英	-9.18234
数	-9.18561
os	-9.1868
king	-9.18687
reference	-9.18757
journal	-9.18791
リー	-9.18882
語	-9.19307
世界	-9.19313
if	-9.19374
世	-9.19613
very	-9.19635
held	-9.19859
link	-9.19995
refer	-9.2007
vi	-9.20215
mar	-9.20314
su	-9.20339
main	-9.20459
谷	-9.2057
花	-9.20611
国道	-9.20783
radio	-9.20916
show	-9.20995
35	-9.21165
ニ	-9.21199
ネ	-9.21308
australian	-9.21398
科	-9.21517
的	-9.21577
真	-9.21605
局	-9.21727
old	-9.21915
市立	-9.22048
などの	-9.22189
頁	-9.22239
国際	-9.22242
mm	-9.22311
った	-9.22483
william	-9.22651
ry	-9.22749
所	-9.22756
ディ	-9.22791
台	-9.2282
ツ	-9.22934
等	-9.2297
david	-9.23043
ハ	-9.23107
曲	-9.23529
bar	-9.23702
media	-9.23776
il	-9.23857
45	-9.23963
museum	-9.23965
中国	-9.24382
play	-9.24448
coordinates	-9.24545
pro	-9.24558
off	-9.24673
council	-9.24792
des	-9.24818
live	-9.24841
local	-9.24925
building	-9.24954
names	-9.25035
career	-9.25118
ガ	-9.25122
championship	-9.25141
rock	-9.25151
style	-9.25363
ten	-9.25535
england	-9.25729
australia	-9.26159
law	-9.2617
pi	-9.26244
ur	-9.26276
early	-9.2628
1,	-9.26427
web	-9.26557
win	-9.26584
black	-9.26633
sa	-9.26682
年から	-9.2677
にも	-9.26831
ers	-9.26938
1999	-9.26939
built	-9.27077
メ	-9.27264
would	-9.27326
および	-9.2764
record	-9.27668
hall	-9.27886
江	-9.27889
last	-9.27992
records	-9.28009
published	-9.28012
president	-9.28087
bo	-9.28302
several	-9.28357
していた	-9.28371
water	-9.28373
um	-9.28393
2010.	-9.2845
番	-9.28461
話	-9.28531
japan	-9.28583
アルバム	-9.28935
james	-9.29008
義	-9.29048
天	-9.29128
バス	-9.29244
po	-9.29591
安	-9.29746
center	-9.29795
den	-9.298
サン	-9.29894
called	-9.30122
男	-9.30413
となり	-9.30459
1990	-9.30477
america	-9.30555
database	-9.3071
ビ	-9.30795
century	-9.3081
ため	-9.30833
教育	-9.30889
32	-9.30925
にて	-9.31402
監督	-9.31729
books	-9.32153
za	-9.32166
との	-9.32197
において	-9.32266
ga	-9.32476
round	-9.32494
1998	-9.32591
約	-9.32635
久	-9.32802
グ	-9.32858
ウ	-9.3296
page	-9.33012
信	-9.33028
royal	-9.33115
au	-9.33227
鉄道	-9.33404
mer	-9.33481
republic	-9.33593
店	-9.33594
パ	-9.33696
mc	-9.33913
センター	-9.33977
宮	-9.34184
research	-9.34208
way	-9.34265
iran	-9.34315
profile	-9.34417
review	-9.34448
作品	-9.34451
gen	-9.34558
用	-9.34587
va	-9.34752
island	-9.34755
館	-9.34899
通	-9.35069
でも	-9.35076
氏	-9.35236
white	-9.35389
ho	-9.35406
del	-9.35469
ブ	-9.35473
paul	-9.35484
モ	-9.35708
ン	-9.35894
canada	-9.35907
ティ	-9.3594
38	-9.35984
白	-9.3602
年には	-9.36104
屋	-9.36213
重	-9.36321
学校	-9.3638
作	-9.36534
清	-9.36592
秒	-9.36727
う	-9.36816
lo	-9.36881
間	-9.3689
bi	-9.37273
union	-9.37477
現在の	-9.37587
目	-9.37676
イン	-9.3771
province	-9.37721
results	-9.37753
western	-9.37755
small	-9.37825
音楽	-9.37979
協会	-9.3806
別	-9.38178
1996	-9.38372
馬	-9.38378
における	-9.38446
プ	-9.3869
軍	-9.38725
物	-9.38836
set	-9.3887
summer	-9.38883
class	-9.39006
さ	-9.39044
テ	-9.39052
country	-9.39112
les	-9.39178
36	-9.39178
及び	-9.39264
だった	-9.39347
情報	-9.39369
33	-9.3962
1997	-9.39725
director	-9.39748
雄	-9.39752
community	-9.39821
井	-9.39868
ad	-9.39957
セ	-9.40013
robert	-9.40096
iv	-9.40213
ac	-9.4044
wood	-9.40829
高等学校	-9.41134
gi	-9.41137
式	-9.41187
シリーズ	-9.41254
同年	-9.41266
北海道	-9.41325
professional	-9.41398
34	-9.4145
ま	-9.41476
street	-9.4153
里	-9.41579
60	-9.4165
ya	-9.41673
end	-9.4168
george	-9.419
jan	-9.41953
region	-9.42154
business	-9.42249
公式サイト	-9.42387
成	-9.42474
chi	-9.4284
外	-9.43012
third	-9.43115
each	-9.43146
39	-9.43167
シングル	-9.43319
アン	-9.43348
選手	-9.43362
しかし	-9.43377
って	-9.43396
version	-9.43532
science	-9.43534
non	-9.43712
like	-9.43844
後に	-9.43948
1980	-9.4399
ian	-9.44208
down	-9.4429
dr	-9.44311
書	-9.44343
ter	-9.44427
sch	-9.44492
html	-9.44523
だ	-9.44595
地域	-9.44615
california	-9.44655
院	-9.44804
女子	-9.44817
ケ	-9.45161
fa	-9.45185
機	-9.45291
ゴ	-9.45408
ol	-9.45495
出	-9.45618
風	-9.45619
five	-9.45648
流	-9.45813
major	-9.45974
railway	-9.46123
武	-9.46134
story	-9.46137
中央	-9.46265
文化	-9.46345
institute	-9.46452
リーグ	-9.46486
48	-9.46497
直	-9.46663
russian	-9.46729
machine	-9.46734
愛	-9.46943
体	-9.46976
japanese	-9.46999
1995	-9.47019
death	-9.47093
テレビ	-9.47097
form	-9.47157
ny	-9.47186
children	-9.47436
一覧	-9.47514
→	-9.47627
なお	-9.47667
期	-9.47884
)4	-9.47932
室	-9.48076
great	-9.48113
シュ	-9.48118
board	-9.48127
吉	-9.48212
カー	-9.48298
的な	-9.48627
italian	-9.48628
口	-9.48634
ー	-9.48747
https	-9.48792
open	-9.4885
42	-9.48866
los	-9.49108
project	-9.49137
系	-9.492
ヤ	-9.49279
バー	-9.49408
点	-9.49455
fi	-9.49456
車	-9.49553
出身	-9.49616
television	-9.49622
となっている	-9.49738
ft	-9.49879
林	-9.49885
lake	-9.49914
ist	-9.49982
green	-9.50038
france	-9.50067
ラー	-9.50105
took	-9.50308
之	-9.50409
音	-9.50431
online	-9.50473
led	-9.50507
thomas	-9.5052
夫	-9.50721
優勝	-9.50847
治	-9.50862
michael	-9.50866
grand	-9.50883
ru	-9.51014
1960	-9.51098
1994	-9.5112
ci	-9.51137
include	-9.51355
near	-9.51361
hill	-9.51564
プロ	-9.51661
研究	-9.51662
left	-9.51748
門	-9.51752
え	-9.51819
形	-9.51978
however	-9.52166
data	-9.52226
大阪	-9.52244
頭	-9.52303
1970	-9.52407
1992	-9.525
松	-9.52607
places	-9.52644
2019.	-9.52668
tour	-9.52807
め	-9.52808
37	-9.52921
via	-9.53009
ation	-9.53046
事	-9.5313
video	-9.53209
lin	-9.53215
女	-9.53237
アル	-9.53294
古	-9.53333
沢	-9.53353
方	-9.53353
awards	-9.53443
ター	-9.53511
spanish	-9.53857
代表	-9.53861
歌	-9.53989
baseball	-9.54038
ll	-9.54053
\	-9.54069
received	-9.54086
知	-9.54149
jp	-9.542
short	-9.54231
1993	-9.5428
super	-9.54387
them	-9.544
members	-9.54489
大会	-9.54495
2,	-9.54612
ku	-9.54699
around	-9.54714
wa	-9.54736
2009.	-9.54901
track	-9.5495
船	-9.5498
began	-9.55015
こと	-9.55257
married	-9.5526
development	-9.5529
nhk	-9.55364
european	-9.55415
志	-9.55428
事業	-9.55528
{\	-9.55553
郷	-9.55649
elected	-9.55713
ていた	-9.55803
gu	-9.55879
tr	-9.55977
rd	-9.56064
万	-9.56182
court	-9.56335
47	-9.56417
時間	-9.56419
magazine	-9.5646
library	-9.56471
ji	-9.56548
northern	-9.56726
fr	-9.5673
力	-9.56758
初	-9.56803
gold	-9.56821
order	-9.56851
im	-9.56874
young	-9.56899
55	-9.57047
free	-9.57088
mal	-9.57104
65	-9.57351
along	-9.5742
ion	-9.57451
canadian	-9.57478
bay	-9.57654
星	-9.57673
論	-9.57759
46	-9.57814
run	-9.57823
works	-9.57825
total	-9.57831
広	-9.57913
ger	-9.57944
1991	-9.58153
官	-9.58218
mark	-9.58326
able	-9.58543
article	-9.58921
gar	-9.58955
charles	-9.58957
のみ	-9.59144
needed	-9.59175
での	-9.59188
ソ	-9.59211
min	-9.59356
級	-9.59386
41	-9.59389
education	-9.59465
八	-9.59599
ham	-9.59725
場	-9.59785
pr	-9.59893
地区	-9.59936
ボ	-9.59983
fm	-9.60051
ner	-9.60195
49	-9.60367
フランス	-9.60414
年度	-9.6056
54	-9.60621
ラン	-9.60632
power	-9.60989
army	-9.61061
port	-9.61089
44	-9.61169
indian	-9.61203
番組	-9.61284
じ	-9.61295
father	-9.61306
種	-9.6154
china	-9.61915
sen	-9.61958
tu	-9.6197
について	-9.62077
sub	-9.62123
1988	-9.62181
次	-9.62185
無	-9.6237
政	-9.6255
1987	-9.62878
special	-9.6302
dis	-9.63186
スト	-9.63282
championships	-9.63302
太	-9.63396
集	-9.6341
moved	-9.63442
late	-9.63447
founded	-9.63536
春	-9.63631
津	-9.63691
978-	-9.63708
academy	-9.63712
とも	-9.63784
43	-9.63885
堂	-9.64077
citation	-9.64123
any	-9.64132
op	-9.64145
olympics	-9.64167
尾	-9.64294
debut	-9.64515
さん	-9.6462
)".	-9.64716
ゲーム	-9.64749
チーム	-9.64761
着	-9.64789
五	-9.64883
朝	-9.65009
コン	-9.65139
statistics	-9.65334
53	-9.65373
just	-9.65537
ber	-9.65571
imdb	-9.65652
ロー	-9.65767
far	-9.65859
アメリカ	-9.65915
ben	-9.65929
有	-9.6595
southern	-9.65969
あ	-9.66005
宗	-9.66007
活動	-9.66125
ju	-9.66127
hi	-9.66168
smith	-9.662
search	-9.66336
岩	-9.66571
1989	-9.66739
56	-9.66888
ヒ	-9.6694
ler	-9.66984
ph	-9.67367
mu	-9.67439
出版	-9.67621
chinese	-9.67739
ち	-9.67861
200	-9.67871
coach	-9.67924
ty	-9.67927
map	-9.67999
big	-9.68092
politician	-9.68189
ワ	-9.68217
ポ	-9.68323
lan	-9.68395
神社	-9.684
written	-9.68419
×	-9.68429
ven	-9.68491
いた	-9.68492
did	-9.68529
ford	-9.68729
90	-9.6879
}	-9.6888
festival	-9.68985
シー	-9.69117
light	-9.69139
#	-9.69161
par	-9.69385
1986	-9.69391
ns	-9.69441
centre	-9.69512
58	-9.69522
brown	-9.69586
sc	-9.69602
guide	-9.69619
ギ	-9.69633
グループ	-9.6972
br	-9.69768
心	-9.69794
gr	-9.70001
良	-9.70114
sea	-9.7015
same	-9.70208
公園	-9.70268
har	-9.70344
む	-9.70424
pop	-9.70469
tt	-9.70478
own	-9.70539
race	-9.7057
genus	-9.70601
peter	-9.70608
box	-9.70663
teams	-9.70725
chart	-9.70774
トン	-9.70825
sun	-9.70848
guitar	-9.70872
six	-9.70977
ts	-9.70994
full	-9.71029
joined	-9.71046
arts	-9.71161
森	-9.7118
入	-9.71183
cor	-9.71237
ity	-9.71249
cs	-9.7127
(1	-9.7136
within	-9.71562
lu	-9.71564
3,	-9.71605
sam	-9.7161
point	-9.71627
wayback	-9.71661
currently	-9.71722
display	-9.71812
52	-9.71823
pur	-9.71839
bridge	-9.71953
記	-9.72258
dal	-9.7227
sp	-9.72303
人の	-9.72365
とする	-9.72412
定	-9.72426
80	-9.72428
ship	-9.72542
kg	-9.72578
字	-9.72595
500	-9.72643
pre	-9.72673
主	-9.72737
hu	-9.72793
日本語	-9.72893
校	-9.72942
é	-9.7297
1984	-9.73323
natural	-9.73612
less	-9.73772
sport	-9.73786
richard	-9.73811
established	-9.73988
ng	-9.74039
sky	-9.74148
ラジオ	-9.74267
各	-9.74449
bank	-9.74514
全国	-9.74535
municipality	-9.74657
丸	-9.74684
blue	-9.7492
総合	-9.74935
kar	-9.7495
ville	-9.75001
large	-9.75039
歳	-9.75071
minister	-9.75097
1985	-9.751
御	-9.75113
四	-9.7513
washington	-9.75141
57	-9.75189
施設	-9.75306
地方	-9.75314
act	-9.75388
cap	-9.75421
col	-9.75525
still	-9.75654
dead	-9.75775
rs	-9.75858
produced	-9.76043
medal	-9.76107
士	-9.7615
what	-9.76154
ros	-9.7617
道路	-9.76175
tournament	-9.76203
千	-9.76217
tri	-9.76219
worked	-9.76236
bill	-9.76282
戸	-9.763
ant	-9.76639
もの	-9.76669
language	-9.76704
berg	-9.76759
another	-9.76831
right	-9.76915
edition	-9.77079
cha	-9.77154
ir	-9.77234
所属	-9.77293
多	-9.77294
2008.	-9.7733
」「	-9.77337
footballer	-9.77382
ソン	-9.77448
実	-9.77514
クラブ	-9.77542
bbc	-9.77589
songs	-9.7763
fire	-9.7768
saint	-9.77836
ski	-9.77849
リン	-9.77857
germany	-9.7792
martin	-9.78013
不	-9.78056
present	-9.78378
保	-9.78516
ニー	-9.78521
real	-9.78776
徳	-9.78832
ヴィ	-9.78847
night	-9.78979
1950	-9.79197
ment	-9.79217
started	-9.79381
ted	-9.79401
こう	-9.79444
sir	-9.79542
historical	-9.79637
高校	-9.79812
59	-9.79852
mid	-9.79868
release	-9.79872
match	-9.79911
太郎	-9.79928
good	-9.79948
マー	-9.79953
ドイツ	-9.80008
included	-9.80065
ピ	-9.80139
51	-9.80174
があり	-9.80289
take	-9.80312
になる	-9.80409
route	-9.80417
、『	-9.80431
豊	-9.80452
little	-9.80541
playing	-9.80605
大正	-9.80647
vocals	-9.80672
土	-9.80745
または	-9.80865
eastern	-9.80898
色	-9.80949
1983	-9.81069
4,	-9.81162
1972	-9.81236
report	-9.81766
zealand	-9.81783
丁目	-9.81837
訳	-9.81887
ray	-9.82169
陽	-9.82174
survey	-9.82351
recorded	-9.82464
tur	-9.82514
ない	-9.8253
幸	-9.82608
司	-9.82648
会社	-9.82674
biography	-9.82707
ran	-9.82779
章	-9.8284
スポーツ	-9.82853
design	-9.8309
political	-9.83092
ling	-9.83174
70	-9.8318
利	-9.83303
program	-9.83544
committee	-9.83626
京都	-9.83636
忠	-9.83688
隊	-9.83696
エル	-9.83706
again	-9.83724
mac	-9.8392
1982	-9.84135
路	-9.84156
制	-9.84236
スター	-9.84245
れ	-9.84342
彦	-9.84435
崎	-9.84579
daily	-9.8465
network	-9.84761
条	-9.84768
座	-9.8482
[1]	-9.84871
sur	-9.84898
空	-9.84915
mor	-9.84962
ニュース	-9.85153
plant	-9.85173
とともに	-9.85187
黒	-9.85199
永	-9.85215
ッ	-9.85306
1955	-9.85467
according	-9.85491
cross	-9.8557
発	-9.85601
赤	-9.85733
mp	-9.85769
合	-9.8581
※	-9.8591
square	-9.86013
chief	-9.86023
社会	-9.86026
artist	-9.86038
township	-9.86135
val	-9.86137
paris	-9.86421
hockey	-9.86674
岡	-9.86784
mont	-9.86876
cr	-9.8689
dvd	-9.86974
low	-9.87041
basketball	-9.87102
試合	-9.87137
組	-9.87143
level	-9.87195
archive	-9.87207
sk	-9.87305
開発	-9.87307
伝	-9.87345
pl	-9.87346
からの	-9.87427
つの	-9.87497
accessed	-9.87585
social	-9.87593
ペ	-9.87891
production	-9.87911
現在は	-9.87962
went	-9.87973
ホ	-9.88011
lost	-9.88013
modern	-9.88104
henry	-9.88234
get	-9.88243
1966	-9.88328
cl	-9.88338
appointed	-9.88437
pan	-9.88494
ul	-9.88634
ram	-9.88669
都市	-9.88674
1971	-9.88801
ナー	-9.88812
texas	-9.88848
listed	-9.88866
bio	-9.88909
services	-9.88917
space	-9.88954
円	-9.89165
ある	-9.89175
北緯	-9.89185
professor	-9.89198
miles	-9.89259
ぶ	-9.89284
cu	-9.89292
military	-9.89323
africa	-9.89363
1981	-9.89376
1977	-9.89394
佐	-9.89457
港	-9.89465
(16	-9.89475
event	-9.89567
1979	-9.89715
our	-9.89748
parliament	-9.89781
how	-9.89804
bl	-9.89826
help	-9.89888
han	-9.90092
roman	-9.90398
鎮	-9.90414
管理	-9.90498
坂	-9.90537
師	-9.90579
yo	-9.90604
六	-9.90657
human	-9.9068
described	-9.90689
よ	-9.9072
competition	-9.90831
ジャ	-9.90867
ken	-9.90951
next	-9.90959
assembly	-9.9097
olympic	-9.91248
billboard	-9.9133
ベ	-9.91361
bass	-9.91471
経済	-9.91528
夏	-9.91535
両	-9.91558
気	-9.91574
1956	-9.91699
に関する	-9.91712
bell	-9.91724
ag	-9.91771
publishing	-9.9183
業	-9.91863
commission	-9.91896
directed	-9.92093
mann	-9.92166
1959	-9.92215
米	-9.92274
波	-9.92293
を経て	-9.92339
rat	-9.92392
藤	-9.92706
inter	-9.92722
cat	-9.92739
nc	-9.92756
総	-9.92768
ば	-9.9281
dam	-9.92826
volume	-9.92859
these	-9.92869
当時	-9.92877
制作	-9.92934
ireland	-9.92982
開	-9.92992
ベル	-9.92998
来	-9.93057
among	-9.93082
players	-9.93094
葉	-9.93108
表	-9.93132
(2015	-9.9318
cal	-9.93211
ism	-9.93216
ob	-9.93229
1954	-9.93235
隆	-9.93306
tom	-9.93321
master	-9.93417
usa	-9.93439
mr	-9.93462
わ	-9.93468
ab	-9.9353
°	-9.93546
stone	-9.93596
1976	-9.93667
period	-9.93697
author	-9.93772
tim	-9.93786
type	-9.93811
弘	-9.93819
5,	-9.93838
(2017	-9.93877
民	-9.94001
source	-9.94024
シャ	-9.9403
1948	-9.94054
教授	-9.94061
rugby	-9.94115
技術	-9.94135
ぎ	-9.94154
inc	-9.94171
role	-9.94234
04	-9.94244
都	-9.94258
because	-9.94299
09	-9.94359
聖	-9.94374
守	-9.9446
various	-9.94545
$	-9.9456
wife	-9.9465
kan	-9.94664
病院	-9.94694
1978	-9.94703
airport	-9.94745
を持つ	-9.94809
bu	-9.94821
dar	-9.94901
wi	-9.9491
tel	-9.94927
iii	-9.95003
stage	-9.95038
ren	-9.95128
計画	-9.95133
battle	-9.95158
2007.	-9.95209
樹	-9.95224
加	-9.95252
ban	-9.95295
today	-9.95399
1958	-9.95409
1974	-9.95525
oxford	-9.95594
mountain	-9.95631
studio	-9.95657
singer	-9.95808
shi	-9.95838
hot	-9.95842
七	-9.95851
signed	-9.95919
collection	-9.95979
created	-9.95999
カン	-9.96007
ご	-9.96069
independent	-9.96251
他	-9.96367
let	-9.96576
通り	-9.9665
mary	-9.96668
1968	-9.96698
current	-9.96868
vs	-9.96894
声	-9.96956
教	-9.97019
々	-9.97042
られた	-9.97064
catholic	-9.97066
ps	-9.97123
position	-9.9735
領	-9.974
plan	-9.97431
tor	-9.97431
given	-9.97464
(2	-9.97577
ゲ	-9.97659
62	-9.97683
civil	-9.97781
ker	-9.9781
ね	-9.97836
1962	-9.97867
アー	-9.97975
originally	-9.97995
marine	-9.98014
lead	-9.98045
force	-9.98087
cy	-9.98091
女性	-9.98095
システム	-9.98178
進	-9.98184
ファ	-9.982
novel	-9.9823
ck	-9.98278
河	-9.9833
related	-9.98403
copy	-9.98523
イギリス	-9.9853
男子	-9.98609
64	-9.98656
浦	-9.9868
1961	-9.98716
1947	-9.98738
63	-9.98775
dan	-9.98809
1975	-9.98894
兵	-9.99029
points	-9.99046
anti	-9.99047
movie	-9.99059
仁	-9.99121
当	-9.99135
daughter	-9.99309
と共に	-9.99356
dy	-9.99389
valley	-9.99395
av	-9.99399
ており	-9.99414
yu	-9.99502
インターネット	-9.99511
さらに	-9.99525
studies	-9.99598
食	-9.997
企業	-9.99789
1973	-9.99904
龍	-9.99964
っている	-9.99975
年まで	-10.0007
chicago	-10.0007
google	-10.0008
交通	-10.001
半	-10.0024
away	-10.0035
今	-10.0064
6,	-10.0065
zi	-10.0065
福	-10.007
ヴァ	-10.0082
連	-10.0084
カル	-10.0099
families	-10.0101
1952	-10.0101
regional	-10.0106
foundation	-10.0107
opened	-10.0107
christian	-10.0108
(2016	-10.0125
und	-10.0135
ジョン	-10.0146
温泉	-10.0148
writer	-10.015
関	-10.0162
capital	-10.0163
pmid	-10.0168
although	-10.0168
瀬	-10.017
派	-10.0171
days	-10.0173
wales	-10.0176
average	-10.018
together	-10.0186
父	-10.0189
tra	-10.0189
員	-10.0192
誌	-10.0193
gov	-10.0193
vo	-10.0209
polish	-10.0212
sal	-10.0222
1965	-10.0231
mus	-10.0232
different	-10.0236
年間	-10.0245
europe	-10.0246
香	-10.0246
根	-10.025
すると	-10.0251
african	-10.0259
サービス	-10.0259
conference	-10.026
になった	-10.0266
(15	-10.0267
ビル	-10.0267
von	-10.0269
2)	-10.0269
senior	-10.027
的に	-10.0277
joseph	-10.0286
タイ	-10.0296
(2009	-10.0306
03	-10.0307
kingdom	-10.0311
対	-10.0322
(2012	-10.0323
東経	-10.0333
ball	-10.0334
東京都	-10.0338
pol	-10.0339
月号	-10.0339
泉	-10.034
.[	-10.0348
07	-10.0356
開始	-10.0361
秀	-10.0361
シーズン	-10.0365
火	-10.0371
io	-10.0372
1920	-10.038
seven	-10.0384
湖	-10.0392
経	-10.0393
sha	-10.0393
紀	-10.0401
ard	-10.0401
け	-10.0411
living	-10.0422
玉	-10.0422
75	-10.0431
coast	-10.0431
dictionary	-10.0432
レン	-10.0435
(2014	-10.0439
iz	-10.0446
としては	-10.0447
1969	-10.0449
(2018	-10.0449
qui	-10.0463
front	-10.0477
hit	-10.0477
bor	-10.0478
louis	-10.0478
million	-10.0488
half	-10.0492
brother	-10.0493
popular	-10.0496
アイ	-10.05
草	-10.0507
federal	-10.0508
those	-10.051
バンド	-10.0513
irish	-10.0517
ず	-10.0528
02	-10.0536
bus	-10.0545
nt	-10.0549
que	-10.0552
日から	-10.0552
だが	-10.0552
権	-10.0561
1930	-10.0562
{	-10.0569
400	-10.0571
text	-10.0572
twitter	-10.0573
ak	-10.0576
著	-10.0577
term	-10.0579
事件	-10.0582
新聞	-10.0586
生まれ	-10.0587
para	-10.059
common	-10.0591
actor	-10.0591
lies	-10.0596
rural	-10.0596
富	-10.0596
自	-10.062
基	-10.0623
親	-10.0631
(2013	-10.0632
設立	-10.0633
のため	-10.0636
date	-10.0645
1949	-10.0647
virginia	-10.065
レイ	-10.065
returned	-10.066
tbs	-10.0667
ドラマ	-10.0668
ring	-10.0669
1963	-10.0673
1941	-10.0686
bishop	-10.0691
データベース	-10.0696
党	-10.0698
heart	-10.0701
オー	-10.0706
ダー	-10.0713
1964	-10.0719
ana	-10.0729
1951	-10.073
300	-10.0731
生活	-10.0737
films	-10.0737
key	-10.0741
せ	-10.0754
mother	-10.0754
現代	-10.0757
担当	-10.0764
組織	-10.0768
singles	-10.0776
camp	-10.078
アメリカ合衆国	-10.0795
students	-10.0797
7,	-10.0816
1940	-10.0818
リア	-10.082
events	-10.0821
ホーム	-10.0822
1945	-10.0834
(2011	-10.0834
に伴い	-10.0838
len	-10.084
ムービー	-10.0848
theatre	-10.085
health	-10.086
junior	-10.087
body	-10.0877
mexico	-10.0883
islamic	-10.0883
しており	-10.0893
could	-10.0894
羽	-10.0895
working	-10.0895
(2010	-10.0895
品	-10.0901
建設	-10.0904
middle	-10.0909
stadium	-10.0909
pen	-10.0916
having	-10.0918
ov	-10.0923
ほか	-10.0928
第一	-10.0932
bal	-10.0934
図	-10.0945
販売	-10.0946
88	-10.0953
make	-10.0954
できる	-10.0955
tar	-10.0956
finished	-10.0959
your	-10.0973
fl	-10.0994
97	-10.1004
研究所	-10.1005
相	-10.1007
06	-10.1009
congress	-10.1013
gal	-10.1016
01	-10.1024
電	-10.1026
ric	-10.103
蔵	-10.103
母	-10.1042
includes	-10.1042
を行う	-10.1043
名古屋	-10.105
1957	-10.1059
ali	-10.1072
問題	-10.1074
銀行	-10.1087
ous	-10.109
08	-10.1093
ランド	-10.1097
appeared	-10.1098
bra	-10.1107
schools	-10.1111
making	-10.1113
05	-10.1114
画	-10.1119
理	-10.1121
デビュー	-10.1124
came	-10.1124
康	-10.1127
主に	-10.1127
8,	-10.1139
с	-10.1145
plays	-10.1146
sound	-10.1148
現在	-10.1167
1936	-10.1168
view	-10.1173
池	-10.1173
formed	-10.1174
課	-10.1178
企画	-10.1179
ary	-10.1195
bureau	-10.1198
management	-10.12
dance	-10.1203
類	-10.1206
89	-10.1207
hard	-10.1207
発売	-10.121
孝	-10.1217
特に	-10.1218
1889	-10.1225
dutch	-10.1227
文庫	-10.123
藩	-10.1232
tracks	-10.1233
85	-10.1235
シン	-10.1239
委員会	-10.1242
competed	-10.1243
群	-10.1258
mon	-10.1267
ap	-10.128
出演	-10.1282
greek	-10.1287
(4	-10.1292
モデル	-10.1297
関係	-10.1297
frank	-10.1303
%	-10.1307
00	-10.1326
フィ	-10.1332
ット	-10.1332
mad	-10.1343
ann	-10.1344
浜	-10.1345
在	-10.1347
団	-10.1348
製作	-10.135
navy	-10.1352
global	-10.1353
越	-10.1355
poland	-10.1367
ページ	-10.1379
98	-10.138
)3	-10.1385
愛知県	-10.1393
華	-10.1399
先	-10.1399
complete	-10.1401
(2007	-10.1425
culture	-10.1434
highway	-10.1434
elections	-10.1435
1967	-10.1448
fer	-10.1448
using	-10.1451
encyclopedia	-10.1451
technology	-10.1452
eight	-10.1452
jean	-10.1453
職	-10.1458
cast	-10.1462
feature	-10.1464
チャ	-10.1467
ā	-10.1468
日の	-10.147
ヘ	-10.1473
prize	-10.1473
京	-10.1478
allmusic	-10.1481
環境	-10.1491
多くの	-10.1495
boy	-10.1501
gun	-10.1503
元年	-10.1505
met	-10.1506
興	-10.1512
unit	-10.1512
week	-10.1513
の一部	-10.1528
ó	-10.153
awarded	-10.153
産業	-10.1541
されていた	-10.1542
cambridge	-10.1549
ヌ	-10.155
特別	-10.1553
1944	-10.156
95	-10.1572
much	-10.1576
wall	-10.1583
ward	-10.1584
器	-10.1602
ど	-10.1611
イタリア	-10.1615
often	-10.1619
rich	-10.162
戦争	-10.1637
鉄	-10.1639
gan	-10.1641
エン	-10.1646
mat	-10.1647
producer	-10.1652
副	-10.1656
bc	-10.166
cho	-10.1663
put	-10.167
(3	-10.1672
工場	-10.1677
属	-10.168
construction	-10.1681
歴史	-10.1682
9,	-10.1683
1953	-10.1692
control	-10.1694
青	-10.1694
選手権	-10.1695
後の	-10.1698
bel	-10.1706
68	-10.1711
学会	-10.1712
兼	-10.1715
section	-10.1719
parish	-10.1726
出身の	-10.1731
channel	-10.1739
hospital	-10.1744
っ	-10.1744
タン	-10.1755
cc	-10.1756
楽	-10.1759
tic	-10.1761
(2008	-10.1762
medical	-10.1767
ネット	-10.1773
zo	-10.1774
fifa	-10.1777
geographic	-10.1783
例	-10.1793
champion	-10.1806
78	-10.1808
governor	-10.1808
身	-10.1825
matches	-10.1827
wing	-10.1828
norwegian	-10.1832
model	-10.185
学園	-10.1876
足	-10.1881
び	-10.1884
99	-10.1889
18,	-10.1895
features	-10.1898
省	-10.19
ロシア	-10.1901
を参照	-10.1903
ゼ	-10.1904
retired	-10.1907
伊	-10.191
ロン	-10.1915
become	-10.1916
kilometres	-10.1919
ビー	-10.192
castle	-10.1922
hr	-10.1923
61	-10.1928
winter	-10.1936
1918	-10.1939
mil	-10.1942
considered	-10.1949
ground	-10.1955
hop	-10.1956
code	-10.1958
工業	-10.1958
asia	-10.1977
スーパー	-10.1982
調	-10.1991
italy	-10.2003
fort	-10.2014
edward	-10.2016
ハイ	-10.2021
daniel	-10.2021
pal	-10.2026
記録	-10.2029
pu	-10.2032
bs	-10.2033
九州	-10.2056
達	-10.2061
】	-10.2067
silver	-10.2071
86	-10.2075
昌	-10.2083
夜	-10.2084
命	-10.2086
パン	-10.2089
したが	-10.2094
ファン	-10.2109
栄	-10.211
support	-10.2114
付	-10.2117
ベスト	-10.2121
左	-10.214
ライブ	-10.2142
angeles	-10.2144
物語	-10.2147
俊	-10.2151
jack	-10.2151
ser	-10.2158
native	-10.2159
出場	-10.2161
智	-10.2162
tz	-10.2169
length	-10.2171
建築	-10.2171
バン	-10.2174
84	-10.2176
mel	-10.2185
ut	-10.2189
wrote	-10.219
よう	-10.2193
せん	-10.2197
24,	-10.2204
cur	-10.2206
87	-10.2216
rt	-10.2219
index	-10.2222
digital	-10.2226
ness	-10.2227
73	-10.2228
美術	-10.223
74	-10.223
博	-10.2235
girl	-10.2238
とされる	-10.224
友	-10.225
ster	-10.2256
んだ	-10.226
mit	-10.2263
woman	-10.2266
í	-10.2271
staff	-10.2275
運動	-10.2277
これは	-10.2283
メンバー	-10.2285
文学	-10.2286
量	-10.2287
charts	-10.229
中村	-10.2292
stars	-10.2294
1924	-10.2297
1939	-10.2297
annual	-10.2297
横	-10.231
opening	-10.2318
鈴木	-10.2323
announced	-10.2325
room	-10.2344
sold	-10.2346
once	-10.2359
organization	-10.2361
倉	-10.2361
第二	-10.2361
private	-10.2368
owned	-10.237
宝	-10.2371
base	-10.2374
few	-10.2377
マル	-10.2378
degree	-10.239
一般	-10.2391
ジュ	-10.2398
tal	-10.24
*	-10.2403
77	-10.2404
を務めた	-10.2414
fu	-10.2424
自動車	-10.2426
florida	-10.2443
represented	-10.2445
たい	-10.2447
racing	-10.245
police	-10.2463
designed	-10.2464
swedish	-10.247
ことから	-10.247
産	-10.2471
)”.	-10.2471
miss	-10.2476
og	-10.2478
〈	-10.248
sta	-10.2487
と呼ばれる	-10.2495
youth	-10.2497
winning	-10.2501
editor	-10.2501
range	-10.2501
metres	-10.2508
15,	-10.2509
脚本	-10.251
角	-10.2517
р	-10.252
nu	-10.2524
fourth	-10.2527
qu	-10.2529
96	-10.2532
17,	-10.2538
ari	-10.2554
available	-10.2562
scott	-10.2563
ltd	-10.2571
―	-10.2576
交差点	-10.2588
園	-10.2588
祭	-10.2595
lord	-10.2598
)」	-10.261
サー	-10.2616
bad	-10.2617
approximately	-10.2619
goal	-10.2621
character	-10.2622
工	-10.2626
1942	-10.2628
節	-10.264
without	-10.2643
never	-10.2646
14,	-10.2647
past	-10.2648
一郎	-10.2649
1938	-10.266
に位置する	-10.2661
officer	-10.2665
rio	-10.2667
収録	-10.2669
forest	-10.2671
said	-10.2677
ms	-10.2682
ky	-10.2686
16,	-10.2689
93	-10.2691
seat	-10.2694
1943	-10.2696
study	-10.2698
soccer	-10.2699
76	-10.2716
1937	-10.2717
モン	-10.2724
デザイン	-10.2727
var	-10.2733
ria	-10.2734
ふ	-10.2739
撮影	-10.2741
66	-10.2743
翌	-10.2746
団体	-10.2754
1932	-10.2755
premier	-10.2761
アニメ	-10.2761
1935	-10.2765
右	-10.2769
978-4	-10.2777
街	-10.2779
1928	-10.2779
部門	-10.278
人物	-10.2785
にあった	-10.2787
政治	-10.2791
也	-10.2795
ok	-10.2796
サッカー	-10.2803
竹	-10.2806
training	-10.2806
階	-10.2807
las	-10.2808
cut	-10.281
1946	-10.2811
建	-10.2824
そして	-10.2826
庁	-10.2831
1934	-10.2835
hand	-10.2838
carolina	-10.2838
ジェ	-10.2847
洋	-10.2851
prince	-10.2851
オブ	-10.2853
scotland	-10.2854
13,	-10.2858
リング	-10.2862
1925	-10.2865
航空	-10.2878
周	-10.2879
他の	-10.2883
market	-10.2892
たち	-10.2892
sol	-10.2895
編集	-10.2898
corporation	-10.29
res	-10.2903
桜	-10.2906
パー	-10.2906
廃止	-10.2908
、2	-10.2914
label	-10.2919
active	-10.292
やま	-10.292
xi	-10.2922
絵	-10.2934
調査	-10.2942
カップ	-10.2945
978	-10.2949
youtube	-10.295
kh	-10.2958
科学	-10.296
2006.	-10.2964
sar	-10.2966
standard	-10.2971
queen	-10.2979
時代	-10.2986
秋	-10.2987
卒業	-10.2989
熱	-10.2989
2001.	-10.2994
buildings	-10.2997
経営	-10.2999
コー	-10.3003
creek	-10.3006
記念	-10.3009
名は	-10.301
heritage	-10.3011
のうち	-10.3016
69	-10.3018
result	-10.3029
ff	-10.303
それ	-10.3032
mill	-10.3033
call	-10.3034
1933	-10.3037
あり	-10.3041
当時の	-10.3043
geological	-10.3043
夢	-10.3045
未	-10.3053
tan	-10.3056
kal	-10.3061
contract	-10.3066
wild	-10.3066
entry	-10.3068
82	-10.307
child	-10.3076
islands	-10.3082
21,	-10.3086
初代	-10.3087
ホール	-10.31
貴	-10.31
manager	-10.3106
郵便局	-10.3107
☆	-10.3107
19,	-10.3108
dor	-10.3108
female	-10.3113
administrative	-10.3116
恵	-10.3118
12,	-10.312
毛	-10.3121
72	-10.3123
質	-10.3127
aircraft	-10.3136
fo	-10.3138
industry	-10.3143
サイト	-10.3148
仏	-10.3151
バル	-10.3158
十	-10.316
マイ	-10.3161
hal	-10.3165
150	-10.317
雪	-10.3175
に対して	-10.3183
百	-10.3185
雲	-10.3188
drama	-10.3188
写真	-10.3192
god	-10.3197
街道	-10.3197
ルー	-10.3202
permanent	-10.3203
作家	-10.3203
超	-10.3212
lower	-10.3213
secretary	-10.3215
満	-10.3224
修	-10.3225
生産	-10.3234
1929	-10.3246
28,	-10.3247
奥	-10.3252
フェ	-10.3258
1931	-10.326
scottish	-10.3263
internet	-10.3264
idae	-10.327
ik	-10.3276
の一つ	-10.3282
jones	-10.329
minor	-10.3296
ブル	-10.3305
pacific	-10.3307
federation	-10.3314
kin	-10.3315
弾	-10.3319
られる	-10.332
sel	-10.3325
и	-10.3329
そう	-10.3337
jazz	-10.3337
1927	-10.3341
sign	-10.3341
similar	-10.3342
engineering	-10.3346
leader	-10.3348
79	-10.3351
fish	-10.3351
ating	-10.337
berlin	-10.3377
temple	-10.3377
11,	-10.3379
featured	-10.338
close	-10.3383
ひ	-10.3388
25,	-10.3391
渡	-10.3395
公式	-10.3395
号線	-10.3397
92	-10.3397
pc	-10.3405
横浜	-10.3406
gor	-10.3407
interview	-10.3411
澤	-10.3413
episode	-10.3413
goals	-10.3414
в	-10.3415
10,	-10.3416
bas	-10.3424
23,	-10.3426
再	-10.3427
ohio	-10.3435
製	-10.3437
近	-10.3437
−	-10.344
かつて	-10.3441
statistical	-10.3453
コース	-10.3454
データ	-10.3458
1914	-10.3463
広島	-10.3465
(2006	-10.3466
アジア	-10.3477
反	-10.3478
27,	-10.3478
鳥	-10.3482
81	-10.3486
1922	-10.3487
areas	-10.3489
ash	-10.3499
performed	-10.3502
喜	-10.3505
ガン	-10.3507
attended	-10.3512
winner	-10.3517
actress	-10.3517
佐藤	-10.3519
victoria	-10.3531
surname	-10.3543
jun	-10.3543
場所	-10.3544
nature	-10.3544
winners	-10.3548
ministry	-10.3549
塩	-10.3558
ただし	-10.3559
rail	-10.3559
1900	-10.356
終点	-10.356
cher	-10.3567
とした	-10.3568
ライ	-10.3575
国立	-10.3578
22,	-10.358
ーン	-10.3581
妻	-10.3581
神戸	-10.3585
mix	-10.3593
pennsylvania	-10.3593
ユ	-10.3599
源	-10.3626
終了	-10.3627
info	-10.3628
š	-10.3632
scored	-10.3634
ろ	-10.3636
20,	-10.3637
limited	-10.3646
dj	-10.3651
区間	-10.3655
trans	-10.3661
phil	-10.3664
largest	-10.3677
郎	-10.3678
captain	-10.368
1919	-10.3686
機関	-10.37
primary	-10.37
maint	-10.3706
executive	-10.371
通信	-10.3714
介	-10.3718
performance	-10.3721
jim	-10.3721
路線	-10.3723
trade	-10.3737
商	-10.3738
紙	-10.3742
1923	-10.3747
tokyo	-10.3748
000	-10.3752
埼玉県	-10.3758
【	-10.3759
レース	-10.3763
status	-10.3764
83	-10.3765
ized	-10.3777
トゥ	-10.3778
disambiguation	-10.3779
造	-10.3781
昭	-10.3791
nic	-10.3796
asian	-10.3804
1926	-10.3812
事務所	-10.3816
completed	-10.3818
市の	-10.3819
海軍	-10.3826
ん	-10.3829
got	-10.3832
初の	-10.3836
ヴェ	-10.3842
à	-10.3853
死	-10.3859
ハン	-10.3861
そ	-10.3862
選	-10.3862
日まで	-10.3867
ガー	-10.3871
67	-10.3874
albums	-10.3875
書房	-10.3881
drums	-10.3882
内の	-10.3888
空港	-10.389
26,	-10.3894
韓国	-10.3901
ot	-10.3902
train	-10.3904
foot	-10.3906
yl	-10.391
ney	-10.3912
ジー	-10.3913
oh	-10.3919
景	-10.3923
find	-10.3926
cover	-10.3931
800	-10.3935
mass	-10.3944
studied	-10.3954
<	-10.3957
1912	-10.3958
fan	-10.3959
mount	-10.3978
ella	-10.3979
food	-10.3983
pat	-10.3985
fall	-10.3985
developed	-10.3987
cam	-10.3992
af	-10.3994
常	-10.3994
nov	-10.3996
structure	-10.4018
russia	-10.4021
末	-10.4023
かん	-10.4029
レー	-10.4032
musical	-10.4033
)10	-10.4039
開催	-10.4042
rod	-10.4044
hong	-10.4058
レス	-10.4071
ダム	-10.4076
!!	-10.4079
善	-10.4082
portuguese	-10.4085
結果	-10.4087
病	-10.409
latin	-10.4093
anna	-10.4093
政府	-10.4095
30,	-10.4099
発行	-10.41
mayor	-10.4102
については	-10.4104
比	-10.4107
pra	-10.4111
動	-10.4112
田中	-10.4115
cricket	-10.4116
国家	-10.4119
location	-10.4119
hp	-10.4119
エンジン	-10.4126
action	-10.4129
71	-10.413
向	-10.4131
addition	-10.4131
ica	-10.4132
foreign	-10.4133
important	-10.4142
盤	-10.4144
山田	-10.4144
もある	-10.4144
upon	-10.4161
pass	-10.4167
runs	-10.417
ジャパン	-10.4173
por	-10.4179
薬	-10.4179
茂	-10.4181
日発売	-10.4181
ホテル	-10.4185
支店	-10.4191
ダン	-10.42
一部	-10.4204
zu	-10.4221
(2005	-10.4222
table	-10.4223
ブラ	-10.4228
警察	-10.4229
任	-10.4234
assistant	-10.4241
オン	-10.4249
rest	-10.4251
指定	-10.4254
構造	-10.4257
スタ	-10.4264
1921	-10.4265
説	-10.4265
systems	-10.4268
個人	-10.4269
istat	-10.427
sciences	-10.4271
ful	-10.4271
ロック	-10.4273
contains	-10.4273
慶	-10.4277
小説	-10.4281
notable	-10.4284
トリ	-10.4292
劇場	-10.4295
奈	-10.4296
williams	-10.4298
leading	-10.4299
stock	-10.4301
card	-10.4311
板	-10.4311
host	-10.4313
alexander	-10.4314
これ	-10.4315
柳	-10.4319
ザー	-10.4322
ron	-10.4322
ワン	-10.433
1908	-10.4337
どう	-10.4341
ou	-10.4343
1910	-10.4344
テン	-10.4346
順	-10.4346
の娘	-10.4348
dark	-10.4349
lang	-10.4351
wind	-10.4358
助	-10.4359
ほど	-10.436
columbia	-10.4362
ギター	-10.4364
側	-10.4365
オリンピック	-10.4366
max	-10.4371
アメリカの	-10.4371
のために	-10.4373
営業	-10.4378
があった	-10.4378
府	-10.4381
domain	-10.4382
illinois	-10.4382
gon	-10.4383
boston	-10.4386
earth	-10.4387
further	-10.4389
details	-10.4389
られ	-10.4395
94	-10.4395
1917	-10.4397
俳優	-10.4403
起点	-10.4405
michigan	-10.4407
チェ	-10.4413
を受け	-10.4414
row	-10.4414
maria	-10.4415
continued	-10.4417
santa	-10.4418
stra	-10.442
bob	-10.4423
beat	-10.4425
commercial	-10.4428
会議	-10.4432
しょう	-10.4437
キー	-10.4438
むら	-10.4441
登録	-10.4444
女優	-10.4447
kim	-10.4448
泰	-10.445
vin	-10.4452
走	-10.4452
multi	-10.4457
voice	-10.4459
iucn	-10.4463
要	-10.4468
方面	-10.4471
artists	-10.4472
ヴ	-10.4472
future	-10.4474
ール	-10.4477
pt	-10.448
報	-10.4482
1915	-10.4483
above	-10.4486
across	-10.449
territorial	-10.4491
。「	-10.4492
micro	-10.4494
好	-10.4498
同じ	-10.4499
cultural	-10.45
serving	-10.4501
開業	-10.4501
異	-10.4509
艦	-10.4509
az	-10.451
いる	-10.4511
段	-10.4513
91	-10.4519
spring	-10.453
taken	-10.4532
beach	-10.4532
chris	-10.4536
previously	-10.4542
ライン	-10.4543
29,	-10.4544
南部	-10.4546
町立	-10.4547
om	-10.455
famous	-10.4557
雅	-10.4562
深	-10.4565
girls	-10.4566
piano	-10.4571
族	-10.4574
球	-10.4576
shin	-10.4579
かい	-10.458
連盟	-10.4582
世紀	-10.4583
イタリア語	-10.4586
ヨーロッパ	-10.4588
ung	-10.4591
nik	-10.4593
persian	-10.4598
ach	-10.4603
プロデューサー	-10.4605
lady	-10.461
家の	-10.4613
ック	-10.4616
なし	-10.4616
urban	-10.4617
ニュー	-10.4622
nz	-10.4623
吉田	-10.4625
パリ	-10.4627
歌手	-10.4629
だけ	-10.4642
1000	-10.4642
hol	-10.4643
burg	-10.4647
感	-10.4662
人間	-10.4662
selected	-10.4668
bon	-10.4669
med	-10.4669
矢	-10.4669
ill	-10.4671
trust	-10.4672
敗	-10.4674
size	-10.4676
opera	-10.4685
others	-10.4686
姫	-10.4687
ちゃん	-10.4688
講談社	-10.4688
tennis	-10.4694
酒	-10.4698
紹介	-10.47
能	-10.4705
だい	-10.4707
を含む	-10.4711
契約	-10.4714
branch	-10.4715
double	-10.4727
nation	-10.4728
工事	-10.4736
wide	-10.4743
以降	-10.4748
án	-10.4749
列車	-10.475
georgia	-10.4751
vic	-10.4755
return	-10.4757
竜	-10.476
しん	-10.4762
access	-10.4767
kat	-10.4768
mari	-10.4768
福岡	-10.4784
ミュージック	-10.4788
人口	-10.4789
の一覧	-10.4789
雑誌	-10.4792
gg	-10.48
word	-10.4801
spain	-10.4805
映像	-10.4806
champions	-10.4809
イベント	-10.481
express	-10.482
社長	-10.482
bol	-10.4821
デン	-10.4826
設置	-10.4831
ドゥ	-10.4831
.).	-10.4833
nor	-10.484
健	-10.484
ハー	-10.4841
speed	-10.4843
山口	-10.4845
ier	-10.4846
arch	-10.4854
フリー	-10.4854
ara	-10.4858
座標	-10.486
独立	-10.4862
湯	-10.4865
関東	-10.4866
writing	-10.4867
居	-10.487
フジテレビ	-10.4872
metal	-10.4874
sy	-10.4874
等の	-10.4878
1906	-10.488
ながら	-10.4886
張	-10.4891
輪	-10.4893
php	-10.4895
公演	-10.4897
1911	-10.4897
advanced	-10.4904
mb	-10.4905
非	-10.4906
oil	-10.4913
ting	-10.4914
公開	-10.4918
bur	-10.4918
archives	-10.4919
李	-10.4921
学生	-10.4931
帝	-10.4937
5%	-10.4945
justice	-10.4947
観光	-10.4958
2010,	-10.4959
tower	-10.4964
頼	-10.4979
gl	-10.4983
オリジナル	-10.4986
資料	-10.4987
いて	-10.499
アメリカ合衆国の	-10.4994
upper	-10.4997
少年	-10.4997
遊	-10.4998
dream	-10.5001
(17	-10.5002
stan	-10.5003
スペイン	-10.5007
shows	-10.501
sex	-10.501
中の	-10.501
貞	-10.5012
mur	-10.5013
裕	-10.5015
test	-10.5019
演出	-10.5019
1913	-10.5022
江戸	-10.5024
garden	-10.5025
機能	-10.5026
大阪府	-10.5027
せい	-10.5032
municipal	-10.506
ola	-10.506
若	-10.5066
宿	-10.5067
決定	-10.5073
帯	-10.5078
lot	-10.5081
mis	-10.5091
commons	-10.5092
nova	-10.5097
start	-10.5098
democratic	-10.5099
ぐ	-10.51
pet	-10.5109
諸	-10.5109
高橋	-10.511
支援	-10.5111
chairman	-10.5124
カード	-10.5125
学部	-10.5126
notes	-10.5127
self	-10.5132
feet	-10.5135
片	-10.5137
骨	-10.5137
transport	-10.5142
saw	-10.5145
francis	-10.5148
defeated	-10.5149
ium	-10.5151
代目	-10.5155
dom	-10.5155
増	-10.5158
2005.	-10.5161
sydney	-10.5163
entertainment	-10.5168
楽曲	-10.5178
にあたる	-10.5187
č	-10.5189
フル	-10.52
roll	-10.5204
steve	-10.5205
250	-10.5207
男性	-10.5207
教会	-10.5209
時に	-10.5212
though	-10.5221
ón	-10.5234
ヨ	-10.5242
ang	-10.5245
hat	-10.5245
1909	-10.5249
soviet	-10.5251
入り	-10.5254
mission	-10.5259
予定	-10.5261
cer	-10.5261
ira	-10.5263
跡	-10.5267
運営	-10.5268
試験	-10.5269
利用	-10.5271
杯	-10.5272
recording	-10.5272
computer	-10.5276
阿	-10.5279
graduated	-10.5287
業務	-10.5288
lor	-10.5293
農	-10.5296
naval	-10.5298
himself	-10.5298
』、	-10.53
kel	-10.5304
ura	-10.5307
すること	-10.5309
月から	-10.5309
ology	-10.5313
forces	-10.5315
600	-10.5316
清水	-10.5319
aria	-10.533
ドル	-10.5336
取	-10.5343
像	-10.5345
人が	-10.5345
simon	-10.5348
korean	-10.535
case	-10.5353
芸術	-10.5356
インド	-10.5357
整備	-10.536
mag	-10.5361
golden	-10.5362
120	-10.5367
moon	-10.5373
電子	-10.5376
設計	-10.5379
学科	-10.5379
格	-10.538
協力	-10.5382
君	-10.5386
kong	-10.5388
hotel	-10.5389
andrew	-10.5395
н	-10.5395
running	-10.5404
特	-10.5411
hy	-10.5418
ノー	-10.5418
log	-10.5422
below	-10.5422
1916	-10.5425
т	-10.5429
gallery	-10.5431
典	-10.5432
キン	-10.5434
placed	-10.5435
中に	-10.5439
出版社	-10.5443
学者	-10.5447
issue	-10.5451
beginning	-10.5452
漢	-10.5455
course	-10.5456
tus	-10.5457
学院	-10.5457
甲	-10.5457
newspaper	-10.546
face	-10.5467
campaign	-10.5468
resident	-10.547
ú	-10.5472
ontario	-10.5478
blog	-10.5487
銀	-10.549
九	-10.549
化学	-10.5492
kl	-10.5499
replaced	-10.55
、2007	-10.5502
以上	-10.5504
regular	-10.5507
言	-10.5508
traditional	-10.5509
seasons	-10.5513
ö	-10.5513
legislative	-10.5516
製造	-10.5517
added	-10.5519
lived	-10.552
関西	-10.5522
gra	-10.5524
首	-10.5524
発表	-10.5526
administration	-10.5527
ah	-10.5527
セル	-10.553
cz	-10.5535
血	-10.554
ツアー	-10.5541
rick	-10.5549
ユー	-10.555
stein	-10.5561
horn	-10.5561
自然	-10.5562
オープン	-10.5564
ships	-10.5567
状	-10.5572
コーナー	-10.5579
taylor	-10.5583
ソング	-10.5588
lam	-10.5589
2004.	-10.5597
ancient	-10.5597
とし	-10.5598
素	-10.56
録	-10.5603
α	-10.5603
toronto	-10.5607
雨	-10.5612
(8	-10.5615
完成	-10.562
専門	-10.562
優	-10.5622
agency	-10.5622
clark	-10.5623
寿	-10.5626
になっている	-10.5628
残	-10.5628
兵庫県	-10.5629
千葉県	-10.5633
魚	-10.5639
arthur	-10.5643
のための	-10.5645
ウィ	-10.5646
(10	-10.5647
prior	-10.5648
布	-10.5654
といった	-10.5656
速	-10.5657
ix	-10.5659
á	-10.566
gy	-10.5666
沼	-10.5668
photo	-10.5674
bro	-10.5675
植物	-10.5679
johnson	-10.5679
person	-10.5683
economic	-10.5685
堀	-10.5691
(@	-10.5692
format	-10.5695
thi	-10.5696
を中心に	-10.5701
霊	-10.5702
られている	-10.5705
博物館	-10.5707
タイトル	-10.5709
britain	-10.571
のは	-10.5711
味	-10.5713
nar	-10.5714
宇宙	-10.5715
moth	-10.5715
ジョ	-10.5722
mail	-10.5729
スタジオ	-10.5731
ごう	-10.5732
lit	-10.5733
ピアノ	-10.5735
に対する	-10.5736
hart	-10.5739
1903	-10.5744
便	-10.5745
(6	-10.5746
wins	-10.5749
されて	-10.5749
枠	-10.5751
nations	-10.5752
のある	-10.5753
小林	-10.5756
強	-10.5759
arm	-10.576
クラ	-10.5764
賀	-10.5765
年代	-10.5767
movement	-10.5778
sent	-10.578
memorial	-10.5782
(5	-10.5784
raj	-10.5786
ning	-10.5786
complex	-10.5788
boys	-10.5791
lock	-10.5793
lim	-10.5795
vers	-10.5797
オール	-10.5797
などを	-10.5798
からは	-10.5807
麻	-10.5814
boat	-10.5818
sri	-10.5819
の歴史	-10.5824
極	-10.5831
であったが	-10.5831
say	-10.5844
wo	-10.5851
orchestra	-10.5851
cell	-10.5861
duke	-10.5863
台湾	-10.5867
throughout	-10.5869
wilson	-10.587
-03	-10.5872
舞台	-10.588
、2008	-10.5881
yama	-10.5885
empire	-10.5891
ius	-10.5902
edge	-10.5905
差	-10.5906
nes	-10.5908
2008,	-10.5908
けん	-10.5914
ニア	-10.5917
0′′	-10.5917
(2003	-10.5919
管	-10.592
stories	-10.592
単	-10.5921
陸軍	-10.5926
farm	-10.5927
ping	-10.5929
ワールド	-10.593
娘	-10.5933
、2009	-10.5934
gh	-10.5934
年より	-10.5937
rom	-10.5937
行政	-10.5942
制度	-10.5944
の研究	-10.5945
(7	-10.5945
バイ	-10.5947
iron	-10.5949
auto	-10.5952
時代の	-10.5953
operated	-10.5953
bb	-10.5954
かわ	-10.596
liga	-10.5961
associated	-10.5963
合併	-10.5965
アナウンサー	-10.5967
draft	-10.5967
死去	-10.5979
leg	-10.5985
lia	-10.5985
会長	-10.5986
shot	-10.599
korea	-10.5992
遠	-10.5994
dia	-10.5994
plants	-10.5998
であるが	-10.5999
til	-10.5999
worth	-10.5999
料理	-10.6001
展	-10.6002
ds	-10.6004
draw	-10.6007
alan	-10.6012
disc	-10.6015
francisco	-10.6022
農業	-10.6023
っていた	-10.6024
tru	-10.6025
turn	-10.6028
rules	-10.6028
score	-10.6033
シティ	-10.6038
wisconsin	-10.6041
bert	-10.6045
2011,	-10.6057
на	-10.6057
ッツ	-10.6058
なる	-10.6062
rights	-10.6063
なかった	-10.607
1905	-10.6072
affairs	-10.6073
彼は	-10.6074
parts	-10.6075
literature	-10.6076
1901	-10.6078
firm	-10.608
stephen	-10.6082
mike	-10.6084
iso	-10.6087
警察署	-10.6088
lar	-10.6088
-11-	-10.6089
ks	-10.6091
soon	-10.6097
2009,	-10.6103
医療	-10.6103
キャ	-10.6106
1904	-10.611
ai	-10.6112
herald	-10.6113
ano	-10.6113
ston	-10.6115
解	-10.6116
zy	-10.6117
1897	-10.612
打	-10.6121
サイ	-10.6121
などで	-10.6122
gil	-10.6124
、2010	-10.6124
文字	-10.6125
詩	-10.6126
配	-10.6128
恋	-10.6139
2007,	-10.6143
1902	-10.6145
store	-10.6148
brand	-10.6148
mir	-10.6149
wan	-10.6151
nine	-10.6151
としての	-10.6152
国立統計研究所	-10.6158
dog	-10.6162
student	-10.6163
cens	-10.6164
おお	-10.6171
athletics	-10.6172
а	-10.6172
犬	-10.6174
ティー	-10.6178
観	-10.618
ris	-10.6185
remained	-10.6185
令	-10.6189
ゾ	-10.6189
security	-10.6189
アナ	-10.6192
nam	-10.6195
を行った	-10.6203
8%	-10.6204
ダイ	-10.6206
uefa	-10.6206
articles	-10.6207
catalog	-10.6208
嘉	-10.6212
burn	-10.6213
chu	-10.6216
(12	-10.6216
reached	-10.6221
製品	-10.6223
sister	-10.6224
クラス	-10.6225
藤原	-10.6226
massachusetts	-10.6226
へと	-10.6232
judge	-10.6232
closed	-10.625
bri	-10.6251
上の	-10.6253
prime	-10.6254
競技	-10.626
漫画	-10.6261
м	-10.6262
(2004	-10.6264
jersey	-10.6265
三郎	-10.6266
東北	-10.6272
cas	-10.6273
housing	-10.6274
shan	-10.6276
演奏	-10.6277
brazil	-10.6278
bird	-10.6278
walter	-10.6292
fair	-10.6292
界	-10.6293
イギリスの	-10.6295
)7	-10.63
academic	-10.63
gus	-10.6301
創立	-10.6302
success	-10.6302
宏	-10.6305
ensis	-10.6307
-10-	-10.6311
持	-10.6312
changed	-10.6312
formerly	-10.6313
山本	-10.6314
engine	-10.6318
fox	-10.6318
ガス	-10.6324
bil	-10.6332
エス	-10.6333
color	-10.6333
usually	-10.6333
1907	-10.6336
悪	-10.6336
kr	-10.6337
長野県	-10.6346
とう	-10.6348
sometimes	-10.635
場合	-10.6352
ローマ	-10.6358
ディー	-10.6359
personal	-10.6369
morning	-10.637
ホームページ	-10.637
catalogue	-10.637
facebook	-10.637
comedy	-10.6373
表記	-10.6374
rum	-10.6377
ものの	-10.6379
brian	-10.6382
overall	-10.6385
fellow	-10.6387
fin	-10.6387
stop	-10.6389
医	-10.6389
spent	-10.6391
reserve	-10.6392
ではなく	-10.6394
ish	-10.6401
roy	-10.6401
countries	-10.6404
try	-10.6405
chen	-10.6409
property	-10.641
原作	-10.6412
政策	-10.6416
以下の	-10.6418
eventually	-10.6422
ほ	-10.6425
behind	-10.6427
あるいは	-10.6433
pakistan	-10.6433
founder	-10.6435
must	-10.6437
launched	-10.6437
ies	-10.6438
command	-10.6439
issn	-10.6443
客	-10.6447
bat	-10.6447
天皇	-10.6449
ミー	-10.645
鶴	-10.6453
ross	-10.6454
stations	-10.6457
energy	-10.6457
deep	-10.6459
牛	-10.6459
早	-10.646
構成	-10.6462
千葉	-10.6465
言語	-10.6466
highest	-10.6479
湾	-10.6482
次郎	-10.6482
border	-10.6483
ally	-10.6485
strong	-10.6485
ud	-10.649
gas	-10.6498
char	-10.6499
reviews	-10.6499
hl	-10.6502
クロ	-10.6516
yan	-10.6518
lines	-10.6519
参加	-10.652
espn	-10.6525
セン	-10.6528
取り	-10.653
リオ	-10.6532
software	-10.6533
candidate	-10.6534
wer	-10.6537
seen	-10.6542
ちょう	-10.6543
枝	-10.6547
ip	-10.6547
gate	-10.6549
:1	-10.6549
semi	-10.6551
最高	-10.6555
practice	-10.656
塚	-10.6561
czech	-10.6562
flight	-10.6562
cinema	-10.6565
ことを	-10.6569
pos	-10.6571
tro	-10.6577
将	-10.6578
美術館	-10.6578
resources	-10.6581
じょう	-10.6585
tax	-10.6586
務	-10.6587
paper	-10.6592
孫	-10.6593
の一	-10.6594
previous	-10.6595
lay	-10.6596
べ	-10.6599
financial	-10.6601
д	-10.6601
к	-10.6606
wal	-10.6608
、2006	-10.6619
instrumental	-10.6621
killed	-10.6621
soul	-10.6623
プラ	-10.6624
細	-10.6626
sons	-10.6629
周辺	-10.663
純	-10.6631
キング	-10.6634
rob	-10.6636
トー	-10.6645
砲	-10.6647
carl	-10.6647
トラ	-10.6648
岐阜県	-10.6649
配信	-10.6649
市場	-10.6652
electric	-10.6658
davis	-10.6659
ニューヨーク	-10.6663
kn	-10.6664
engineer	-10.6665
nick	-10.6665
unique	-10.6671
スキー	-10.6671
伊藤	-10.6672
ani	-10.6679
followed	-10.6684
horse	-10.6688
sho	-10.6689
weekly	-10.669
abc	-10.669
部長	-10.6693
rev	-10.6696
の子	-10.6698
kon	-10.6698
appearances	-10.6702
(1):	-10.6704
ada	-10.6704
involved	-10.6709
の地名	-10.671
共著	-10.671
などが	-10.6716
その他	-10.6721
zone	-10.6723
ために	-10.6724
arn	-10.6726
money	-10.6729
国民	-10.6737
_{	-10.674
husband	-10.6741
(11	-10.6747
ida	-10.6752
与	-10.6755
のち	-10.6758
variety	-10.6762
メディア	-10.6765
senate	-10.6766
know	-10.6766
、2005	-10.6778
ct	-10.6779
sum	-10.6782
khan	-10.6787
process	-10.6789
publications	-10.6802
須	-10.6805
honor	-10.6805
ˈ	-10.6808
deal	-10.6809
)11	-10.6812
層	-10.6814
1890	-10.6815
ビデオ	-10.6818
older	-10.6819
2014,	-10.6821
委員	-10.6823
sim	-10.6824
fiction	-10.6824
再び	-10.6825
fame	-10.6826
させる	-10.6829
nia	-10.683
)12	-10.6836
房	-10.6837
cia	-10.6839
転	-10.6843
oregon	-10.6847
舞	-10.6849
{{{	-10.685
regiment	-10.6852
バージョン	-10.6857
登	-10.6857
祖	-10.6859
hor	-10.6859
ことが	-10.6864
individual	-10.6864
を受けた	-10.6869
material	-10.6878
dra	-10.6886
以来	-10.689
時の	-10.6891
earl	-10.6891
プロジェクト	-10.6892
minnesota	-10.6893
consists	-10.6893
ロンドン	-10.6895
politics	-10.6895
ックス	-10.6897
soccerway	-10.6899
watch	-10.6904
図書館	-10.6908
takes	-10.6908
evans	-10.6909
トップ	-10.6909
constituency	-10.6911
市民	-10.6911
デル	-10.6913
1896	-10.6915
富士	-10.6917
本部	-10.6921
‘	-10.6923
ī	-10.6929
寛	-10.6933
家族	-10.6933
sti	-10.6934
700	-10.6935
featuring	-10.6942
最後の	-10.6944
本社	-10.695
国内	-10.6957
2012,	-10.6958
沖縄	-10.696
turkish	-10.696
mind	-10.6968
タイム	-10.6971
months	-10.6973
精	-10.6973
fil	-10.6978
lp	-10.6978
albert	-10.6985
」、「	-10.6986
私	-10.6988
させた	-10.6993
人気	-10.6993
ると	-10.6995
印	-10.6998
math	-10.6998
zen	-10.7005
全日本	-10.7007
commune	-10.7008
使用	-10.701
2006,	-10.7015
successful	-10.7015
ré	-10.7016
宇	-10.7018
辺	-10.7021
盛	-10.7025
-04-	-10.7026
校舎	-10.7029
higher	-10.7031
されており	-10.7036
brothers	-10.7041
当初は	-10.7047
fight	-10.7047
villa	-10.705
pg	-10.705
ended	-10.7051
技	-10.7052
poly	-10.7058
settlement	-10.706
誠	-10.7062
県道	-10.7064
兄	-10.7066
(14	-10.7067
茨城県	-10.7068
content	-10.7068
medicine	-10.707
ial	-10.7079
乗	-10.708
elizabeth	-10.708
missouri	-10.7081
札幌	-10.7083
浩	-10.7093
metro	-10.7099
composed	-10.7109
げ	-10.7109
切	-10.711
仲	-10.7118
イー	-10.7119
operations	-10.712
前に	-10.7123
店舗	-10.7125
borough	-10.7127
畑	-10.7129
uri	-10.7129
バック	-10.7131
].	-10.714
does	-10.7147
地球	-10.7149
fifth	-10.7159
自由	-10.7163
adam	-10.7163
example	-10.7166
publication	-10.7166
1%	-10.7169
電気	-10.7172
ところ	-10.7173
パーク	-10.7176
積	-10.7176
9%	-10.7178
メン	-10.7179
端	-10.718
大きな	-10.718
lou	-10.7182
nan	-10.7184
のこと	-10.7186
レコード	-10.7186
pages	-10.7188
fly	-10.719
よく	-10.719
mini	-10.719
動物	-10.7198
ること	-10.72
東海	-10.7201
operation	-10.7206
classic	-10.7206
岸	-10.7207
block	-10.7213
mos	-10.7216
綱	-10.7219
会員	-10.722
rag	-10.7224
筋	-10.7224
縁	-10.7227
ジャン	-10.7227
change	-10.7228
(1)	-10.7229
敏	-10.7229
ハウス	-10.723
bronze	-10.7235
alex	-10.7236
tree	-10.7238
子の	-10.7238
gazette	-10.7238
住	-10.7239
wy	-10.7242
squad	-10.7243
尚	-10.7244
神奈川県	-10.7247
ization	-10.7249
テル	-10.7253
勝利	-10.7257
になり	-10.7257
queensland	-10.726
ding	-10.7265
mun	-10.7266
リスト	-10.7271
帝国	-10.7271
洞	-10.7278
のように	-10.7278
旅	-10.7278
デジタル	-10.7279
2013,	-10.7281
共和国	-10.7284
選挙	-10.7285
黄	-10.7287
tam	-10.7288
の第	-10.7288
将軍	-10.729
形式	-10.7291
uni	-10.7291
walk	-10.7292
crew	-10.7296
勢	-10.7303
app	-10.7304
エー	-10.7305
滝	-10.7305
stat	-10.7309
م	-10.731
結	-10.731
groups	-10.7316
線の	-10.7322
変更	-10.7322
situated	-10.7323
od	-10.7327
最初の	-10.7334
える	-10.7334
ので	-10.7335
ブリ	-10.734
、2012	-10.7347
rain	-10.7352
solo	-10.7356
sz	-10.7358
日付	-10.7366
liberal	-10.7368
評価	-10.7368
変	-10.7373
メートル	-10.7374
pad	-10.7385
formation	-10.7385
田村	-10.7388
earned	-10.7392
lepidoptera	-10.7392
大統領	-10.7393
gave	-10.7394
appearance	-10.7395
ocean	-10.7396
painter	-10.7398
ブルー	-10.7399
大字	-10.7401
ridge	-10.7406
brook	-10.741
windows	-10.7411
yellow	-10.7412
plus	-10.7413
の大	-10.7417
池田	-10.7417
装	-10.7417
距離	-10.742
nat	-10.7425
監修	-10.7427
延	-10.7431
鹿	-10.7432
密	-10.7433
加藤	-10.7435
server	-10.7444
渡辺	-10.7444
車両	-10.7444
theory	-10.7444
peace	-10.7447
hold	-10.7447
distance	-10.7448
3%	-10.7448
茶	-10.7456
1898	-10.7457
輝	-10.7457
紀元前	-10.7461
bach	-10.7462
companies	-10.7465
角川日本地名大辞典	-10.7475
tony	-10.7478
mas	-10.7481
梅	-10.7482
ショー	-10.7485
関連	-10.749
峰	-10.749
法人	-10.749
7%	-10.7493
1899	-10.7494
本線	-10.7494
落	-10.7494
promoted	-10.7496
ä	-10.7497
、2000	-10.7498
月には	-10.7503
引	-10.7503
ケン	-10.7505
meaning	-10.7507
のような	-10.7507
計	-10.7507
villages	-10.7509
oc	-10.7509
軽	-10.751
ウス	-10.7514
patrick	-10.7514
jackson	-10.7521
ピー	-10.7521
required	-10.7526
doctor	-10.7528
classification	-10.7532
ベン	-10.7533
編成	-10.7533
、2004	-10.7535
伊勢	-10.7539
補	-10.754
chan	-10.7542
yn	-10.7544
起	-10.7546
ベース	-10.7547
vice	-10.7549
grant	-10.7551
guardian	-10.7551
lewis	-10.7552
ance	-10.7558
better	-10.756
excel	-10.7562
芳	-10.7565
状態	-10.7566
ざ	-10.7568
analysis	-10.7568
outside	-10.7569
mol	-10.7572
メーカー	-10.7574
の選手一覧	-10.7575
friends	-10.7577
国の	-10.7579
remix	-10.7581
ドン	-10.7583
lives	-10.7587
dos	-10.7589
units	-10.7591
whose	-10.7593
kw	-10.7601
rap	-10.7601
ロス	-10.7608
境	-10.761
敬	-10.7612
danish	-10.7612
公式ウェブサイト	-10.7614
rad	-10.7615
ワールドカップ	-10.7618
grave	-10.7618
pic	-10.7619
静岡県	-10.7625
lands	-10.7629
(13	-10.763
dec	-10.7632
以後	-10.7633
illa	-10.7638
ig	-10.7638
matt	-10.764
議会	-10.7641
2003.	-10.7647
岳	-10.7649
ボーカル	-10.7655
新潟県	-10.7657
geo	-10.7658
mountains	-10.7661
:10.	-10.7661
й	-10.7664
引退	-10.7666
income	-10.7669
males	-10.7669
、2011	-10.7669
spin	-10.7678
vote	-10.7679
walker	-10.7681
pay	-10.7685
journalist	-10.7692
cities	-10.7701
@	-10.7702
者の	-10.7708
においては	-10.771
プレ	-10.7714
å	-10.7715
劉	-10.7722
ブランド	-10.7723
composer	-10.7725
に改称	-10.7731
ものである	-10.7732
松本	-10.7738
えき	-10.774
rid	-10.7741
jewish	-10.7744
祐	-10.7745
loss	-10.7747
河川	-10.775
contemporary	-10.7753
theater	-10.7755
6%	-10.7757
stand	-10.7757
too	-10.7757
ように	-10.7757
surface	-10.7758
を務める	-10.7759
まる	-10.776
フォン	-10.7761
様々な	-10.7763
31,	-10.7766
poet	-10.7767
書店	-10.7767
リリース	-10.7767
伯	-10.777
グラ	-10.7775
ヴァー	-10.7777
houses	-10.7783
スペシャル	-10.7783
でもある	-10.7784
スク	-10.7789
allen	-10.7791
sson	-10.7794
taking	-10.7796
クス	-10.7797
challenge	-10.7801
唐	-10.7803
鬼	-10.7804
tech	-10.7806
lon	-10.7806
read	-10.7809
rose	-10.7809
行き	-10.7814
ゆ	-10.7818
sweden	-10.7819
しない	-10.7821
中部	-10.7824
2015,	-10.7827
nfl	-10.7838
pri	-10.7841
entered	-10.785
nba	-10.7853
ヴォ	-10.7856
意	-10.7858
可	-10.7864
architecture	-10.7865
博士	-10.7872
為	-10.7877
going	-10.788
victory	-10.7884
technical	-10.7885
indiana	-10.7886
pick	-10.789
tun	-10.7892
西部	-10.7892
酸	-10.7895
dc	-10.7899
」『	-10.7906
directory	-10.7911
dies	-10.7912
starring	-10.7912
ダンス	-10.7913
ay	-10.7917
140	-10.792
51.	-10.7923
oli	-10.7928
htm	-10.7928
提供	-10.793
列	-10.7939
則	-10.7939
130	-10.7944
rot	-10.7945
グリ	-10.7947
指導	-10.7948
望	-10.7949
海外	-10.795
pod	-10.7951
sweet	-10.7959
たか	-10.796
threatened	-10.7961
tes	-10.7967
戦で	-10.797
thus	-10.7974
番号	-10.7984
jam	-10.7984
legal	-10.7986
kai	-10.7986
biographical	-10.7988
ケイ	-10.7989
主演	-10.7995
hans	-10.7996
低	-10.7997
タウン	-10.8
フランスの	-10.8003
lic	-10.8005
彼の	-10.8006
israel	-10.8007
!」	-10.8011
additional	-10.8016
friend	-10.8017
方法	-10.8023
interest	-10.8026
アフリカ	-10.8028
representative	-10.8029
機械	-10.8031
子供	-10.8032
野球	-10.8037
noted	-10.8039
機構	-10.804
secondary	-10.8044
uss	-10.8046
dun	-10.8051
氏の	-10.8053
主義	-10.8053
晴	-10.8055
留	-10.8057
朝鮮	-10.806
冠	-10.8063
、3	-10.8064
whom	-10.8064
railroad	-10.8066
砂	-10.8067
視	-10.807
破	-10.8071
予選	-10.8072
三重県	-10.8077
市にある	-10.808
アンド	-10.8081
secret	-10.8082
ncaa	-10.8096
vil	-10.8096
cemetery	-10.8096
の中で	-10.8099
由	-10.8099
イル	-10.8103
ボー	-10.8103
я	-10.8105
しい	-10.8106
保護	-10.8108
blood	-10.8109
4%	-10.811
開設	-10.8111
受賞	-10.8115
塔	-10.8118
向け	-10.8122
肉	-10.8122
彩	-10.8122
forms	-10.8126
、2013	-10.8126
静	-10.8126
個	-10.8128
despite	-10.8128
後は	-10.8129
参	-10.8129
ップ	-10.813
日本では	-10.8131
カナダ	-10.8132
planet	-10.8134
vis	-10.8137
接	-10.8141
共同	-10.8142
ミン	-10.8143
オーストラリア	-10.8143
dic	-10.8145
兄弟	-10.8145
記事	-10.8146
avenue	-10.8148
退	-10.8159
ジン	-10.8166
extra	-10.8167
lyrics	-10.8171
coming	-10.8171
(9	-10.8171
almost	-10.8174
teacher	-10.8174
2%	-10.8175
loc	-10.818
コル	-10.8181
commander	-10.8183
ž	-10.8194
1895	-10.8203
organ	-10.8205
bed	-10.821
);	-10.8214
bit	-10.8217
philadelphia	-10.8219
look	-10.822
連続	-10.8221
ひろ	-10.8227
付け	-10.8227
voivodeship	-10.8231
系統	-10.8236
52.	-10.824
should	-10.8242
チャンネル	-10.8244
environment	-10.8249
憲	-10.8253
トル	-10.8255
tier	-10.8256
authority	-10.8257
bru	-10.8258
means	-10.8262
旗	-10.8263
カラ	-10.8266
2000,	-10.8269
裏	-10.827
何	-10.8275
ッド	-10.8278
jay	-10.8279
認定	-10.828
bul	-10.8281
fur	-10.8283
部分	-10.8287
モー	-10.8291
テレビ朝日	-10.8294
uses	-10.8294
演	-10.8294
装置	-10.8295
0-7	-10.83
1892	-10.8306
scientific	-10.8308
travel	-10.8309
allcinema	-10.8311
第三	-10.8314
ことがある	-10.8315
covered	-10.8318
東部	-10.832
loan	-10.8321
dell	-10.8324
llc	-10.8324
sunday	-10.8326
melbourne	-10.8326
110	-10.8326
decided	-10.8332
のアルバム	-10.8333
lov	-10.8337
壁	-10.8339
なく	-10.8341
conservation	-10.8345
名称	-10.8348
ション	-10.8353
)9	-10.8357
iya	-10.8358
miller	-10.836
females	-10.836
break	-10.836
北部	-10.8363
身長	-10.8364
までの	-10.8365
ned	-10.8368
井上	-10.8376
chemical	-10.8378
羅	-10.8381
lb	-10.8384
歳で	-10.8384
northwest	-10.8386
talk	-10.8387
(2002	-10.839
imento	-10.839
名古屋市	-10.8392
sil	-10.8396
ポイント	-10.8397
コーチ	-10.8398
四国	-10.84
path	-10.8401
新しい	-10.8406
値	-10.8408
アップ	-10.841
republican	-10.841
guard	-10.8411
dol	-10.8419
gang	-10.842
古代	-10.842
福島県	-10.8428
峠	-10.8429
チャー	-10.8429
2005,	-10.843
よし	-10.843
neu	-10.8431
prix	-10.8435
attack	-10.8436
トラック	-10.8438
starting	-10.8438
audio	-10.8443
hip	-10.8443
lum	-10.8444
broadcast	-10.8446
事故	-10.8448
steel	-10.8449
いち	-10.845
kansas	-10.8455
使	-10.8457
leaves	-10.8466
攻撃	-10.8467
least	-10.8469
baby	-10.8472
160	-10.8474
油	-10.8484
sr	-10.8485
baron	-10.849
ゆう	-10.849
知事	-10.8492
ウェイ	-10.8493
1880	-10.8496
о	-10.8503
ゲン	-10.8507
グル	-10.8509
福岡県	-10.8513
席	-10.8514
either	-10.8516
drive	-10.8519
最大	-10.8522
(2001	-10.8523
連載	-10.8525
direct	-10.8527
近代	-10.853
netherlands	-10.8533
even	-10.854
pm	-10.8541
cul	-10.8546
新田	-10.855
緑	-10.855
whit	-10.8551
長崎	-10.8551
angel	-10.8552
希	-10.8552
応	-10.8554
nad	-10.856
オル	-10.8565
provided	-10.8566
product	-10.8569
deputy	-10.8572
としている	-10.8572
準	-10.8573
まさ	-10.8575
ボン	-10.8583
なか	-10.8584
していたが	-10.8585
900	-10.8589
forward	-10.8594
dé	-10.8595
districts	-10.8596
余	-10.8597
メイン	-10.8601
products	-10.8604
殿	-10.8605
、1990	-10.8607
弟	-10.8611
campus	-10.8614
ライト	-10.8616
multiple	-10.8618
2016,	-10.8618
1893	-10.862
)8	-10.8621
oz	-10.8622
エイ	-10.8623
motor	-10.8627
篇	-10.863
titles	-10.8634
atlantic	-10.8635
rus	-10.8637
races	-10.8639
率	-10.8642
policy	-10.8643
ova	-10.8646
西日本	-10.8646
stats	-10.8647
そのため	-10.8649
35.	-10.865
ヶ	-10.8653
ことで	-10.8653
image	-10.8657
count	-10.8657
内に	-10.8661
地名	-10.8661
kov	-10.8662
direction	-10.8669
sia	-10.8671
category	-10.8671
ries	-10.8672
mainly	-10.8672
陸	-10.8674
徒歩	-10.8676
rik	-10.8677
駅前	-10.8677
gt	-10.8677
mic	-10.8679
カール	-10.8679
王国	-10.8682
fat	-10.8684
nearby	-10.8686
reach	-10.8686
諸島	-10.8692
、2014	-10.8696
ラブ	-10.8698
部隊	-10.8699
ū	-10.8704
きょう	-10.8706
老	-10.8708
陣	-10.871
荘	-10.8711
共	-10.8714
numerous	-10.8714
廃	-10.8715
礼	-10.8717
杉	-10.8725
講師	-10.8725
石川	-10.8726
maps	-10.8727
最も	-10.8733
町の	-10.8734
世界選手権	-10.8735
よりも	-10.8738
日本テレビ	-10.8743
tai	-10.8749
創	-10.8751
姓	-10.8758
tiv	-10.8767
弁	-10.8769
フォ	-10.8772
wen	-10.8774
1885	-10.8778
hills	-10.8778
harry	-10.8779
大臣	-10.878
constructed	-10.8785
するが	-10.8791
pas	-10.8792
norway	-10.8792
インターチェンジ	-10.8796
ッシュ	-10.8796
大和	-10.8799
市長	-10.8799
fra	-10.8801
py	-10.8802
沙	-10.8803
方式	-10.8803
1886	-10.8804
ミニ	-10.8804
cook	-10.8806
2002.	-10.8812
それぞれ	-10.8815
cop	-10.8816
のひとつ	-10.8822
peak	-10.8824
アス	-10.8826
ような	-10.8828
桂	-10.883
休	-10.8833
刑事	-10.8836
グランプリ	-10.8837
日本代表	-10.8838
}}	-10.8839
離	-10.884
1891	-10.8845
clear	-10.8846
clubs	-10.8848
mono	-10.8853
median	-10.8856
住宅	-10.8858
das	-10.8858
ska	-10.8862
の間	-10.8871
毎年	-10.8874
mexican	-10.8877
推進	-10.8878
qualified	-10.888
folk	-10.8881
対応	-10.8885
仙台	-10.8886
musician	-10.8888
hay	-10.8891
1894	-10.8893
bag	-10.8894
lab	-10.8897
冬	-10.89
qua	-10.8901
abad	-10.8902
issues	-10.8904
sell	-10.8908
術	-10.8914
och	-10.8916
限定	-10.8919
2015).	-10.8922
ドイツの	-10.8923
ほう	-10.8927
representatives	-10.8929
新潟	-10.8932
becoming	-10.8934
parliamentary	-10.8934
児	-10.8938
subsequently	-10.8942
大型	-10.8944
introduced	-10.8944
jon	-10.8944
platform	-10.8949
影	-10.8952
表現	-10.8956
福島	-10.8958
mixed	-10.8962
京都府	-10.8965
譲	-10.8966
服	-10.8966
メル	-10.8966
hungarian	-10.8971
wick	-10.8972
聞	-10.8975
交	-10.8975
バイパス	-10.8976
弥	-10.8976
観測	-10.8978
iowa	-10.8979
hon	-10.898
cf	-10.898
に変更	-10.8983
tag	-10.899
ソー	-10.8995
なり	-10.8996
mostly	-10.8997
プル	-10.9001
runner	-10.9001
karl	-10.9003
mlb	-10.9005
歯	-10.9009
ドイツ語	-10.9013
renamed	-10.9015
imp	-10.9019
participated	-10.9019
acid	-10.902
ich	-10.9022
、2003	-10.9022
inside	-10.9026
)6	-10.9028
受	-10.9029
53.	-10.903
eds	-10.9031
е	-10.9034
株	-10.9036
els	-10.9041
太田	-10.9041
宣	-10.9047
minutes	-10.9048
得	-10.9049
instead	-10.9049
ras	-10.9054
lé	-10.9056
シェ	-10.9059
bull	-10.906
serves	-10.9062
込み	-10.9064
dean	-10.9064
blues	-10.9068
稲	-10.9071
fact	-10.9072
香港	-10.9073
price	-10.9074
philip	-10.9076
自治体	-10.9078
ロシア語	-10.9078
-07-	-10.9079
パラ	-10.9079
歩	-10.9079
ッチ	-10.908
シア	-10.9082
wave	-10.9084
指	-10.9086
fred	-10.9087
によると	-10.909
provincial	-10.9099
運用	-10.91
レッド	-10.9101
labour	-10.9101
tsu	-10.9109
ign	-10.9109
ax	-10.9112
anthony	-10.9115
乱	-10.912
食品	-10.9121
)5	-10.9122
ı	-10.9129
温	-10.913
recent	-10.9131
普通	-10.9139
words	-10.9141
東洋	-10.9141
商品	-10.9142
しか	-10.9142
亜	-10.9143
栗	-10.9145
hara	-10.9152
rc	-10.9153
33°	-10.9153
kentucky	-10.9155
単位	-10.9155
architect	-10.9155
タレント	-10.9156
initially	-10.9156
kha	-10.9156
gp	-10.9158
tap	-10.9159
metropolitan	-10.916
neo	-10.9162
provide	-10.9169
vision	-10.9172
sid	-10.9179
lt	-10.918
シャー	-10.9183
screen	-10.9183
とき	-10.9184
中山	-10.9188
フォー	-10.919
ヴァン	-10.9193
create	-10.9194
を行い	-10.9196
gmina	-10.9197
owner	-10.9198
勇	-10.9198
ステージ	-10.9199
corps	-10.9199
内容	-10.9201
、2002	-10.9201
mes	-10.9201
electoral	-10.9202
mod	-10.9202
mul	-10.9204
0.0	-10.9204
unknown	-10.9207
hits	-10.921
broadcasting	-10.921
twenty	-10.9212
防	-10.9215
だったが	-10.9216
、2001	-10.9217
acquired	-10.9218
communications	-10.9221
国鉄	-10.9222
ポジションは	-10.9223
ブラジル	-10.9224
aki	-10.9224
brought	-10.9227
pac	-10.9228
nas	-10.9228
1887	-10.9228
nos	-10.9229
最終	-10.9229
rai	-10.9231
hero	-10.9236
bot	-10.9239
principal	-10.9251
1888	-10.9256
ending	-10.9262
documentary	-10.9263
kam	-10.9264
させ	-10.9266
2014).	-10.9266
mah	-10.9266
かつ	-10.9267
かった	-10.9272
理論	-10.9273
セット	-10.9273
ori	-10.9274
revolution	-10.9276
幅	-10.9278
ula	-10.9279
rec	-10.9282
towns	-10.9288
towards	-10.9291
専門学校	-10.9292
リス	-10.9293
ジュニア	-10.9295
(2):	-10.93
洲	-10.9301
したため	-10.9302
-02	-10.9304
ヘル	-10.9306
中継	-10.9309
distribution	-10.9309
give	-10.9312
の楽曲	-10.9312
concert	-10.9313
wang	-10.9315
ファー	-10.9316
核	-10.9317
医学	-10.9322
紅	-10.9325
追	-10.9326
フランス語	-10.9326
数は	-10.9326
territory	-10.9328
枚	-10.9328
組合	-10.9332
柄	-10.9332
vas	-10.9334
ーズ	-10.9336
christ	-10.9337
情	-10.9339
167	-10.934
è	-10.934
ped	-10.934
diocese	-10.9341
トレ	-10.9343
丘	-10.9344
具	-10.9345
がいる	-10.9347
str	-10.9351
キャラクター	-10.9352
ドー	-10.9352
poetry	-10.9353
シル	-10.9355
ars	-10.9355
網	-10.9357
を指す	-10.9362
得点	-10.9366
2004,	-10.937
wolf	-10.9372
税	-10.9373
sai	-10.9374
reported	-10.9375
physical	-10.9376
妙	-10.9377
juan	-10.9377
ビジネス	-10.9379
step	-10.9379
投手	-10.938
ネス	-10.9382
-20	-10.9393
origin	-10.9394
counties	-10.9398
arena	-10.9398
牧	-10.9403
コード	-10.9407
ا	-10.9411
けい	-10.9422
falls	-10.9426
poor	-10.9433
以上の	-10.9435
industrial	-10.9436
日には	-10.9437
vel	-10.944
wikimedia	-10.9445
マリア	-10.9448
jar	-10.9451
ネットワーク	-10.9452
チン	-10.9456
表示	-10.946
舎	-10.946
defense	-10.9466
flat	-10.9471
まち	-10.9472
split	-10.9472
faculty	-10.9473
ü	-10.9475
month	-10.9477
難	-10.9481
mé	-10.9482
bury	-10.9484
101	-10.9486
用の	-10.9487
中心	-10.9491
wu	-10.9491
feat	-10.9492
programs	-10.9497
に就任	-10.95
タル	-10.9505
が多い	-10.9507
分野	-10.9508
quarter	-10.9509
households	-10.951
turkey	-10.9512
36.	-10.9516
圏	-10.9517
nh	-10.9518
raised	-10.9518
01.	-10.9518
1-1	-10.9524
幼稚園	-10.9525
ノン	-10.9525
を結ぶ	-10.9526
[2]	-10.9526
児童	-10.9526
熊本	-10.9528
議	-10.9531
穴	-10.9534
southeast	-10.9535
帰	-10.9537
139	-10.955
岡山	-10.9551
lieutenant	-10.9553
インタビュー	-10.9554
バラ	-10.9555
fund	-10.9557
л	-10.9558
lis	-10.9561
birth	-10.9563
colorado	-10.9566
様	-10.9566
伸	-10.9566
у	-10.9567
(2006)	-10.9567
ます	-10.9569
pil	-10.9571
翼	-10.9572
hen	-10.9573
陵	-10.9576
急	-10.9576
少女	-10.9576
mt	-10.9579
ref	-10.9584
ステ	-10.9585
activities	-10.9585
ロード	-10.9586
リンク切れ	-10.9588
展開	-10.9597
回戦	-10.9598
殺	-10.9601
を意味する	-10.9605
kill	-10.9605
1870	-10.9606
kind	-10.9606
entering	-10.9607
mile	-10.9612
運行	-10.9615
entire	-10.962
こともある	-10.962
米国	-10.962
前の	-10.9626
sv	-10.9626
ette	-10.9627
remains	-10.963
主な	-10.963
営	-10.9636
敵	-10.9637
dry	-10.9638
singh	-10.964
しゃ	-10.9649
bowl	-10.965
教室	-10.9652
ろう	-10.9653
最	-10.9654
cel	-10.9655
〉	-10.9655
generation	-10.9665
ポーランド	-10.9666
筆	-10.9668
arab	-10.9674
結婚	-10.9675
などに	-10.9676
通算	-10.9677
あい	-10.9678
月まで	-10.9678
-19	-10.9679
統計	-10.968
営業所	-10.9682
を設置	-10.9686
開校	-10.9686
ランキング	-10.9687
2000.	-10.9687
賢	-10.9688
画家	-10.9688
aviation	-10.9689
fri	-10.969
kirk	-10.9693
prominent	-10.97
letter	-10.9701
ナイト	-10.9705
候補	-10.9705
ō	-10.9708
年生	-10.9709
木村	-10.9712
nominated	-10.9712
acting	-10.9713
ぼ	-10.9714
figure	-10.9714
1875	-10.9715
統合	-10.9715
yang	-10.9717
cos	-10.9717
antonio	-10.9724
1884	-10.9725
gray	-10.9726
枚目のシングル	-10.9727
の名	-10.9728
istic	-10.9728
supreme	-10.9728
邦	-10.9729
ago	-10.9731
classical	-10.9734
corner	-10.9737
飛行	-10.9737
rud	-10.9738
これを	-10.9739
(2004).	-10.9744
christopher	-10.9746
athletic	-10.9747
pool	-10.9751
衣	-10.9755
剣	-10.9757
菜	-10.9757
オス	-10.9759
1385	-10.976
graduate	-10.9761
zer	-10.9761
douglas	-10.9765
頃	-10.9771
golf	-10.9773
照	-10.9776
2012).	-10.9776
covers	-10.978
域	-10.9781
incorporates	-10.9783
ペン	-10.9783
lac	-10.9786
34.	-10.9786
実験	-10.9791
とその	-10.9791
holy	-10.9792
ポー	-10.9793
slav	-10.98
マーク	-10.9802
ポール	-10.9803
健康	-10.9804
grey	-10.9808
decision	-10.981
yer	-10.9811
剤	-10.9812
moving	-10.9814
cars	-10.9815
parents	-10.9815
2013).	-10.9825
moscow	-10.9826
の戦い	-10.983
newspapers	-10.9832
hir	-10.9833
marriage	-10.9834
と同じ	-10.9835
howard	-10.9835
ナン	-10.9836
hai	-10.9836
生徒	-10.9837
sang	-10.9838
運転	-10.9843
ي	-10.9845
防衛	-10.9845
dave	-10.9847
ities	-10.9849
鏡	-10.985
crime	-10.9851
、2015	-10.9854
を行っている	-10.9855
称	-10.9862
まり	-10.9864
鹿児島県	-10.9866
josé	-10.9873
連合	-10.9874
陳	-10.9876
オーストリア	-10.9881
priest	-10.9882
sites	-10.9882
flora	-10.9883
cra	-10.9883
1-8	-10.9886
クル	-10.9887
designated	-10.989
dedicated	-10.989
67°	-10.9894
leon	-10.9895
全体	-10.9897
knight	-10.9897
効果	-10.9897
finish	-10.9897
murder	-10.9902
ves	-10.9905
arc	-10.9906
に属する	-10.9913
bou	-10.9913
sci	-10.9916
alternative	-10.9917
aid	-10.992
shore	-10.9921
maryland	-10.9921
症	-10.9926
競馬	-10.9926
ر	-10.9926
本人	-10.9926
aux	-10.9928
奈良	-10.9931
dur	-10.9931
大橋	-10.9937
broad	-10.9938
ホー	-10.9941
ポン	-10.9941
dl	-10.9946
熊	-10.9948
yi	-10.9949
apple	-10.995
cent	-10.9959
吾	-10.9961
sq	-10.9962
presented	-10.9965
itself	-10.9965
2017).	-10.9967
断	-10.9971
alt	-10.9974
群馬県	-10.9974
amateur	-10.9976
ゴー	-10.9978
亮	-10.9979
iro	-10.9981
pv	-10.9983
tion	-10.9986
以下	-10.9986
fleet	-10.9989
-06-	-10.9991
ington	-10.9994
meeting	-10.9994
岡山県	-10.9997
取締役	-10.9998
寄	-10.9999
賞受賞	-10.9999
反応	-11.0002
仙	-11.0005
hn	-11.0006
cus	-11.0007
40.	-11.0015
未来	-11.0015
interior	-11.0015
スクール	-11.0018
fun	-11.0018
アート	-11.0018
淳	-11.0019
アーティスト	-11.0019
painting	-11.0021
分類	-11.0021
官報	-11.0022
脇	-11.0024
もと	-11.0024
exchange	-11.0026
spot	-11.0028
anderson	-11.0031
sf	-11.0032
gui	-11.0033
~	-11.0033
conservative	-11.0035
東日本	-11.0036
uc	-11.0037
handbook	-11.0038
programme	-11.0042
gay	-11.0043
ブログ	-11.0052
いずれも	-11.0053
展示	-11.0054
蓮	-11.0057
オランダ	-11.0058
閲覧	-11.0058
agent	-11.0059
cost	-11.006
stream	-11.0062
期間	-11.0063
秋田	-11.0063
rank	-11.0068
junction	-11.0072
高速道路	-11.0078
デー	-11.0078
佳	-11.0079
!(	-11.0082
37.	-11.0084
105	-11.0087
rather	-11.0092
トンネル	-11.0094
』『	-11.0094
玄	-11.0096
アラ	-11.0099
宗教	-11.01
貫	-11.01
1873	-11.0102
んで	-11.0104
ソフト	-11.0106
lio	-11.0109
彼	-11.0109
デイ	-11.0109
tc	-11.011
革命	-11.0111
解散	-11.0119
specific	-11.012
pierre	-11.012
レギュラー	-11.0126
amazon	-11.0128
dettaglio	-11.0128
austria	-11.0129
パル	-11.013
土地	-11.013
北京	-11.0136
を設立	-11.0139
nomination	-11.014
世の	-11.0143
2016).	-11.0146
連邦	-11.015
福祉	-11.0151
!』	-11.0152
ラム	-11.0156
本名	-11.0159
39.	-11.0161
135	-11.0161
経験	-11.0163
暦	-11.0164
cro	-11.0165
要出典	-11.0168
送	-11.0169
晋	-11.0171
沖	-11.0171
穂	-11.0173
カイ	-11.0173
テレ	-11.0177
shu	-11.0179
contest	-11.0182
トロ	-11.0184
oclc	-11.0191
プリ	-11.0193
1.5	-11.0196
gill	-11.0196
heim	-11.0198
nn	-11.0199
sing	-11.0199
乃	-11.0199
付近	-11.0201
thought	-11.0202
短	-11.0205
scene	-11.0209
tl	-11.021
kor	-11.0212
中野	-11.0213
tavola	-11.0214
samuel	-11.0215
earlier	-11.0217
集団	-11.0219
題	-11.0221
northeast	-11.0221
にあり	-11.0222
majority	-11.0223
案	-11.0226
factory	-11.0227
swiss	-11.0229
fighting	-11.0232
gel	-11.0233
glass	-11.0233
)』	-11.0235
潮	-11.0235
延長	-11.0237
titled	-11.0237
rna	-11.0238
frederick	-11.0241
民族	-11.0242
状況	-11.0244
秋田県	-11.0245
kent	-11.0246
芝	-11.0247
ディア	-11.0252
pilot	-11.0254
tennessee	-11.0255
2011-11-11.	-11.0258
事典	-11.0265
注	-11.0265
ヤン	-11.0268
庭	-11.0271
番地	-11.0271
trail	-11.0273
atlas	-11.0273
-09-	-11.0278
、2016	-11.0279
伝説	-11.0279
transfer	-11.0279
languages	-11.0283
hour	-11.0283
λ	-11.0293
(2000	-11.0294
少	-11.0295
fashion	-11.0295
comes	-11.0296
レット	-11.0297
quality	-11.0298
kara	-11.0306
finals	-11.0309
荒	-11.0309
万円	-11.031
ベイ	-11.0311
自動車道	-11.0316
som	-11.0318
cricketer	-11.0323
たが	-11.0326
用語	-11.0331
2017,	-11.0335
朝日	-11.0335
記載	-11.0337
中世	-11.0338
michel	-11.0345
especially	-11.0346
nell	-11.0349
و	-11.0351
aged	-11.0353
メキシコ	-11.0358
meet	-11.0359
orange	-11.0365
大使	-11.0365
philippines	-11.0368
八幡	-11.0368
bid	-11.037
護	-11.0377
議員	-11.038
によれば	-11.038
discovered	-11.0382
parks	-11.0383
kir	-11.0383
pot	-11.0385
結成	-11.0386
sl	-11.0386
呉	-11.0387
読み	-11.0388
files	-11.0391
養	-11.0391
王座	-11.0393
飛	-11.0395
religious	-11.0395
vent	-11.0396
大学院	-11.0398
mall	-11.0398
dai	-11.0401
を務め	-11.0402
勝ち	-11.0404
ه	-11.0405
aya	-11.0407
前作	-11.0409
chemistry	-11.041
finally	-11.041
嶋	-11.0411
圧	-11.0412
provides	-11.0413
quit	-11.0414
beck	-11.0414
一方	-11.0415
の世界	-11.0419
latter	-11.0422
fast	-11.0422
guy	-11.0423
プロデュース	-11.0425
edinburgh	-11.0425
之助	-11.0426
grade	-11.0426
lack	-11.0426
月刊	-11.0426
メイ	-11.043
aceae	-11.0431
1878	-11.0436
ンズ	-11.0437
報告	-11.0438
magic	-11.0438
fine	-11.044
comic	-11.0441
costa	-11.0442
poll	-11.0442
小学館	-11.0444
kom	-11.0446
終	-11.0449
で開催された	-11.0449
乳	-11.045
ка	-11.045
joint	-11.0453
institution	-11.0454
ジョージ	-11.0461
焼	-11.0462
兵衛	-11.0463
corn	-11.0464
greater	-11.0467
の後	-11.0468
顔	-11.0468
1876	-11.047
録音	-11.047
岩手県	-11.0471
serve	-11.0471
literary	-11.0471
except	-11.0472
海岸	-11.0477
snow	-11.0479
上野	-11.048
とされている	-11.0483
script	-11.0487
manchester	-11.0487
続	-11.0488
grad	-11.0489
kiss	-11.0491
ów	-11.0492
afl	-11.0495
に生まれる	-11.0495
ブレ	-11.0497
行動	-11.0499
野村	-11.0499
discogs	-11.0505
ドラ	-11.0506
mai	-11.0509
ua	-11.0511
グリーン	-11.0511
mouth	-11.0512
ナイ	-11.0516
厚	-11.052
tamil	-11.052
プレイ	-11.0521
sixth	-11.0524
にかけて	-11.0525
birds	-11.0527
buck	-11.0527
keep	-11.0528
弁護士	-11.0531
flag	-11.0532
cathedral	-11.0534
ユニット	-11.0536
update	-11.0537
robinson	-11.0539
ジャー	-11.0541
系の	-11.0542
マリ	-11.0546
研究会	-11.0548
merged	-11.0551
gordon	-11.0552
mak	-11.0552
س	-11.0556
共編	-11.0556
衛	-11.056
edited	-11.056
lawyer	-11.0563
1881	-11.0563
tail	-11.0563
motion	-11.0564
kil	-11.0564
buried	-11.0565
chair	-11.0566
中学	-11.0567
mathematics	-11.0567
派遣	-11.0567
educated	-11.0567
00°	-11.0572
クリ	-11.0575
38.	-11.0575
vocal	-11.0579
専攻	-11.0582
報道	-11.0582
位置	-11.0583
anne	-11.0586
weight	-11.0586
○	-11.0586
逆	-11.059
宮城県	-11.0591
jeff	-11.0593
平和	-11.0595
仏教	-11.0595
generally	-11.0599
競走	-11.0599
41.	-11.0608
lei	-11.061
獲得	-11.0612
尊	-11.0615
floor	-11.0616
名を	-11.0618
条約	-11.0619
内で	-11.0621
飯	-11.0621
冷	-11.0621
1882	-11.0622
1860	-11.0625
ryan	-11.0627
の曲	-11.0629
translation	-11.063
標高	-11.063
commonly	-11.0632
sales	-11.0634
introduction	-11.0634
障害	-11.0644
pmc	-11.0647
のメンバー	-11.0647
刀	-11.0649
付き	-11.0654
桃	-11.0657
hollywood	-11.066
ib	-11.0662
1872	-11.0669
cancer	-11.0669
ワイ	-11.0673
1883	-11.0673
109	-11.0675
arms	-11.0677
method	-11.0678
をもって	-11.0678
check	-11.0678
芸	-11.0679
サル	-11.0679
106	-11.0684
ranking	-11.0685
ş	-11.0686
join	-11.0688
庄	-11.0694
貨物	-11.0695
rina	-11.0698
スタッフ	-11.0698
折	-11.0708
1879	-11.0708
kra	-11.0709
竣工	-11.0711
細胞	-11.0712
解説	-11.0715
arizona	-11.0715
が多く	-11.0717
chapel	-11.0721
greg	-11.0723
capacity	-11.0726
理事	-11.0726
異なる	-11.0726
separate	-11.0727
argentina	-11.0727
翌年	-11.0728
need	-11.0733
roles	-11.0733
熊本県	-11.0733
salt	-11.0736
chem	-11.0737
移動	-11.0739
2003,	-11.0739
malaysia	-11.0742
trip	-11.0743
材	-11.0745
changes	-11.0745
flowers	-11.0747
cn	-11.0752
ステークス	-11.0753
輔	-11.0753
交流	-11.0753
放	-11.0755
zan	-11.0756
southwest	-11.0756
■	-11.0756
oak	-11.0762
job	-11.0763
連隊	-11.0765
(2007)	-11.0766
nl	-11.0768
放送局	-11.0769
template	-11.0774
1-2	-11.0774
hiro	-11.0775
gram	-11.0776
ised	-11.0778
太陽	-11.078
bun	-11.0782
russell	-11.0783
till	-11.0789
finnish	-11.079
2′′	-11.079
vor	-11.079
安全	-11.0792
戦後	-11.0796
ukrainian	-11.0796
環	-11.0797
ost	-11.08
宮崎	-11.0806
独	-11.0806
historian	-11.0807
政権	-11.0808
流れ	-11.0808
参照	-11.0809
zon	-11.0809
ビン	-11.081
facility	-11.081
ラス	-11.081
2.5	-11.0811
コミック	-11.0814
agriculture	-11.0818
ă	-11.0818
commonwealth	-11.082
罪	-11.082
108	-11.0826
売	-11.0827
作戦	-11.0827
間の	-11.0829
107	-11.0831
terms	-11.0831
思想	-11.0838
glen	-11.0838
没	-11.0841
ال	-11.0842
上海	-11.0843
kay	-11.085
スタジアム	-11.0851
traffic	-11.0854
アカデミー	-11.0854
レーベル	-11.0857
cio	-11.0857
通称	-11.0858
bush	-11.0861
spirit	-11.0861
donald	-11.0864
trains	-11.0865
gs	-11.0866
rl	-11.0866
持ち	-11.0867
tub	-11.0867
生物	-11.0871
(2003).	-11.0874
案内	-11.0874
makes	-11.0877
で行われた	-11.0877
かつては	-11.0877
セイ	-11.0878
功	-11.088
ić	-11.0883
prison	-11.0883
に参加	-11.0884
専用	-11.0886
hum	-11.0887
時期	-11.0887
bachelor	-11.0888
能力	-11.089
shell	-11.0891
ミス	-11.0893
いい	-11.0894
-08-	-11.0894
‐	-11.0894
ika	-11.0895
輸送	-11.0899
hamilton	-11.0901
build	-11.0902
江戸時代	-11.0903
プロフィール	-11.0906
trophy	-11.0907
栃木県	-11.0909
実施	-11.0909
エア	-11.0909
storm	-11.091
デュ	-11.0911
1998.	-11.0913
experience	-11.0914
日時点のオリジナルよりアーカイブ	-11.0916
》	-11.0917
地下	-11.0921
世界の	-11.0922
votes	-11.0923
軍事	-11.0924
mond	-11.0928
笠	-11.0928
db	-11.0928
直接	-11.0929
rivers	-11.0931
《	-11.0933
ファイル	-11.0934
山口県	-11.0934
fields	-11.0934
norman	-11.0936
就任	-11.0942
魔	-11.0943
hell	-11.0943
significant	-11.0944
μ	-11.0944
法律	-11.0945
goes	-11.0945
哲	-11.0948
チュ	-11.0949
ado	-11.0949
ava	-11.095
tang	-11.0952
adult	-11.0952
静岡	-11.0952
同時に	-11.0953
工学	-11.0955
(2005)	-11.0958
ルイ	-11.0959
gli	-11.0961
uro	-11.0961
pont	-11.0964
125	-11.0964
oklahoma	-11.0964
relations	-11.0965
transportation	-11.0966
ret	-11.0967
properties	-11.0969
途中	-11.0972
コンピュータ	-11.0974
managed	-11.0976
welsh	-11.0979
ガル	-11.098
stay	-11.098
ダル	-11.098
同社	-11.0987
発生	-11.0987
elder	-11.0987
lanka	-11.0993
chain	-11.0995
lett	-11.0998
emperor	-11.0999
青年	-11.1
國	-11.1
leaving	-11.1001
斉	-11.1004
vr	-11.1004
possible	-11.1005
会場	-11.1006
oid	-11.1006
文書	-11.1008
trial	-11.1011
projects	-11.1016
ی	-11.1016
後期	-11.1019
藩主	-11.1019
qa	-11.1023
bang	-11.1023
1874	-11.1023
ラル	-11.1024
door	-11.1026
50.	-11.1028
費	-11.1033
transferred	-11.1033
ボル	-11.1033
rac	-11.1036
アリ	-11.1036
shire	-11.1036
grew	-11.1036
bow	-11.1037
如	-11.1038
arkansas	-11.1039
bear	-11.104
はない	-11.1041
虎	-11.1042
旅行	-11.1047
charge	-11.1048
政治家	-11.1048
炎	-11.105
1999.	-11.1054
の元	-11.1055
hunter	-11.1056
diego	-11.1058
ウィリアム	-11.1058
launch	-11.1059
談	-11.106
新聞社	-11.106
しま	-11.106
刊行	-11.1062
extended	-11.1062
ld	-11.1063
compete	-11.1069
roger	-11.107
テレビ東京	-11.107
はこの	-11.1073
episodes	-11.1074
schedule	-11.1074
singapore	-11.1076
日本人	-11.1077
wil	-11.1079
subject	-11.1082
clar	-11.1083
hours	-11.1083
coll	-11.1083
stor	-11.1087
sara	-11.1092
letters	-11.1093
労働	-11.1093
rah	-11.1096
するために	-11.1099
出し	-11.1107
卒	-11.1107
brazilian	-11.1107
ゲスト	-11.1108
thy	-11.1111
hosted	-11.1111
地図	-11.1111
passed	-11.1112
chapter	-11.1112
succeeded	-11.1113
を持ち	-11.1115
降	-11.1116
1877	-11.1117
palace	-11.1119
heavy	-11.1119
arabic	-11.1119
移転	-11.1121
fen	-11.1122
د	-11.1128
hd	-11.1128
脳	-11.1132
move	-11.1134
地下鉄	-11.1135
トム	-11.1135
background	-11.1144
2/	-11.1145
seats	-11.1147
divided	-11.1148
rico	-11.1149
きた	-11.115
無料	-11.1151
が行われた	-11.1155
加入	-11.1156
鹿児島	-11.1158
減	-11.1159
地元	-11.1164
pala	-11.1165
leaf	-11.1171
eric	-11.1171
助教授	-11.1177
ボール	-11.1178
photos	-11.118
アイドル	-11.1181
脱	-11.1185
»	-11.1186
picture	-11.1188
支部	-11.1191
哲学	-11.1193
商業	-11.1194
carlos	-11.1194
promotion	-11.1196
するため	-11.1197
セント	-11.1198
浪	-11.1198
по	-11.1198
基準	-11.12
shop	-11.12
梨	-11.1202
jonathan	-11.1203
ほぼ	-11.1204
カラー	-11.1205
pel	-11.1206
42.	-11.121
坊	-11.1213
helped	-11.1213
ント	-11.1217
パス	-11.1218
margaret	-11.1219
支	-11.1221
です	-11.1229
大野	-11.1231
ł	-11.1231
ブラック	-11.1231
コンサート	-11.1233
circle	-11.1233
nav	-11.1234
に移転	-11.1234
剛	-11.1235
physics	-11.1235
tia	-11.1236
suit	-11.1237
住民	-11.1238
臣	-11.124
rome	-11.1241
を受けて	-11.1244
デス	-11.1244
marc	-11.1244
されていない	-11.1247
割	-11.1247
ていたが	-11.1249
crown	-11.1249
environmental	-11.1252
これらの	-11.1253
先生	-11.1254
始	-11.1255
anniversary	-11.1255
43.	-11.1257
rated	-11.1257
しりつ	-11.1258
lig	-11.1263
銃	-11.1263
aj	-11.1263
対象	-11.1266
劇	-11.1269
electronic	-11.1269
guest	-11.1269
kt	-11.1269
hindu	-11.127
ディレクター	-11.127
sul	-11.1271
rn	-11.1272
numbers	-11.1275
、1989	-11.1275
finance	-11.1278
処理	-11.1282
happy	-11.1287
絶	-11.1292
マッ	-11.1297
連絡	-11.1299
の中	-11.1301
至	-11.1302
harvard	-11.1307
斎	-11.1308
quebec	-11.131
備	-11.1311
昇	-11.1312
〉、	-11.1312
-01-	-11.1313
yard	-11.1315
cycling	-11.1316
referred	-11.1321
と改称	-11.1321
gro	-11.1321
elli	-11.1324
スペイン語	-11.1324
軌道	-11.1326
£	-11.1327
広島県	-11.1328
bet	-11.1328
に由来する	-11.1331
享年	-11.1333
dick	-11.1334
value	-11.1335
市役所	-11.1335
biology	-11.1336
kevin	-11.1337
density	-11.1337
自身の	-11.134
書院	-11.134
purchased	-11.1342
際	-11.1343
alliance	-11.1346
2011).	-11.1346
駒	-11.1346
(*	-11.1346
grove	-11.1348
、1998	-11.1349
mega	-11.1349
掲載	-11.1352
全長	-11.1357
wrestling	-11.1358
改革	-11.136
登場	-11.136
額	-11.1361
フィー	-11.1361
設定	-11.1363
フォード	-11.1364
作業	-11.1366
(18	-11.1366
containing	-11.1367
leave	-11.137
長野	-11.137
金属	-11.1371
条件	-11.1374
アウト	-11.1374
bern	-11.138
pictures	-11.1381
設備	-11.1382
言葉	-11.1382
sey	-11.1386
、1994	-11.1388
(2006)"	-11.1391
に収録	-11.1394
serbian	-11.1399
運	-11.1399
ming	-11.14
romanized	-11.1402
声優	-11.1402
を取り	-11.1404
portugal	-11.1408
dublin	-11.1408
baker	-11.1409
イラスト	-11.1409
sources	-11.141
大分県	-11.1412
(2006).	-11.1413
、1995	-11.1414
眼	-11.1415
chang	-11.1416
がわ	-11.1418
teaching	-11.1418
決	-11.1419
imperial	-11.142
のお知らせ	-11.142
日記	-11.1423
成績	-11.1424
grass	-11.1425
(2)	-11.1425
primarily	-11.1429
従	-11.143
早稲田大学	-11.1431
過	-11.1432
クレ	-11.1434
convention	-11.1435
を受ける	-11.1436
の廃止市町村一覧	-11.1437
graph	-11.1438
面積	-11.144
educational	-11.1444
mobile	-11.1446
あき	-11.1447
サイド	-11.1449
url	-11.1454
主題歌	-11.1455
2-1	-11.1456
大賞	-11.1458
focus	-11.1458
2.0	-11.1458
中島	-11.1459
広場	-11.1461
romania	-11.1467
kings	-11.1467
上で	-11.1478
designer	-11.1478
ə	-11.1478
zh	-11.1479
-17	-11.148
蘭	-11.1485
taught	-11.1486
follows	-11.1489
自ら	-11.1493
週	-11.1506
長崎県	-11.1506
エネルギー	-11.1512
価	-11.1513
programming	-11.1513
offers	-11.1514
青森県	-11.1514
妹	-11.1524
tribune	-11.1524
defence	-11.1524
ード	-11.1525
harris	-11.1528
の名前	-11.153
yet	-11.1533
前田	-11.1537
why	-11.1537
略	-11.1538
oma	-11.1539
出典	-11.1539
ソ連	-11.1541
なら	-11.1543
大阪市	-11.1544
徳島県	-11.1545
山形県	-11.1548
、1996	-11.1549
2001,	-11.1549
軸	-11.155
克	-11.1551
棟	-11.1552
want	-11.1552
1-5	-11.1553
brick	-11.1555
、1999	-11.1556
lop	-11.1556
lyn	-11.1556
gary	-11.1557
創業	-11.1557
1′′	-11.1558
organized	-11.1558
愛媛県	-11.1559
(2008)	-11.1563
クロス	-11.1564
rey	-11.1564
角川書店	-11.1568
kid	-11.1569
中国語	-11.157
function	-11.157
遺	-11.1575
の作品	-11.1581
una	-11.1586
officially	-11.1588
精神	-11.1588
としても	-11.1589
alone	-11.1594
oka	-11.1595
recently	-11.1597
chess	-11.1604
者は	-11.1606
1864	-11.1609
mma	-11.1609
certain	-11.1611
できない	-11.1612
氷	-11.1615
せず	-11.162
山梨県	-11.1623
政党	-11.1624
ソロ	-11.1627
名の	-11.1628
柱	-11.163
高等	-11.1631
ys	-11.1631
twice	-11.1635
叢書	-11.1636
cbs	-11.1637
統一	-11.1637
christmas	-11.1638
planning	-11.1638
vy	-11.1639
作曲家	-11.1639
そのまま	-11.164
ゴール	-11.164
basic	-11.1642
テレビドラマ	-11.1642
撃	-11.1646
ことが多い	-11.1646
2002,	-11.1648
ゆき	-11.165
なん	-11.1653
euro	-11.1654
高い	-11.1654
沖縄県	-11.1655
frame	-11.1656
х	-11.1657
pit	-11.1657
169	-11.1657
lat	-11.1658
山形	-11.166
半島	-11.1663
communes	-11.1664
にして	-11.1668
aired	-11.1669
覚	-11.167
までは	-11.1672
exhibition	-11.1672
コロ	-11.1674
接続	-11.1676
palm	-11.1679
reports	-11.1681
kk	-11.1683
stad	-11.1684
(2005).	-11.1684
sten	-11.1684
always	-11.1688
(2007).	-11.1688
皇	-11.1689
volleyball	-11.1691
adams	-11.1691
収	-11.1691
に位置し	-11.1693
lawrence	-11.1694
num	-11.1695
ライフ	-11.1696
publishers	-11.17
演劇	-11.1704
austrian	-11.1704
体育	-11.1706
生き	-11.1706
つき	-11.1708
分校	-11.1709
gol	-11.1713
jer	-11.1713
フィールド	-11.1713
nr	-11.1713
carr	-11.1714
対策	-11.1719
皇帝	-11.1719
床	-11.172
piece	-11.172
visual	-11.1721
(2010)	-11.1721
180	-11.1723
%20	-11.1724
indonesia	-11.1729
エリア	-11.1732
標準	-11.1733
0-1	-11.1734
aka	-11.1734
kur	-11.1735
driver	-11.1737
kick	-11.1738
kol	-11.174
スコ	-11.1742
div	-11.1745
collections	-11.1745
、1992	-11.1748
gur	-11.1748
oldest	-11.175
rang	-11.1757
フラ	-11.1758
ドリ	-11.1758
納	-11.1763
0%	-11.1763
rell	-11.1765
保存	-11.1768
ィ	-11.1769
ジャケット	-11.1777
jordan	-11.1777
啓	-11.1777
cum	-11.1777
猫	-11.1778
重要な	-11.1781
characters	-11.1783
(2003)	-11.1784
telegraph	-11.1787
ufc	-11.1789
bangladesh	-11.1789
#1	-11.1791
岐阜	-11.1792
のもの	-11.1792
基地	-11.1793
gazetteer	-11.1793
1865	-11.1795
freedom	-11.1797
tell	-11.1799
facilities	-11.1801
寧	-11.1801
102	-11.1802
を担当	-11.1802
reading	-11.1803
32.	-11.1806
ニン	-11.1806
flower	-11.1808
週刊	-11.1809
論文	-11.1812
電力	-11.1813
ë	-11.1814
hugh	-11.1816
authors	-11.1816
北区	-11.1819
supported	-11.1821
市出身	-11.1822
pink	-11.1827
発足	-11.1827
スタイル	-11.1829
項	-11.183
104	-11.183
001	-11.1833
nelson	-11.1833
pf	-11.1835
shaw	-11.1835
投	-11.1835
appears	-11.1839
おか	-11.1841
nepal	-11.1841
。2010	-11.1842
ピン	-11.1844
支配	-11.1845
ではない	-11.1846
料	-11.1849
神経	-11.1849
、1997	-11.1851
squadron	-11.1852
イオン	-11.1857
signal	-11.1858
vert	-11.1865
df	-11.1865
益	-11.1867
für	-11.187
ical	-11.187
representing	-11.1871
backing	-11.1873
(1999	-11.1873
globe	-11.1873
nord	-11.1875
romanian	-11.1875
5000	-11.1877
小さな	-11.1878
switzerland	-11.188
新宿	-11.188
同盟	-11.1883
完全	-11.1883
rho	-11.1884
labor	-11.1887
ケー	-11.1889
holds	-11.189
ウィン	-11.189
系列	-11.189
駅から	-11.189
に対し	-11.1892
pub	-11.1896
pers	-11.1896
osa	-11.1898
最大の	-11.1898
、1993	-11.1898
れる	-11.1898
スタン	-11.1901
136	-11.1903
奇	-11.1903
川崎	-11.1903
おり	-11.1907
浅	-11.1909
をする	-11.1914
那	-11.1916
tropical	-11.1917
gam	-11.1917
不明	-11.1917
bibcode	-11.1918
ique	-11.1918
』、『	-11.192
protein	-11.1921
選出	-11.1921
小川	-11.1922
aff	-11.1923
finland	-11.1925
inhabitants	-11.1927
iff	-11.1931
ヴェル	-11.1934
beyond	-11.1934
辞典	-11.1936
失	-11.1937
小野	-11.1938
onia	-11.1938
ima	-11.194
pier	-11.1942
2018).	-11.1943
shah	-11.1947
劇団	-11.1949
(2009)	-11.1951
commissioner	-11.1951
103	-11.1951
mf	-11.1955
integrated	-11.1955
weather	-11.1959
を開始	-11.196
bruce	-11.1962
遺跡	-11.1964
tip	-11.1966
nasa	-11.1967
workers	-11.1968
nk	-11.1968
ガール	-11.1969
larger	-11.197
5′′	-11.1974
geonet	-11.1976
さい	-11.1978
小型	-11.198
bla	-11.1981
rou	-11.1983
headquarters	-11.1984
賞を受賞	-11.1984
print	-11.1986
幕	-11.1986
金曜	-11.1989
マス	-11.1993
由来	-11.1996
scoring	-11.1998
1,000	-11.2
weeks	-11.2001
高速	-11.2002
人は	-11.2002
を除く	-11.2007
formula	-11.2009
canal	-11.201
translated	-11.2011
billy	-11.2011
treatment	-11.2011
lip	-11.2012
responsible	-11.2014
mph	-11.2015
feed	-11.2018
部の	-11.2018
ت	-11.2018
ни	-11.2019
モスクワ	-11.202
旭	-11.2022
allowed	-11.2025
consist	-11.2026
studios	-11.2026
ヴァル	-11.203
54.	-11.2031
(2004)	-11.2032
リュー	-11.2033
済	-11.2034
クー	-11.2035
animal	-11.2038
ペル	-11.2039
alabama	-11.204
の息子	-11.204
assigned	-11.2042
165	-11.2042
things	-11.2042
考え	-11.2043
bos	-11.2043
songwriter	-11.2043
jin	-11.2047
散	-11.2049
ε	-11.2052
45.	-11.2052
つく	-11.2054
ポリ	-11.2058
皮	-11.2059
糸	-11.206
教師	-11.2061
greece	-11.2062
peru	-11.2066
sham	-11.2067
並	-11.2069
イングランド	-11.207
ceo	-11.2071
2018,	-11.2072
首相	-11.2073
33.	-11.2077
金沢	-11.2079
ø	-11.2084
初めて	-11.2085
同じく	-11.2086
同日	-11.2087
touch	-11.2088
ра	-11.209
ベトナム	-11.2091
引き	-11.2093
朝日新聞	-11.2095
reform	-11.2095
writers	-11.2097
longer	-11.2098
failed	-11.2098
軍の	-11.2101
内閣	-11.2102
157	-11.2102
turned	-11.2105
高田	-11.2106
chin	-11.2108
所在地	-11.2109
robin	-11.2114
コムーネ	-11.2114
rei	-11.2119
unincorporated	-11.2121
合成	-11.2124
市川	-11.2125
dragon	-11.2126
strip	-11.2126
155	-11.2126
を示す	-11.2127
berry	-11.2127
ハル	-11.2128
キュ	-11.2128
kun	-11.213
liv	-11.2131
circuit	-11.2132
部屋	-11.2134
reg	-11.2135
もしくは	-11.2136
missing	-11.2136
nuclear	-11.2137
evening	-11.2142
vit	-11.2144
カリ	-11.2147
当駅	-11.2149
shown	-11.2149
plans	-11.215
kelly	-11.2151
operating	-11.2151
lich	-11.2154
princess	-11.2155
neighborhood	-11.2158
ミル	-11.2159
五郎	-11.2162
tall	-11.2165
テーマ	-11.2166
satellite	-11.2166
カバー	-11.2166
lap	-11.2172
ges	-11.2173
ジャック	-11.2174
elements	-11.2174
プロダクション	-11.2174
zar	-11.2174
の一人	-11.2179
taxonomic	-11.2181
のか	-11.2182
-15	-11.2185
gn	-11.2188
形態	-11.2189
ようになった	-11.2189
2010).	-11.2189
のお	-11.2191
マガジン	-11.2198
dev	-11.2199
バレーボール	-11.22
原題	-11.22
河内	-11.2201
impact	-11.2202
thompson	-11.2204
description	-11.2205
target	-11.2207
tab	-11.2207
concept	-11.2212
egypt	-11.2213
·	-11.2213
-05-	-11.2214
fal	-11.2218
endemic	-11.2222
ハート	-11.2225
beautiful	-11.2225
研	-11.2229
保険	-11.2229
couple	-11.2229
恩	-11.2231
フレ	-11.2233
ui	-11.2235
うち	-11.2235
luis	-11.2238
papers	-11.2238
が存在する	-11.2238
大学の	-11.2238
復帰	-11.2238
施行	-11.224
kumar	-11.2242
されたが	-11.2243
pla	-11.2244
アム	-11.2245
apportionment	-11.2245
«	-11.2246
投票	-11.2249
に登場する	-11.2249
はその	-11.225
1863	-11.225
height	-11.2252
wright	-11.2253
campbell	-11.2253
lists	-11.2254
カメラ	-11.2255
philosophy	-11.2257
syn	-11.2258
ι	-11.226
scale	-11.2261
qualifying	-11.2263
morgan	-11.2265
コレクション	-11.2265
ぬ	-11.2266
younger	-11.2269
雑	-11.2269
基本	-11.227
remaining	-11.2271
行われた	-11.2271
時には	-11.2275
victor	-11.2276
3000	-11.2277
ジョー	-11.2278
cker	-11.228
rol	-11.2283
rama	-11.2284
barry	-11.2285
fk	-11.2286
空間	-11.2289
徳島	-11.2289
44.	-11.2289
athlete	-11.229
闘	-11.2291
matthew	-11.2295
hang	-11.2296
治療	-11.2297
і	-11.2298
ability	-11.2298
亀	-11.2299
訓練	-11.2302
file	-11.2304
韓	-11.2305
murray	-11.2305
1862	-11.2309
particular	-11.2311
bis	-11.2314
ルート	-11.2315
kawa	-11.2318
中国の	-11.2319
ensembl	-11.2321
tank	-11.2323
percussion	-11.2329
に移籍	-11.2329
臨	-11.2331
chamber	-11.2333
gained	-11.2334
ゲル	-11.2337
ユース	-11.2341
丁	-11.2345
mala	-11.2345
nacional	-11.2347
probably	-11.235
roof	-11.2351
分析	-11.2351
bir	-11.2355
zz	-11.2359
区域	-11.2361
heat	-11.2362
discography	-11.2362
仕	-11.2362
taka	-11.2364
1-4	-11.2364
acres	-11.2368
lag	-11.2368
puerto	-11.2369
ties	-11.2372
stewart	-11.2374
成長	-11.2375
鳴	-11.2377
compilation	-11.2378
solar	-11.2378
ていない	-11.2379
reporter	-11.2379
bright	-11.2381
チャン	-11.2382
8′′	-11.2383
ング	-11.2384
whole	-11.2384
自分	-11.2385
1867	-11.2387
48.	-11.2389
retirement	-11.2391
その後は	-11.2391
â	-11.2392
戦闘	-11.2393
呂	-11.2397
理事長	-11.24
nica	-11.2405
助手	-11.2406
0.1	-11.2407
intelligence	-11.2409
atus	-11.241
rz	-11.2411
brief	-11.2412
もあり	-11.2412
dna	-11.2413
belgium	-11.2413
houston	-11.2414
municipalities	-11.2417
県の	-11.2419
user	-11.2423
広く	-11.2428
safety	-11.2428
ili	-11.2429
account	-11.243
saturday	-11.2431
aga	-11.2432
communist	-11.2434
cold	-11.2434
ポート	-11.2435
決勝	-11.2436
iri	-11.2439
者が	-11.244
佐々木	-11.2443
tak	-11.2446
2008-06-01.	-11.2447
growth	-11.2449
cad	-11.2449
地震	-11.2449
川町	-11.2449
teryt	-11.2451
rep	-11.2452
ヒット	-11.2454
thailand	-11.2454
理由	-11.2457
def	-11.2457
とも呼ばれる	-11.246
spread	-11.246
島の	-11.2462
(2008).	-11.2468
entrance	-11.2469
swimming	-11.2469
drug	-11.247
phase	-11.247
etc	-11.2471
上田	-11.2472
欧州	-11.2473
xx	-11.2473
事務	-11.2474
れば	-11.2483
1868	-11.2483
オフ	-11.2484
clicking	-11.2489
yoshi	-11.2489
、1987	-11.249
monument	-11.2491
cabinet	-11.2491
唯一の	-11.2491
消防	-11.2492
hung	-11.2493
independence	-11.2494
beetle	-11.2498
6′′	-11.2498
portion	-11.2501
ç	-11.2501
founding	-11.2508
gets	-11.2509
ichi	-11.251
していない	-11.251
菊	-11.251
stated	-11.2514
already	-11.2514
quin	-11.2516
キリスト教	-11.252
れた	-11.2521
次の	-11.2522
ウル	-11.2523
bold	-11.2524
かな	-11.2525
jet	-11.2526
我	-11.2529
初期	-11.2532
平凡社	-11.2534
銅	-11.2535
0-8	-11.2538
駐車場	-11.2539
defeat	-11.2539
松山	-11.2542
仕様	-11.2542
天正	-11.2549
159	-11.255
ama	-11.2551
入門	-11.2552
economics	-11.2556
flow	-11.2557
(+	-11.2557
以外の	-11.2559
1500	-11.2561
dig	-11.2563
jacob	-11.2566
connecticut	-11.2571
sm	-11.2573
かず	-11.2575
徹	-11.2575
クト	-11.2576
オリ	-11.2576
thai	-11.2576
bond	-11.2577
亭	-11.2577
kit	-11.258
alongside	-11.258
(3):	-11.2582
vu	-11.2585
-16	-11.2585
uli	-11.2586
(2001)	-11.2586
講座	-11.2589
1996.	-11.259
mori	-11.259
partner	-11.2594
ガイド	-11.2596
家庭	-11.2596
錦	-11.2598
、1991	-11.2598
朱	-11.2602
graphic	-11.2603
cano	-11.2604
目的	-11.2608
moto	-11.261
document	-11.2614
denmark	-11.2614
季	-11.262
hunt	-11.2622
姉妹	-11.2622
マイケル	-11.2622
defined	-11.2623
156	-11.2625
アク	-11.2626
村上	-11.2627
丹	-11.2628
中川	-11.2629
準優勝	-11.2629
発見	-11.263
ベルリン	-11.263
craig	-11.2633
朗	-11.2641
vall	-11.2644
0.5	-11.2645
з	-11.2648
dot	-11.2649
福井	-11.265
images	-11.265
ッカー	-11.2651
分離	-11.2653
★	-11.2655
infantry	-11.2656
刊	-11.2657
æ	-11.2659
750	-11.266
被	-11.266
guinea	-11.2661
wildlife	-11.2662
applied	-11.2662
浮	-11.2663
っており	-11.2664
rule	-11.2666
franc	-11.2671
luc	-11.2671
程度	-11.2671
ことができる	-11.2672
辻	-11.2673
腹	-11.2674
ntt	-11.2679
程	-11.268
名誉	-11.2682
受け	-11.2682
大陸	-11.2684
本作	-11.2684
138	-11.2688
州の	-11.2689
gabriel	-11.2689
hey	-11.269
protection	-11.2691
大学教授	-11.2694
mura	-11.2696
symbol	-11.2696
するなど	-11.2696
johnny	-11.2697
expedition	-11.2699
τ	-11.2701
存在	-11.2702
г	-11.2702
iaaf	-11.2703
composition	-11.2703
の家	-11.2705
ukraine	-11.2705
elementary	-11.2705
uz	-11.2705
dou	-11.2707
normal	-11.2708
腕	-11.2712
ن	-11.2713
learning	-11.2714
zero	-11.2714
simple	-11.2714
utah	-11.2715
forum	-11.2716
名義	-11.2716
石川県	-11.272
名が	-11.2722
communities	-11.2724
kas	-11.2725
ッタ	-11.2725
graham	-11.2728
taiwan	-11.273
敷	-11.2731
長い	-11.2731
uch	-11.2732
46.	-11.2732
厳	-11.2736
ь	-11.2736
silent	-11.2738
lincoln	-11.2738
総務省	-11.2744
ug	-11.2745
オンライン	-11.2748
1866	-11.2748
tch	-11.275
alfred	-11.2752
4′′	-11.2753
ends	-11.2753
高知	-11.2753
秘	-11.2761
哉	-11.2762
バス停	-11.2763
配置	-11.2765
universal	-11.2765
1861	-11.2767
、1980	-11.277
1-0	-11.277
創設	-11.2772
ーナ	-11.2773
方向	-11.2774
昇格	-11.2774
session	-11.2775
flying	-11.2775
blu	-11.2776
figures	-11.2776
surrounding	-11.2777
ゴルフ	-11.2777
performing	-11.2777
ソフトウェア	-11.2782
歌詞	-11.2782
しく	-11.2782
(1998	-11.2783
vietnam	-11.2785
drop	-11.2787
issued	-11.2787
1850	-11.2788
スル	-11.279
agreement	-11.279
hair	-11.2797
jason	-11.2799
時点で	-11.2801
pho	-11.2803
の森	-11.2804
1991.	-11.2804
機器	-11.2806
effect	-11.2809
名誉教授	-11.281
ウェ	-11.2812
ネル	-11.2813
visit	-11.2814
梁	-11.2815
書籍	-11.2816
可能	-11.2816
となって	-11.2818
にし	-11.2818
スタート	-11.2819
montreal	-11.2819
プール	-11.2825
返	-11.2829
1997.	-11.283
manuel	-11.2831
raz	-11.2833
侯	-11.2834
の父	-11.2834
journey	-11.2837
wr	-11.2838
億	-11.2839
9′′	-11.2841
に入り	-11.2842
思	-11.2844
和田	-11.2845
ツァ	-11.2847
有名	-11.2848
コール	-11.2849
改	-11.2853
、2017	-11.2853
evidence	-11.2855
borg	-11.2855
各種	-11.2856
mara	-11.2858
shape	-11.2861
attorney	-11.2861
、1988	-11.2861
周年記念	-11.2862
ists	-11.2864
説明	-11.2865
さき	-11.2866
ヒル	-11.2867
detail	-11.2868
household	-11.2869
combined	-11.2871
jump	-11.2872
4-8	-11.2872
bak	-11.2874
ل	-11.2874
nus	-11.2874
シャン	-11.2875
サム	-11.2881
しょうがっこう	-11.2883
全て	-11.2885
(1998)	-11.2887
双	-11.2888
hydro	-11.2888
acoustic	-11.2891
add	-11.2892
moths	-11.2894
passenger	-11.2895
ヴィン	-11.2896
1999,	-11.2897
彼女	-11.29
rica	-11.2903
恒	-11.2906
閉鎖	-11.2907
wad	-11.2908
一人	-11.291
リュ	-11.2912
当選	-11.2914
'".	-11.2916
サラ	-11.2917
虫	-11.292
市内	-11.292
更新	-11.2921
pack	-11.2923
ブック	-11.2928
舟	-11.2932
rough	-11.2933
kos	-11.294
tum	-11.294
したもの	-11.294
fell	-11.2941
みや	-11.2942
pair	-11.2943
mut	-11.2944
成功	-11.2945
maximum	-11.2946
kinenote	-11.2954
太平洋	-11.2956
phon	-11.2956
バスケットボール	-11.2957
ivan	-11.2959
wei	-11.2959
tribe	-11.296
川の	-11.2961
ハンガリー	-11.2961
joy	-11.2961
中継局	-11.2962
keyboards	-11.2963
legend	-11.2965
電鉄	-11.2965
紫	-11.2966
ox	-11.2967
と呼ぶ	-11.2968
の開発	-11.2968
bath	-11.2968
baptist	-11.2972
glasgow	-11.2973
高山	-11.2975
秦	-11.2975
体制	-11.2978
の成績	-11.2979
cart	-11.2979
傷	-11.298
てん	-11.2982
尻	-11.2983
ラグビー	-11.2986
colonel	-11.2987
larry	-11.2987
roster	-11.2989
2009).	-11.2992
commissioned	-11.2993
広報	-11.2995
夕	-11.2995
inner	-11.2997
roads	-11.2997
願	-11.2998
育	-11.3002
山崎	-11.3003
倍	-11.3003
lus	-11.3008
3′′	-11.3008
2}}}	-11.3015
歴代	-11.3015
phone	-11.3018
astro	-11.3019
select	-11.3025
mg	-11.3025
obituary	-11.3026
許	-11.3028
名前	-11.303
取得	-11.3031
dent	-11.3031
neuro	-11.3032
49.	-11.3034
mrs	-11.3036
moore	-11.3037
ショ	-11.3039
村立	-11.3039
琴	-11.304
、1986	-11.3041
けんどう	-11.3041
mississippi	-11.3044
true	-11.3044
ologist	-11.3045
(2011).	-11.3047
経済学	-11.3047
span	-11.3048
mot	-11.3048
上げ	-11.3048
カス	-11.3049
gardens	-11.3049
示	-11.3052
男女	-11.3053
forced	-11.3053
すぐ	-11.3058
xp	-11.3058
sad	-11.3058
電話	-11.306
目の	-11.306
raja	-11.3062
検	-11.3064
lik	-11.3066
aut	-11.3068
柔道	-11.307
dub	-11.307
滋賀県	-11.3071
cool	-11.3075
いている	-11.3076
復	-11.3076
ニング	-11.3078
gain	-11.3079
メー	-11.3083
derived	-11.3089
宋	-11.3089
cp	-11.309
卒業後	-11.3091
residents	-11.3096
人民	-11.3096
ウェル	-11.3099
oct	-11.31
いく	-11.3103
hom	-11.3105
を果たした	-11.3106
particularly	-11.3107
elevation	-11.3107
イヤー	-11.3108
イメージ	-11.3108
leadership	-11.3109
uci	-11.311
accident	-11.3114
hms	-11.3115
qi	-11.3117
caf	-11.3119
moor	-11.312
gio	-11.312
射	-11.3122
呼	-11.3123
yr	-11.3126
movies	-11.3126
姉	-11.3127
feld	-11.3127
ht	-11.3128
17°	-11.3128
容	-11.3132
aro	-11.3132
-18	-11.3135
律	-11.3135
(2012).	-11.3136
austin	-11.3138
などがある	-11.3139
習	-11.314
nen	-11.314
170	-11.314
ザン	-11.3143
型の	-11.3146
迫	-11.3147
miami	-11.3148
peninsula	-11.3148
の上	-11.3148
agricultural	-11.3149
衆	-11.3151
nearly	-11.3152
ヤング	-11.3153
チョ	-11.3153
たちの	-11.3154
problems	-11.3155
address	-11.3159
快	-11.316
場合は	-11.316
主催	-11.316
frac	-11.3161
念	-11.3163
からなる	-11.3163
climate	-11.3165
cb	-11.3166
wc	-11.3166
月より	-11.3169
ブー	-11.317
medals	-11.3172
吹	-11.3173
dong	-11.3174
当時は	-11.3174
導	-11.3175
ネー	-11.3176
チャンピオン	-11.3177
土曜	-11.3177
-3.	-11.3179
ゴン	-11.3179
warren	-11.3182
奈良県	-11.3182
顧問	-11.3183
を発表	-11.3184
本町	-11.3187
manual	-11.3188
豪	-11.3188
bud	-11.3188
nil	-11.319
交換	-11.3192
barbara	-11.3193
日現在	-11.3193
vir	-11.3197
seventh	-11.32
47.	-11.3201
全域	-11.3201
承	-11.3201
崇	-11.3201
町にある	-11.3203
minute	-11.3204
ls	-11.3204
mud	-11.3206
says	-11.3208
productions	-11.3209
消	-11.3209
tta	-11.321
wayne	-11.321
5,000	-11.321
ub	-11.3211
のほか	-11.3211
medieval	-11.3215
和歌山県	-11.3215
ロバート	-11.3217
検索	-11.3218
น	-11.322
協議会	-11.3222
greatest	-11.3222
publisher	-11.3226
barr	-11.3226
愛知	-11.3228
県の県道一覧	-11.3232
mous	-11.3232
morris	-11.3232
bernard	-11.3233
dir	-11.3233
350	-11.3234
communication	-11.3234
色の	-11.3235
prefecture	-11.3237
デンマーク	-11.3239
新たに	-11.3239
pradesh	-11.3239
137	-11.3239
chronicle	-11.3239
小倉	-11.324
mentioned	-11.3242
ssen	-11.3243
橋本	-11.3244
3-0	-11.3248
3.0	-11.325
ral	-11.3251
をしている	-11.3255
アーカイブ	-11.3256
residence	-11.3257
医師	-11.3258
ρ	-11.3259
md	-11.3259
ible	-11.3261
しき	-11.3263
string	-11.3264
振	-11.3265
:10.1016/	-11.3266
まつ	-11.3266
rig	-11.327
拡大	-11.3271
louisiana	-11.3272
jimmy	-11.3273
ро	-11.3274
soft	-11.3275
senator	-11.3279
置	-11.3281
(2002).	-11.3281
僕	-11.3283
ages	-11.3283
月場所	-11.3284
プログラム	-11.3285
件	-11.3285
新人	-11.3286
lind	-11.3289
てきた	-11.3297
baltimore	-11.3297
底	-11.3298
を流れる	-11.3298
ways	-11.33
短期大学	-11.3302
西経	-11.3303
キャスター	-11.3305
かみ	-11.3306
twin	-11.3306
課長	-11.3311
collins	-11.3312
晃	-11.3312
neil	-11.3312
軒	-11.3313
progress	-11.3314
金融	-11.3315
定義	-11.3315
ソウル	-11.3316
高知県	-11.3318
believe	-11.3318
切り	-11.3319
illustrated	-11.332
bomb	-11.3322
choice	-11.3322
及	-11.3325
bulletin	-11.3326
全集	-11.3327
(1997	-11.3327
offered	-11.3327
enough	-11.3328
上に	-11.3329
nbc	-11.3329
イタリアの	-11.333
coal	-11.3331
岩波書店	-11.3332
organisation	-11.3336
presidential	-11.3336
衛星	-11.3337
検査	-11.3337
駐	-11.3339
算	-11.3341
職員	-11.3341
skin	-11.3346
共訳	-11.3346
時代に	-11.3346
critical	-11.3352
growing	-11.3352
クラシック	-11.3354
僧	-11.3355
turner	-11.3357
鷹	-11.3358
são	-11.3359
弱	-11.3359
年頃	-11.3361
書き	-11.3363
評	-11.3363
。2009	-11.3363
σ	-11.3367
dates	-11.3368
rolling	-11.3369
物質	-11.337
マク	-11.3371
を見	-11.3371
リリースされた	-11.3372
perfect	-11.3377
aba	-11.338
individuals	-11.3381
ations	-11.3381
creation	-11.3383
0-3	-11.3384
。2007	-11.3386
(2000).	-11.3386
想	-11.3387
marshall	-11.3388
券	-11.339
1.0	-11.339
欠	-11.3392
1871	-11.3393
ography	-11.3393
recognized	-11.3395
carried	-11.3398
susan	-11.3399
leigh	-11.3401
万人	-11.3401
bound	-11.3401
mani	-11.3405
(2002)	-11.3409
南西	-11.3413
プロ野球	-11.3414
parties	-11.3415
activity	-11.3416
chance	-11.3417
connected	-11.3417
banks	-11.3418
bulgarian	-11.3418
etti	-11.3419
雷	-11.342
鋼	-11.3421
attendance	-11.3424
begins	-11.3425
aero	-11.3425
landscape	-11.3425
メント	-11.3425
(2011)	-11.3427
buy	-11.3428
sville	-11.3429
б	-11.3433
lau	-11.3434
memory	-11.3434
ともに	-11.3435
rak	-11.3438
rush	-11.3438
トーク	-11.3439
ベー	-11.3439
田町	-11.3441
変化	-11.3441
師団	-11.3441
147	-11.3445
mason	-11.3446
スウェーデン	-11.3449
standing	-11.3449
大きく	-11.3451
スカ	-11.3457
から発売された	-11.3459
、2018	-11.3462
cht	-11.3462
局長	-11.3463
文芸	-11.3463
purpose	-11.3464
trees	-11.3466
shortly	-11.347
nigeria	-11.347
リック	-11.3471
ions	-11.3473
habitat	-11.3476
updated	-11.3476
高原	-11.3477
インター	-11.3478
168	-11.3478
あった	-11.348
づ	-11.3483
サポート	-11.3484
リンク	-11.3486
ст	-11.3488
vienna	-11.3488
camera	-11.3489
冊	-11.349
factfinder	-11.349
阪	-11.3493
執筆	-11.3496
もう	-11.3496
、1981	-11.3496
ブロック	-11.3497
honour	-11.3498
発展	-11.35
hil	-11.3503
学習	-11.3504
スペース	-11.3504
360	-11.3504
は日本の	-11.3506
investment	-11.351
bha	-11.3512
初出場	-11.3516
dynasty	-11.3516
活躍	-11.3516
おう	-11.352
genera	-11.3521
keith	-11.3523
読	-11.3523
(2010).	-11.3525
gla	-11.3527
停車場線	-11.3528
ambassador	-11.3529
dem	-11.353
王子	-11.353
skating	-11.3531
2,000	-11.3532
(2009).	-11.3533
聴	-11.3533
(2000)	-11.3535
くん	-11.3535
fully	-11.3537
形で	-11.3539
masters	-11.354
sets	-11.3541
adi	-11.3544
gross	-11.3547
protected	-11.3548
brigade	-11.3548
と考えられている	-11.3551
鎌倉	-11.3555
-21	-11.3558
reason	-11.3559
locations	-11.356
箱	-11.3563
出身の人物一覧	-11.3566
nau	-11.3567
summary	-11.3568
グロ	-11.3568
1995.	-11.3568
né	-11.3573
右衛門	-11.3574
-1.	-11.3577
mia	-11.3578
係	-11.358
建物	-11.3583
soundtrack	-11.3584
の妻	-11.359
continues	-11.359
rub	-11.3592
π	-11.3592
に入社	-11.3593
lift	-11.3593
1}}}	-11.3594
penn	-11.3596
ドロ	-11.3603
feel	-11.3604
lok	-11.3607
7′′	-11.3609
ヶ月	-11.361
回転	-11.3611
耕	-11.3611
、1984	-11.3612
enter	-11.3612
のちに	-11.3615
comics	-11.362
そこで	-11.3624
復活	-11.3625
ification	-11.363
afc	-11.3631
ソニー	-11.3636
。2008	-11.3637
拠点	-11.3639
人生	-11.364
故	-11.3646
muslim	-11.3646
ghost	-11.3646
艇	-11.3647
hab	-11.3652
っと	-11.3652
giving	-11.3654
benjamin	-11.3656
discovery	-11.3656
佐賀	-11.3658
共演	-11.3661
basis	-11.3662
入学	-11.3665
té	-11.3665
選抜	-11.3667
入れ	-11.3667
収録曲	-11.3667
封	-11.3667
wai	-11.3668
universe	-11.3668
、1982	-11.3671
meters	-11.3671
学術	-11.3672
の名称	-11.3674
ello	-11.3674
株式	-11.3675
ami	-11.3678
会館	-11.3678
meta	-11.3679
ただ	-11.368
塾	-11.3681
かけ	-11.3683
victorian	-11.3686
comp	-11.3688
石井	-11.3688
がん	-11.3692
clean	-11.3693
straight	-11.3693
hua	-11.3694
体重	-11.3694
公立	-11.3694
富山県	-11.3697
儀	-11.3705
plain	-11.3706
王者	-11.3708
diamond	-11.3709
に出演	-11.3714
の間に	-11.3717
に所在	-11.3717
lib	-11.3718
steam	-11.3719
hos	-11.3726
自分の	-11.3728
belgian	-11.3735
週間	-11.3737
gm	-11.3737
郡の	-11.3738
sarah	-11.3739
initial	-11.3742
produce	-11.3748
seattle	-11.375
番目の	-11.375
proposed	-11.3751
helen	-11.3754
奏	-11.3754
年からは	-11.3757
選手権大会	-11.3757
cases	-11.3758
になって	-11.3758
ピア	-11.3759
marie	-11.3759
andy	-11.376
コミックス	-11.3762
raf	-11.3762
selection	-11.3763
誕生	-11.3763
recordings	-11.3763
髪	-11.3764
158	-11.3767
128	-11.3768
expanded	-11.3769
のシングル	-11.3775
application	-11.3777
広告	-11.3778
位の	-11.378
巣	-11.378
nom	-11.3781
represent	-11.3784
pip	-11.3786
maker	-11.3788
らず	-11.3788
しゅう	-11.379
祝	-11.379
シーン	-11.3791
tir	-11.3792
nal	-11.3793
cleveland	-11.3795
織	-11.3797
tori	-11.38
critic	-11.38
crystal	-11.3801
hilary	-11.3803
broadway	-11.3804
equipment	-11.3805
aud	-11.3806
acts	-11.3808
麗	-11.3808
gri	-11.3809
岡崎	-11.381
gran	-11.3812
hungary	-11.3813
ティン	-11.3814
itunes	-11.3815
ɔ	-11.3816
regions	-11.3819
就	-11.3819
下車	-11.3821
衆議院議員	-11.3822
入社	-11.3823
abu	-11.3824
า	-11.3826
(19	-11.3827
資格	-11.383
桑	-11.3832
contact	-11.3832
の下	-11.3834
otto	-11.3835
人々	-11.3836
maz	-11.3836
smaller	-11.3836
jesus	-11.3836
blad	-11.3837
passes	-11.3837
を始め	-11.3838
耳	-11.3838
ged	-11.384
青春	-11.3841
fed	-11.3845
給	-11.3853
1857	-11.3854
高松	-11.3854
ios	-11.3855
dens	-11.3856
israeli	-11.3859
115	-11.3859
附属	-11.386
sley	-11.3861
dg	-11.3862
チュー	-11.3862
clip	-11.3863
練習	-11.3866
railways	-11.3867
ко	-11.3868
露	-11.3868
offices	-11.3869
aug	-11.387
脚	-11.3871
oro	-11.3871
2).	-11.3872
内部	-11.3872
β	-11.3874
協	-11.3877
警備	-11.3877
(2012)	-11.3879
cri	-11.388
lund	-11.3881
作成	-11.3884
types	-11.3891
promote	-11.3892
ストラ	-11.3893
長官	-11.3893
じん	-11.3894
-0.	-11.3897
丈	-11.3897
隻	-11.3905
翔	-11.3906
sugar	-11.3908
ブロ	-11.3909
bought	-11.3909
領域	-11.3909
植	-11.391
lg	-11.3911
1859	-11.3912
50°	-11.3913
勤務	-11.3913
限	-11.3914
caused	-11.3915
sco	-11.3919
かれ	-11.3919
maha	-11.3921
gul	-11.3921
fighter	-11.3922
柏	-11.3923
hou	-11.3928
zel	-11.3929
行為	-11.3931
colonial	-11.3931
alpha	-11.3933
祖父	-11.3934
詞	-11.3934
例えば	-11.3935
leaders	-11.3936
平野	-11.3941
portrait	-11.3941
これが	-11.3941
証	-11.3943
173	-11.3945
demo	-11.3946
刑	-11.3946
分の	-11.3947
楊	-11.3949
approach	-11.3949
molecular	-11.3951
一丁目	-11.3951
に本社を置く	-11.3956
重要	-11.3957
anni	-11.396
シス	-11.3963
分子	-11.3965
pittsburgh	-11.3969
仮	-11.397
もり	-11.3972
ux	-11.3972
boxing	-11.3972
sides	-11.3974
改良	-11.3975
共通	-11.3979
妃	-11.3984
判定	-11.3985
ベルギー	-11.3986
clan	-11.3986
ヨン	-11.3987
cycle	-11.399
小惑星	-11.399
lut	-11.3991
cata	-11.3991
146	-11.3992
hur	-11.3993
disease	-11.3993
ストーリー	-11.3993
aster	-11.3994
3.5	-11.3994
manga	-11.3996
スイス	-11.3998
をした	-11.3999
速度	-11.4
highly	-11.4003
0.2	-11.4003
hel	-11.4009
summit	-11.4013
detroit	-11.4014
barcelona	-11.4015
ゼン	-11.4018
古典	-11.4022
lion	-11.4023
メール	-11.4024
に入団	-11.4024
problem	-11.4025
確認	-11.4025
dakota	-11.4025
contributions	-11.4026
rosa	-11.4028
スの	-11.4028
年にかけて	-11.4029
stanley	-11.4032
その他の	-11.4035
],	-11.4036
wald	-11.4037
religion	-11.4037
deutsche	-11.4038
joining	-11.4038
はら	-11.4039
しょ	-11.404
(2001).	-11.404
の前	-11.404
enberg	-11.4045
アメリカン	-11.4047
149	-11.4047
ワー	-11.4047
移籍	-11.4048
地上	-11.405
月曜	-11.4051
colour	-11.4051
1°	-11.4052
一番	-11.4054
仕事	-11.4055
becomes	-11.4056
ν	-11.4058
leo	-11.4059
ा	-11.4062
卵	-11.4063
throw	-11.4064
石油	-11.4065
地点	-11.4066
idea	-11.4067
aim	-11.4067
、1983	-11.4067
夫人	-11.4068
insects	-11.4068
最優秀	-11.4069
shak	-11.407
寒	-11.407
kul	-11.407
yahoo	-11.4071
オフィス	-11.4071
したり	-11.4072
した後	-11.4074
subscription	-11.4075
rip	-11.4076
chile	-11.4077
深夜	-11.4078
派の	-11.4079
天文	-11.4079
に入る	-11.4081
cab	-11.4081
yards	-11.4082
ín	-11.4083
の中心	-11.4085
ハム	-11.4085
やす	-11.4087
中止	-11.409
オペラ	-11.4092
体育館	-11.4096
musicians	-11.4098
indoor	-11.4098
動画	-11.4101
アイルランド	-11.4102
alberta	-11.4105
rhythm	-11.4106
croatian	-11.4108
ovich	-11.4108
ミュージシャン	-11.4109
rk	-11.411
岡田	-11.4111
エリ	-11.4113
上位	-11.4114
cooper	-11.4115
response	-11.4116
baronet	-11.4116
立ち	-11.4118
1848	-11.4119
0-5	-11.4119
lloyd	-11.4119
query	-11.412
りん	-11.4122
yorkshire	-11.4122
時は	-11.4123
さくら	-11.4128
安定	-11.4131
勢力	-11.4134
raw	-11.4134
ws	-11.4135
魂	-11.4135
戦略	-11.4138
車線	-11.4138
oblast	-11.4139
delhi	-11.4141
athletes	-11.4141
指揮	-11.4145
maj	-11.4147
zur	-11.4148
knowledge	-11.4152
chal	-11.4152
長さ	-11.4155
ニック	-11.4156
文化財	-11.4158
cav	-11.4158
は約	-11.416
combat	-11.416
ranked	-11.4162
inspired	-11.4163
続く	-11.4165
fruit	-11.4165
113	-11.4166
ê	-11.4167
relationship	-11.4168
tables	-11.4168
guitarist	-11.4169
socialist	-11.4171
obtained	-11.4173
appear	-11.4176
慶長	-11.4177
atlanta	-11.4178
lv	-11.418
hood	-11.4182
作られた	-11.4183
特集	-11.4183
businessman	-11.4186
gau	-11.4187
legislature	-11.4187
izing	-11.4188
大分	-11.4188
lisa	-11.4189
富山	-11.4189
日曜	-11.4189
gia	-11.4194
の一種	-11.4195
タイプ	-11.4197
rib	-11.4198
コス	-11.4198
因	-11.42
1998,	-11.42
束	-11.42
編著	-11.4204
claimed	-11.4205
知識	-11.4206
wiki	-11.4206
sheet	-11.4208
メジャー	-11.4209
北東	-11.4209
beauty	-11.421
の一つである	-11.4211
broken	-11.4213
ポルトガル	-11.4214
nm	-11.4215
dallas	-11.4215
rent	-11.4216
profit	-11.4216
川口	-11.4218
継	-11.4219
directly	-11.4219
lak	-11.422
outstanding	-11.4221
期の	-11.4223
ジャンプ	-11.4224
2007).	-11.4224
自己	-11.4225
anime	-11.4225
ウクライナ	-11.423
0-0	-11.4231
再生	-11.4232
埼玉	-11.4232
163	-11.4233
主人公	-11.4233
処	-11.4233
gos	-11.4235
制御	-11.4235
gives	-11.4235
merchant	-11.4236
fest	-11.4236
newly	-11.4236
リエ	-11.4236
cloud	-11.4239
琉球	-11.4241
プレスリリース	-11.4243
mining	-11.4244
download	-11.4247
extension	-11.4247
母親	-11.425
sculpture	-11.4253
cock	-11.4254
pul	-11.4256
verlag	-11.4258
振興	-11.4258
evolution	-11.426
nec	-11.4261
sburg	-11.4263
pros	-11.4264
進出	-11.4264
〒	-11.4267
振り	-11.4268
rating	-11.4272
トーナメント	-11.4275
losing	-11.4278
1858	-11.4279
墓	-11.4281
hug	-11.4282
種類	-11.4283
gulf	-11.4284
となっていた	-11.4284
代藩主	-11.4285
本の	-11.4285
pioneer	-11.4285
liverpool	-11.4286
ο	-11.4287
photography	-11.4288
desert	-11.4291
rim	-11.4291
hundred	-11.4293
rá	-11.4293
性の	-11.4294
年現在	-11.4295
eyes	-11.4295
tribute	-11.4296
地域の	-11.4302
allow	-11.4304
ヤー	-11.4305
をはじめ	-11.4307
resigned	-11.4308
フー	-11.4309
ケル	-11.4312
次は	-11.4313
規定	-11.4314
邑	-11.4315
ร	-11.4317
avi	-11.4318
小松	-11.4322
の場合	-11.4323
noble	-11.4325
beetles	-11.4326
奏者	-11.4327
滑	-11.4328
磯	-11.4335
drum	-11.4335
テレビアニメ	-11.4337
-01	-11.4339
wish	-11.4339
ober	-11.4343
(1999)	-11.4344
effective	-11.4346
祭り	-11.4347
positive	-11.4347
0-9	-11.4349
ли	-11.4352
della	-11.4352
ɛ	-11.4352
体験	-11.4356
譜	-11.4357
ow	-11.4358
dio	-11.4359
の手	-11.436
グランド	-11.4363
シアター	-11.4363
特徴	-11.4363
比較	-11.4364
曹	-11.4364
(1995	-11.4365
たま	-11.4365
3-1	-11.4367
rel	-11.4369
uncle	-11.4369
133	-11.4369
looking	-11.437
駅舎	-11.4371
問	-11.4371
terminal	-11.4372
ガイ	-11.4375
performances	-11.4376
fisher	-11.4378
cliff	-11.4379
共に	-11.4379
戻	-11.438
ла	-11.4381
springs	-11.4384
distinguished	-11.4387
テスト	-11.4388
詩人	-11.439
背	-11.439
associate	-11.4391
打ち	-11.4391
倒	-11.4392
エンディングテーマ	-11.4393
injury	-11.4393
releases	-11.4393
returning	-11.4393
phi	-11.4393
1-3	-11.4395
candidates	-11.4398
awa	-11.4398
flows	-11.44
採用	-11.4402
criminal	-11.4402
ati	-11.4403
思い	-11.4404
相撲	-11.4404
think	-11.4406
川村	-11.4409
alaska	-11.4411
リーダー	-11.4411
brain	-11.4412
大学で	-11.4412
複数の	-11.4413
03.	-11.4417
歴	-11.4421
positions	-11.4423
成立	-11.4423
arrow	-11.4425
教員	-11.4426
bia	-11.4427
madrid	-11.4431
タクシー	-11.4432
エレ	-11.4432
grace	-11.4432
ビッグ	-11.4436
carter	-11.4437
claim	-11.4437
1994.	-11.4438
1992.	-11.4439
vancouver	-11.4439
1997,	-11.444
mars	-11.444
defender	-11.4441
四郎	-11.4441
階級	-11.4441
山の	-11.4442
empty	-11.4442
craft	-11.4446
を有する	-11.445
nicholas	-11.4452
改正	-11.4454
tat	-11.4461
cow	-11.4462
shaped	-11.4465
canton	-11.4466
omi	-11.4468
咲	-11.4469
として活動	-11.447
hampshire	-11.447
航空機	-11.4471
occurs	-11.4476
(1996	-11.4476
marked	-11.4477
ジャズ	-11.4477
将棋	-11.4478
riding	-11.4478
学校法人	-11.4478
dh	-11.448
世紀の	-11.4481
渓	-11.4481
0.3	-11.4482
alice	-11.4484
hc	-11.4485
wings	-11.4487
。2012	-11.4488
ねん	-11.4488
レストラン	-11.4488
神話	-11.449
リズム	-11.4495
mitchell	-11.4496
、1985	-11.4501
特定	-11.4502
matic	-11.4503
マリー	-11.4504
果	-11.4504
郵便番号	-11.4506
。2011	-11.4507
flu	-11.4509
officers	-11.4509
tens	-11.4512
線の駅	-11.4512
にした	-11.4513
ブラン	-11.4513
something	-11.4513
nhl	-11.4514
flood	-11.4514
寺院	-11.4515
グレ	-11.4515
レル	-11.4518
ological	-11.4518
portland	-11.4518
ーム	-11.4519
1992,	-11.4519
それを	-11.452
宇都宮	-11.452
日より	-11.4524
friday	-11.4524
spir	-11.4525
の各	-11.4525
集英社	-11.4527
hag	-11.4528
twelve	-11.4532
rsssf	-11.4533
北西	-11.4533
georg	-11.4534
supplement	-11.4535
記者	-11.4536
東京大学	-11.4537
risk	-11.4538
山城	-11.4539
と結婚	-11.4539
レオ	-11.4539
oni	-11.454
audience	-11.4541
reign	-11.4541
holland	-11.4541
なが	-11.4541
父は	-11.4544
(2019	-11.4545
現在では	-11.4546
ging	-11.4546
-4.	-11.4549
嵐	-11.4549
ock	-11.455
新たな	-11.4551
札	-11.4552
福井県	-11.4555
祥	-11.4558
shadow	-11.4558
甘	-11.4559
1840	-11.4559
gb	-11.4562
掛け	-11.4562
restaurant	-11.4566
doubles	-11.4566
に所属	-11.4567
夏の	-11.4569
listings	-11.4571
を表す	-11.4572
talent	-11.4573
steven	-11.4573
κ	-11.4574
以降は	-11.4575
hari	-11.4577
テニス	-11.4581
teen	-11.4582
aspx	-11.4583
134	-11.4586
anton	-11.4589
ワイド	-11.4589
毎日新聞	-11.4591
incorporated	-11.4592
finishing	-11.4592
oricon	-11.4592
hands	-11.4593
除	-11.4594
がない	-11.4594
demand	-11.4594
jerry	-11.4598
2008).	-11.4599
刻	-11.4599
gall	-11.46
競馬場	-11.46
ムー	-11.4602
卓	-11.4603
閉	-11.461
monthly	-11.461
英国	-11.4611
spect	-11.4612
lakes	-11.4614
。2006	-11.4615
伴	-11.4621
める	-11.4621
坂本	-11.4625
ホワイト	-11.4626
周年	-11.4626
民間	-11.4627
virgin	-11.463
合計	-11.4631
strike	-11.4634
の政治家	-11.4634
青山	-11.4636
一時	-11.4636
菌	-11.4637
lad	-11.4637
ファッション	-11.464
山脈	-11.4641
集落	-11.4642
duo	-11.4642
angle	-11.4642
辰	-11.4644
116	-11.4644
パーソナリティ	-11.4645
punk	-11.4645
laid	-11.4646
sony	-11.4648
waters	-11.4648
devil	-11.465
ウッド	-11.4652
笹	-11.4655
materials	-11.4655
increase	-11.4655
soldiers	-11.4655
intended	-11.4656
1–1	-11.4658
dock	-11.4658
騎手	-11.4659
ロケット	-11.4659
回目	-11.466
捕	-11.4661
sig	-11.4662
が完成	-11.4662
stem	-11.4663
開通	-11.4664
図書	-11.4667
ーク	-11.4667
heaven	-11.4668
ب	-11.467
bala	-11.4671
激	-11.4671
シーズンは	-11.4672
cable	-11.4673
憲法	-11.4674
以前は	-11.4674
ml	-11.4679
sexual	-11.4681
固	-11.4681
sporting	-11.4682
禅	-11.4683
北陸	-11.4684
ート	-11.4685
新書	-11.4685
武田	-11.4686
築	-11.4687
通常	-11.4689
〜(	-11.4689
と同時に	-11.4692
資	-11.4694
agh	-11.4694
protect	-11.4694
島根県	-11.4694
電車	-11.4695
ians	-11.4696
111	-11.4698
hull	-11.4698
settled	-11.4699
多く	-11.4701
iko	-11.4702
ва	-11.471
きゅう	-11.4712
1869	-11.4713
gastropod	-11.4718
qualification	-11.4719
一族	-11.4719
貝	-11.4719
collected	-11.4722
世帯	-11.4722
bai	-11.4723
abstract	-11.4723
らの	-11.4727
ころ	-11.4728
nag	-11.4728
特殊	-11.473
wor	-11.473
-2.	-11.473
fic	-11.473
ショップ	-11.4734
奉	-11.4736
国際空港	-11.4737
数学	-11.4738
matsu	-11.4739
hun	-11.4739
birmingham	-11.474
前後	-11.4741
arild	-11.4742
停留所	-11.4742
franklin	-11.4743
香川県	-11.4746
試	-11.4746
。2013	-11.4748
ティス	-11.4748
domestic	-11.4751
ネイ	-11.4752
herbert	-11.4754
schw	-11.4754
rooms	-11.4755
tourism	-11.4756
mallon	-11.4757
1855	-11.4759
全米	-11.476
trac	-11.476
chosen	-11.476
南東	-11.476
eugen	-11.4761
獣	-11.4761
gent	-11.4761
difference	-11.4762
1996,	-11.4762
believed	-11.4764
に近い	-11.4764
アルゼンチン	-11.4766
popolazione	-11.4766
創刊	-11.4768
ナル	-11.4772
村の	-11.4773
の母	-11.4775
1800	-11.4776
1993.	-11.4776
tid	-11.4777
springer	-11.478
人である	-11.4782
battalion	-11.4783
conducted	-11.4783
forests	-11.4784
アニメーション	-11.4791
114	-11.4796
印刷	-11.4796
運輸	-11.4798
抗	-11.4798
胸	-11.4799
lid	-11.4801
charlie	-11.4802
サウンド	-11.4804
フィルム	-11.4804
別の	-11.4804
cbc	-11.4805
不動産	-11.4811
jeroen	-11.4812
側の	-11.4813
ッサ	-11.4814
vincent	-11.4817
submarine	-11.4821
fans	-11.4822
えた	-11.4823
二丁目	-11.4823
roch	-11.4826
土木	-11.4828
課程	-11.4828
scholar	-11.4829
pus	-11.4831
陰	-11.4832
の国	-11.4833
henri	-11.4833
aq	-11.4837
rous	-11.4838
beijing	-11.4838
要素	-11.4839
に入	-11.484
wanted	-11.4841
酸化	-11.4842
ジェイ	-11.4844
lom	-11.4844
トルコ	-11.4845
lynn	-11.4845
typically	-11.4846
別名	-11.4848
かり	-11.4849
standards	-11.485
holding	-11.485
くら	-11.4855
superficie	-11.4855
154	-11.4857
の意味	-11.4857
utc	-11.4859
medium	-11.4859
籍	-11.486
プレー	-11.4862
paintings	-11.4862
adelaide	-11.4863
の花	-11.4863
十二	-11.4864
mina	-11.4866
いわゆる	-11.4868
follow	-11.487
wise	-11.4871
breed	-11.4873
spa	-11.4875
スキ	-11.4876
́	-11.4877
versions	-11.4878
ノルウェー	-11.4878
wheel	-11.4879
が行われ	-11.4881
非常に	-11.4881
の女性	-11.4881
犯罪	-11.4882
ش	-11.4883
出す	-11.4883
画像	-11.4883
碑	-11.4885
adventure	-11.4886
stri	-11.4887
大韓民国	-11.4887
大島	-11.4888
父の	-11.4888
carbon	-11.4888
継承	-11.4889
じゅう	-11.4892
会計	-11.4892
購入	-11.4894
charlotte	-11.4895
労	-11.4897
glacier	-11.4897
002	-11.4897
1854	-11.4901
sala	-11.4908
iana	-11.491
活	-11.4912
doc	-11.4916
嗣	-11.4918
自動	-11.4918
abi	-11.4919
ゴールド	-11.492
kids	-11.4921
重量	-11.4921
三菱	-11.4922
森林	-11.4923
ruth	-11.4923
123	-11.4924
117	-11.4925
fern	-11.4925
濃	-11.4926
このため	-11.4926
singing	-11.4926
tradition	-11.4927
らない	-11.4927
したこと	-11.4927
潜水艦	-11.4928
研究者	-11.4929
免許	-11.4929
横浜市	-11.4932
強化	-11.4934
trained	-11.4934
批判	-11.4934
ction	-11.4934
てい	-11.4936
archbishop	-11.4936
corporate	-11.4936
袋	-11.4937
ステーション	-11.494
flash	-11.4942
constitution	-11.4943
コム	-11.4943
develop	-11.4944
mack	-11.4944
しばしば	-11.4944
ethnic	-11.4944
線が	-11.4945
結合	-11.4945
rear	-11.4946
destroyed	-11.4947
credits	-11.4951
mona	-11.4953
churches	-11.4955
りょう	-11.4956
δ	-11.4956
破壊	-11.4957
loop	-11.4958
gat	-11.4958
左衛門	-11.4958
ーニ	-11.4959
0.6	-11.4959
sharp	-11.496
basin	-11.4961
rpm	-11.4962
の新	-11.4962
姿	-11.4963
代表取締役社長	-11.4963
刺	-11.4965
atta	-11.4966
松平	-11.4966
瑞	-11.4967
きん	-11.4968
condition	-11.4971
ナビ	-11.4971
インターナショナル	-11.4972
トゥー	-11.4972
underground	-11.4975
垣	-11.4975
wet	-11.498
sector	-11.4986
ott	-11.4986
clay	-11.4987
材料	-11.4988
和歌山	-11.4989
mv	-11.499
127	-11.4994
bottom	-11.4994
signs	-11.4994
planned	-11.4996
beau	-11.4997
inger	-11.4997
窓	-11.4997
armed	-11.4999
鳥取県	-11.4999
én	-11.5004
ヴィー	-11.5005
に至る	-11.5013
ボクシング	-11.5014
sion	-11.5015
われ	-11.5015
lev	-11.5015
establishment	-11.5017
アレンジ	-11.5017
partnership	-11.5017
enzyme	-11.502
dd	-11.5021
heijmans	-11.5021
starts	-11.5022
阪神	-11.5022
classes	-11.5022
基礎	-11.5023
mik	-11.5024
gjerde	-11.5024
してきた	-11.5024
cen	-11.5025
もので	-11.5025
cause	-11.5027
narrow	-11.5029
marco	-11.5029
effects	-11.503
urs	-11.5031
禁止	-11.5033
1852	-11.5036
在位	-11.5037
研修	-11.5037
ww	-11.5038
oliver	-11.5039
年代に	-11.504
ーゼ	-11.5041
55.	-11.5045
休止	-11.5046
johann	-11.5046
influence	-11.5046
bring	-11.5049
merging	-11.505
侍	-11.505
asked	-11.5051
cox	-11.5052
マスター	-11.5053
郷土	-11.5056
捜査	-11.5058
近く	-11.5059
(1997)	-11.5061
航	-11.5063
他に	-11.5065
models	-11.5065
downtown	-11.5066
removed	-11.5066
競走馬	-11.5068
uv	-11.5068
ala	-11.5069
記述	-11.5072
milan	-11.5073
jur	-11.5073
sav	-11.5073
fear	-11.5074
nevada	-11.5075
creative	-11.5076
翻訳	-11.5079
繁	-11.5079
ration	-11.5081
colombia	-11.5081
1856	-11.5083
?".	-11.5083
ottawa	-11.5084
respectively	-11.5084
国土交通省	-11.5085
tina	-11.5085
隠	-11.5086
今日	-11.5087
themselves	-11.5088
パワー	-11.5088
庁舎	-11.509
二郎	-11.5091
充	-11.5093
owen	-11.5096
dennis	-11.5098
ロウ	-11.5099
uf	-11.51
ホル	-11.5101
幹	-11.5101
やや	-11.5103
oo	-11.5104
symphony	-11.5104
必要	-11.5104
ラウ	-11.5106
項目	-11.5111
製の	-11.5113
4-1	-11.5113
166	-11.5114
poems	-11.5115
illo	-11.5117
148	-11.5117
私立	-11.5117
ark	-11.5118
dad	-11.512
エフ	-11.512
わずか	-11.5123
らが	-11.5123
道の駅	-11.5124
venture	-11.5124
わか	-11.5124
取引	-11.5127
competitions	-11.5129
ベルト	-11.5131
財	-11.5131
フィンランド	-11.5132
reed	-11.5134
パイ	-11.5135
antarctic	-11.5136
pseudo	-11.5138
銀河	-11.5139
ナス	-11.5142
begin	-11.5142
相手	-11.5142
proc	-11.5144
oda	-11.5144
替え	-11.5145
commerce	-11.5145
widely	-11.5145
分布	-11.5145
conflict	-11.5145
gaz	-11.5146
hawk	-11.5147
cry	-11.5147
heads	-11.5149
平均	-11.515
艦隊	-11.5151
:10.11	-11.5152
uganda	-11.5153
選択	-11.5154
oy	-11.5158
fantasy	-11.5159
正月	-11.516
brooklyn	-11.5165
茎	-11.5167
boss	-11.5168
plot	-11.5168
ān	-11.517
fresh	-11.5172
投資	-11.5174
cricketarchive	-11.5176
禁	-11.5179
appointment	-11.5181
kenya	-11.5181
gru	-11.5181
息子	-11.5182
ずつ	-11.5183
oslo	-11.5184
ヌー	-11.5187
đ	-11.5188
γ	-11.519
膜	-11.519
ようになる	-11.5191
待	-11.5191
levels	-11.5194
。2005	-11.5194
――	-11.5195
animals	-11.5195
mess	-11.5197
衛生	-11.5198
1994,	-11.52
05.	-11.5202
rising	-11.5203
refers	-11.5203
attempt	-11.5204
フラン	-11.5208
schi	-11.521
更に	-11.521
空軍	-11.5211
mills	-11.5212
栽培	-11.5213
ingham	-11.5214
向けの	-11.5214
(4):	-11.5219
1995,	-11.522
revival	-11.522
自転車	-11.522
はじめ	-11.5222
architectural	-11.5223
ーノ	-11.5223
ле	-11.5224
と対戦し	-11.5225
stores	-11.5225
nett	-11.5225
ウン	-11.5225
嶺	-11.5226
白い	-11.523
copa	-11.523
suburb	-11.523
ces	-11.5234
ś	-11.5235
東京都出身	-11.5235
ウィーン	-11.5238
object	-11.524
フェル	-11.5243
ović	-11.5243
1.2	-11.5244
license	-11.5245
選挙区	-11.5245
alternate	-11.5246
のり	-11.5246
中華人民共和国	-11.5249
nj	-11.5252
ホールディングス	-11.5252
та	-11.5255
フェリー	-11.5258
ペア	-11.5264
smart	-11.5266
kins	-11.5266
bible	-11.5268
分け	-11.5269
マッチ	-11.527
118	-11.5273
三浦	-11.5274
世代	-11.5277
ぞ	-11.5277
(2013)	-11.5283
写	-11.5285
adopted	-11.5285
pond	-11.5288
自治	-11.5289
去	-11.529
慎	-11.529
サンタ	-11.529
となっており	-11.5293
1.6	-11.5294
mali	-11.5296
ious	-11.5297
地帯	-11.5297
なども	-11.5297
班	-11.5298
育成	-11.5299
crossing	-11.53
多数	-11.5302
芸能	-11.5302
azerbaijan	-11.5302
listing	-11.5306
cont	-11.5309
朝の	-11.531
渋谷	-11.531
145	-11.5311
153	-11.5312
オリコン	-11.5312
registered	-11.5314
入口	-11.5315
parker	-11.5315
zoo	-11.5316
ヘン	-11.5316
midfielder	-11.532
?]	-11.5324
いない	-11.5327
terry	-11.5327
史料	-11.5328
chil	-11.533
ルト	-11.533
laws	-11.5333
therefore	-11.5334
バーン	-11.5335
天保	-11.5336
ч	-11.5337
yale	-11.5338
宅	-11.534
立て	-11.534
屋敷	-11.5341
映画監督	-11.5343
fit	-11.5343
綾	-11.5343
あなた	-11.5346
ドラム	-11.5347
laboratory	-11.5348
:10.10	-11.5351
cuba	-11.5352
幕府	-11.5353
0-2	-11.5353
ルド	-11.5354
一部の	-11.5358
saints	-11.5361
licensed	-11.5362
nagar	-11.5362
制限	-11.5363
ici	-11.5363
bonus	-11.5364
コーラス	-11.5367
フジ	-11.5367
すべて	-11.537
ぶん	-11.5372
単行本	-11.5373
hav	-11.5376
duc	-11.5376
129	-11.5376
リード	-11.5377
hawaii	-11.5377
進行	-11.5379
講	-11.538
supporting	-11.538
arian	-11.5382
structures	-11.5384
サイズ	-11.5384
microsoft	-11.5385
amba	-11.5385
著書	-11.5387
藤井	-11.5387
南区	-11.5387
中央区	-11.5389
wear	-11.5389
強い	-11.539
masa	-11.5392
activist	-11.5392
triple	-11.5392
residential	-11.5392
holiday	-11.5393
welcome	-11.5394
reich	-11.5395
しゅ	-11.5395
海洋	-11.5396
その後も	-11.5396
通常盤	-11.5398
毒	-11.54
)”	-11.5401
象	-11.5401
roberts	-11.5402
mx	-11.5402
ーラ	-11.5403
の登場人物	-11.5404
下の	-11.5404
cot	-11.5406
shar	-11.5408
小山	-11.541
gren	-11.541
ッター	-11.5411
ヌス	-11.5413
-6.	-11.5415
フィン	-11.5416
holm	-11.5417
immediately	-11.5417
彰	-11.5419
sko	-11.542
quest	-11.542
とされ	-11.542
ilo	-11.5422
入団	-11.5426
barn	-11.5429
公共	-11.5429
pieces	-11.543
vii	-11.543
bé	-11.5432
害	-11.5432
流通	-11.5434
青木	-11.5434
趙	-11.5436
1851	-11.5436
発売された	-11.5438
potential	-11.5439
佐賀県	-11.5442
毎週	-11.5443
rg	-11.5443
句	-11.5444
tourist	-11.5444
hus	-11.5445
organizations	-11.5447
hyper	-11.5447
preservation	-11.5448
新設	-11.5457
がい	-11.5457
но	-11.5457
種の	-11.5458
plat	-11.5461
セー	-11.5462
プロレス	-11.5465
bengal	-11.5466
を開設	-11.5467
4-5	-11.5469
。2014	-11.547
在住	-11.547
squ	-11.5471
集合	-11.5471
ドール	-11.5471
めた	-11.5476
保健	-11.5476
bab	-11.5476
掛	-11.548
critics	-11.548
過去	-11.548
naga	-11.548
ギリシャ	-11.5481
wars	-11.5482
worldwide	-11.5483
中で	-11.5483
trio	-11.5484
淵	-11.5484
mata	-11.5484
えん	-11.5485
oides	-11.5486
〔	-11.5489
アレ	-11.5491
1830	-11.5494
ごろ	-11.5494
message	-11.5495
度目の	-11.5495
selling	-11.5496
略称	-11.5497
ghana	-11.5498
144	-11.5498
witt	-11.5498
神奈川	-11.5499
hebrew	-11.5501
mant	-11.5501
ことは	-11.5502
財政	-11.5504
在籍	-11.5504
死亡	-11.5505
三丁目	-11.5506
の都市	-11.5507
119	-11.5507
リアン	-11.5508
のプロフィール	-11.5508
イスラエル	-11.5509
庫	-11.551
overview	-11.551
顕	-11.5511
(1994	-11.5514
〕	-11.5515
transit	-11.5518
reaching	-11.5518
fol	-11.5519
tas	-11.552
bei	-11.5522
olo	-11.5522
曖昧さ回避	-11.5522
げん	-11.5523
生命	-11.5525
presents	-11.5525
近藤	-11.5525
riv	-11.5527
エジプト	-11.5527
に就任した	-11.5529
供給	-11.5533
かく	-11.5535
橘	-11.5537
roo	-11.5537
青森	-11.5538
意味	-11.5539
吉川弘文館	-11.5541
を開催	-11.5542
の女	-11.5542
楽器	-11.5543
みつ	-11.5544
akh	-11.5545
ドア	-11.5546
paulo	-11.5547
灯	-11.5548
solid	-11.5549
estimated	-11.555
出力	-11.555
大学大学院	-11.5551
監	-11.5551
を実施	-11.5552
音声	-11.5552
合い	-11.5554
smithsonian	-11.5556
resolution	-11.5557
dt	-11.5563
és	-11.5565
計算	-11.5565
franco	-11.5565
rem	-11.5567
ants	-11.5569
chester	-11.557
プレス	-11.5572
央	-11.5573
キロ	-11.5573
キル	-11.5579
physician	-11.5579
nazi	-11.5581
cdp	-11.5583
諏訪	-11.5583
1989,	-11.5586
まま	-11.5586
lai	-11.559
amount	-11.559
abbey	-11.5591
radi	-11.5592
司会	-11.5595
ologi	-11.5597
[ˈ	-11.5597
マラソン	-11.5598
消滅	-11.5598
メダル	-11.5599
初回限定盤	-11.56
consisted	-11.56
被害	-11.5605
tributary	-11.5608
という意味	-11.5608
fought	-11.5611
レベル	-11.5613
450	-11.5614
maritime	-11.5616
旅客	-11.5617
soldier	-11.5619
setting	-11.5626
することで	-11.5627
業界	-11.5628
飯田	-11.5628
stands	-11.5628
いくつかの	-11.5631
question	-11.5633
bands	-11.5635
のない	-11.5641
soc	-11.5641
ベルク	-11.5641
ティング	-11.5642
lina	-11.5643
範	-11.5643
減少	-11.5643
あまり	-11.5643
ان	-11.5646
geographical	-11.5646
peri	-11.5647
宣言	-11.5647
になると	-11.5649
likely	-11.565
nai	-11.5651
ches	-11.5652
宮崎県	-11.5654
ロール	-11.5655
調整	-11.5657
carol	-11.5657
sense	-11.5658
加工	-11.566
年版	-11.5661
キュー	-11.5662
に出場	-11.5662
珠	-11.5662
declared	-11.5666
インドネシア	-11.5667
三重	-11.5667
りゅう	-11.5667
ified	-11.5668
systematic	-11.5668
豆	-11.5668
margin	-11.5669
lance	-11.567
painted	-11.567
captured	-11.5671
緒	-11.5671
1.1	-11.5671
チェコ	-11.5672
richmond	-11.5675
aries	-11.5676
さま	-11.5677
土佐	-11.5678
applications	-11.568
vet	-11.568
directors	-11.568
勲	-11.5681
expansion	-11.5681
catherine	-11.5683
押	-11.5684
息	-11.5685
dz	-11.5685
ピーター	-11.5689
violin	-11.5692
indicate	-11.5695
126	-11.5696
gad	-11.5696
日間	-11.5696
thing	-11.5696
71.	-11.5697
prof	-11.57
eagle	-11.5702
人を	-11.5704
すけ	-11.5704
自身	-11.5705
faith	-11.5705
amy	-11.5708
prevent	-11.5709
区別	-11.571
hammer	-11.571
lung	-11.571
村が発足	-11.5712
追加	-11.5712
高さ	-11.5712
犯	-11.5714
靖	-11.5721
チェン	-11.5722
ローズ	-11.5723
164	-11.5729
giant	-11.5731
リチャード	-11.5733
ヴァイオリン	-11.5733
東宝	-11.5733
失敗	-11.5733
幼	-11.5734
付属	-11.5735
mans	-11.5736
戦車	-11.5737
広域	-11.5739
providing	-11.5739
資源	-11.5741
dated	-11.5742
の歌	-11.5742
状の	-11.5744
通過	-11.5745
oxid	-11.5746
最新	-11.5748
zhou	-11.5748
ツェ	-11.5748
weekend	-11.5748
二人	-11.5749
猿	-11.575
gard	-11.5751
jacques	-11.5751
copies	-11.5751
bing	-11.5751
share	-11.5755
出した	-11.5756
マックス	-11.5757
停止	-11.5758
identified	-11.5759
mk	-11.576
レコーディング	-11.5761
styl	-11.5763
crash	-11.5763
上記	-11.5763
宝塚	-11.5764
現地	-11.5766
push	-11.5768
弓	-11.5768
年齢	-11.5768
挙	-11.5768
圭	-11.5769
ルイス	-11.577
distributed	-11.577
hui	-11.577
初期の	-11.5772
大谷	-11.5772
ける	-11.5773
hack	-11.5774
stuart	-11.5775
ре	-11.5778
jung	-11.5779
チームの	-11.578
1990.	-11.5781
260	-11.5781
י	-11.5781
ウォー	-11.5782
credit	-11.5783
シング	-11.5784
serbia	-11.5787
全ての	-11.5787
を果たす	-11.5789
pid	-11.5789
際に	-11.5789
守護	-11.5793
supply	-11.5793
sab	-11.5793
ッカ	-11.5793
を卒業	-11.5795
feb	-11.5799
民主	-11.5799
ふく	-11.5801
の中に	-11.5801
59.	-11.5801
ジェームズ	-11.5801
courses	-11.5804
2-0	-11.5805
adjacent	-11.5807
と言う	-11.5808
roma	-11.5808
魏	-11.5808
foster	-11.5809
tau	-11.581
(1993	-11.5811
忍	-11.5812
jak	-11.5814
されていたが	-11.5815
移	-11.5817
団地	-11.5817
古墳	-11.5819
導入	-11.582
を獲得した	-11.5821
フェン	-11.5823
kept	-11.5823
inventory	-11.5823
責任	-11.5824
庵	-11.5825
話題	-11.5829
絵画	-11.5829
internal	-11.583
あん	-11.5832
プラザ	-11.5832
rop	-11.5835
デザイナー	-11.5836
悟	-11.5838
bobby	-11.5841
観音	-11.5841
yar	-11.5841
daughters	-11.5842
野町	-11.5844
mei	-11.5845
イス	-11.5847
rare	-11.5848
economy	-11.5848
investigation	-11.5849
を通じて	-11.5849
fishing	-11.585
毎日	-11.585
連合会	-11.5851
臨時	-11.5852
increased	-11.5852
collaboration	-11.5854
ヘイ	-11.5855
ː	-11.5857
ルーム	-11.5858
factor	-11.5859
peerage	-11.5859
謙	-11.5859
08.	-11.5859
考	-11.586
lucky	-11.5861
市町村	-11.5863
歯科	-11.5863
当初	-11.5864
amsterdam	-11.5866
mirror	-11.5866
(1996)	-11.5868
だん	-11.5868
邸	-11.5868
97.	-11.5868
harold	-11.587
込む	-11.5874
乙	-11.5877
ヨー	-11.5877
聖書	-11.5877
ultra	-11.5878
lions	-11.5879
scheduled	-11.5879
reality	-11.5879
カラオケ	-11.5879
看護	-11.5881
cash	-11.5882
4-0	-11.5883
信号	-11.5883
linda	-11.5884
240	-11.5885
locality	-11.5886
火山	-11.5887
vik	-11.5887
liu	-11.5891
がく	-11.5894
honorary	-11.5896
1989.	-11.5896
の山	-11.5897
作り	-11.5899
butler	-11.5903
第四	-11.5906
菅	-11.5907
放送された	-11.5907
大塚	-11.5907
itt	-11.5908
の乱	-11.5909
えい	-11.5912
に所属していた	-11.5913
統	-11.5913
反対	-11.5914
有名な	-11.5915
argentine	-11.5916
offer	-11.5916
帰国	-11.5917
会津	-11.5918
ようになり	-11.5919
achieved	-11.5919
documents	-11.592
spor	-11.592
を始める	-11.5921
加盟	-11.5921
coleoptera	-11.5923
教育委員会	-11.5923
図鑑	-11.5924
rocket	-11.5925
ien	-11.5927
mba	-11.5929
yuki	-11.5931
アニ	-11.5931
0.4	-11.5934
ory	-11.5934
4.5	-11.5935
vehicle	-11.5936
told	-11.5939
might	-11.594
andré	-11.5941
91.	-11.5941
saxophone	-11.5941
99.	-11.5942
人で	-11.5945
又	-11.5948
belt	-11.595
載	-11.5951
bod	-11.5952
神宮	-11.5952
insurance	-11.5953
reaction	-11.5954
philipp	-11.5955
joel	-11.5955
潤	-11.5957
イタリア共和国	-11.5959
。2015	-11.596
opposition	-11.596
covering	-11.5961
1853	-11.5962
ij	-11.5962
conditions	-11.5962
恋愛	-11.5964
現在も	-11.5964
ヴィル	-11.5964
澄	-11.5964
shooting	-11.5965
yam	-11.5967
entitled	-11.5967
dancer	-11.5967
〜』	-11.5968
風景	-11.5969
nrhp	-11.5969
可能性	-11.5972
くる	-11.5975
3,000	-11.5975
•	-11.5975
333	-11.5976
rh	-11.5976
cou	-11.5976
タス	-11.5976
miya	-11.5978
ものは	-11.5979
しながら	-11.5979
貴族	-11.5981
貿易	-11.5981
威	-11.5982
nebraska	-11.5982
予	-11.5983
ع	-11.5985
java	-11.5986
ミサイル	-11.5987
扱い	-11.5989
sus	-11.5996
採	-11.5997
starred	-11.5998
改造	-11.5998
relegated	-11.5998
hm	-11.5999
fuel	-11.5999
附	-11.5999
1993,	-11.6001
existing	-11.6002
sag	-11.6005
suk	-11.6005
いん	-11.6005
cousin	-11.6006
支所	-11.6006
4-7	-11.6008
平安時代	-11.6009
92.	-11.6011
64.	-11.6015
jess	-11.6017
勲章	-11.6017
meyer	-11.6018
委員長	-11.6019
帳	-11.6021
文献	-11.6023
キャリア	-11.6024
(1995)	-11.6025
アマチュア	-11.6025
tara	-11.6026
原画	-11.6027
斎藤	-11.603
ри	-11.603
(2013).	-11.6031
coastal	-11.6031
オート	-11.6032
cran	-11.6034
1995)	-11.6037
カレッジ	-11.6038
つか	-11.604
kla	-11.6041
ça	-11.6041
ときに	-11.6042
lick	-11.6042
arrived	-11.6042
ジム	-11.6043
fictional	-11.6044
attention	-11.6047
にとって	-11.6048
gift	-11.6049
に関するカテゴリ	-11.6049
れん	-11.605
06.	-11.6051
ちゃ	-11.6055
成田	-11.6055
lc	-11.6055
することができる	-11.6059
swan	-11.606
るが	-11.6061
詳細	-11.6062
correct	-11.6063
lob	-11.6066
でん	-11.6068
xu	-11.6068
postal	-11.6069
nay	-11.6071
progressive	-11.6073
策	-11.6073
extinct	-11.6073
愛の	-11.6075
モノ	-11.6075
luci	-11.6075
continue	-11.6077
カット	-11.6077
itf	-11.608
shoot	-11.6081
訓	-11.6082
walls	-11.6083
高度	-11.6086
inch	-11.6086
とされた	-11.6087
visited	-11.6091
福田	-11.6092
涼	-11.6092
シカゴ	-11.6093
葛	-11.6093
行う	-11.6093
の弟	-11.6094
三木	-11.6095
閣	-11.6095
troops	-11.6095
愛知県名古屋市	-11.6097
専門は	-11.6099
キム	-11.61
speaker	-11.6103
探偵	-11.6104
側に	-11.6104
音源	-11.6105
granted	-11.6106
73.	-11.6108
シュー	-11.6111
財団法人	-11.6111
77.	-11.6113
wilhelm	-11.6115
dorf	-11.6115
nothing	-11.6115
ivo	-11.6117
values	-11.6118
ミュージカル	-11.6118
04.	-11.612
人と	-11.6121
prop	-11.6121
rescue	-11.6122
kes	-11.6125
署	-11.6128
唄	-11.6131
}}}	-11.6134
lens	-11.6134
坪	-11.6134
institutions	-11.6136
sung	-11.6136
規	-11.6137
tunnel	-11.6137
pine	-11.6138
congo	-11.614
во	-11.6144
passion	-11.6146
trinity	-11.6146
-23	-11.6146
asp	-11.6146
小学校一覧	-11.6147
度の	-11.6147
ゴールデン	-11.6147
沈	-11.6148
現象	-11.6149
フォル	-11.6149
allows	-11.615
marks	-11.6151
etta	-11.6151
所属の	-11.6152
existence	-11.6154
(1992	-11.6154
官僚	-11.6158
経由	-11.6159
ми	-11.616
denis	-11.616
bog	-11.6165
write	-11.6166
裂	-11.6166
rr	-11.6166
participate	-11.6166
行った	-11.6169
respect	-11.617
スティ	-11.617
cg	-11.6172
paid	-11.6173
皇后	-11.6174
オーバー	-11.6176
サッカー部	-11.6178
acc	-11.6179
boot	-11.618
shed	-11.618
長く	-11.6181
暗	-11.6181
オーケストラ	-11.6181
。2004	-11.6182
0.7	-11.6185
font	-11.6186
cruz	-11.6186
通行	-11.6187
(1999).	-11.6187
もん	-11.6188
コンクール	-11.6188
contested	-11.6191
scout	-11.6191
ralph	-11.6192
ゲー	-11.6193
サブ	-11.6194
働	-11.6194
募集	-11.6195
aur	-11.6196
久保	-11.6197
nsw	-11.6198
化した	-11.62
学名	-11.62
恭	-11.6201
1849	-11.6202
ペイ	-11.6203
producing	-11.6203
proceedings	-11.6205
鼻	-11.6206
uda	-11.6208
校長	-11.6208
風の	-11.6209
票	-11.6209
出張所	-11.621
76.	-11.621
islam	-11.621
規則	-11.6214
ан	-11.6215
dil	-11.6216
ão	-11.6218
烏	-11.6219
たけ	-11.6219
ツール	-11.622
stal	-11.6223
gc	-11.6226
スリー	-11.6226
才	-11.6226
wire	-11.6229
ô	-11.623
の際に	-11.623
、1979	-11.6231
3-4	-11.6231
ota	-11.6235
pedro	-11.6235
裁判	-11.6237
ibm	-11.6238
roots	-11.6241
cham	-11.6242
午後	-11.6243
函館	-11.6243
als	-11.6243
guitars	-11.6243
授業	-11.6244
ちゅうがっこう	-11.6245
大学名誉教授	-11.6245
第二次世界大戦	-11.6245
形状	-11.6246
沿岸	-11.6246
アクセス	-11.6247
statue	-11.6248
sud	-11.6248
rm	-11.6248
accept	-11.6249
124	-11.625
普及	-11.6252
gilbert	-11.6253
規格	-11.6256
headed	-11.6256
mov	-11.6256
eller	-11.6256
を得た	-11.6259
の記録	-11.6259
山岳	-11.6259
乾	-11.6261
(1990	-11.6261
buffalo	-11.6264
kei	-11.6264
中国語版	-11.6264
フィリピン	-11.6265
panel	-11.6265
現役	-11.6266
dav	-11.6266
審	-11.6267
iata	-11.6269
泊	-11.627
marsh	-11.6271
シンガポール	-11.6272
accepted	-11.6272
jen	-11.6273
ディング	-11.6273
$1	-11.6276
connection	-11.6277
kala	-11.6278
marketing	-11.6278
近鉄	-11.628
(2014)	-11.6283
アクション	-11.6285
から約	-11.6286
養子	-11.6288
dreams	-11.6288
ンス	-11.6289
ハワイ	-11.6289
中期	-11.629
つ前は	-11.6291
ę	-11.6292
tiger	-11.6292
fus	-11.6295
naka	-11.6298
陸上	-11.63
easy	-11.6301
いき	-11.6305
bulgaria	-11.6307
kot	-11.6308
箇所	-11.6308
broke	-11.6309
エース	-11.631
signing	-11.631
人に	-11.6311
に基づく	-11.6312
廣	-11.6314
プラス	-11.6314
ロング	-11.6315
objects	-11.6316
コート	-11.6316
spar	-11.6318
9).	-11.6319
gai	-11.6319
号は	-11.6319
洗	-11.632
facts	-11.6321
monster	-11.6323
。2016	-11.6324
occupied	-11.6324
п	-11.6327
希望	-11.6328
荷	-11.6333
switch	-11.6335
converted	-11.6336
layer	-11.6337
actually	-11.6337
†	-11.6339
ボーイ	-11.6339
за	-11.634
pyr	-11.6341
東西	-11.6343
recognition	-11.6343
philippine	-11.6347
漁	-11.6348
のまま	-11.6351
chip	-11.6353
ドラフト	-11.6353
阿部	-11.6353
〜」	-11.6354
ニュージーランド	-11.6354
首都	-11.6354
56.	-11.6357
aires	-11.6358
ズの	-11.6358
ホン	-11.6359
芦	-11.6361
someone	-11.6363
バレー	-11.6363
scar	-11.6363
coat	-11.6363
pour	-11.6366
暮らし	-11.6367
1847	-11.6367
ルール	-11.6369
トヨタ	-11.637
モア	-11.6371
サッカー選手	-11.6372
モル	-11.6373
hub	-11.6373
raymond	-11.6374
グループの	-11.6376
海上	-11.6376
蘇	-11.6376
燃料	-11.6376
回り	-11.6377
表面	-11.6377
metre	-11.6378
registration	-11.6378
専	-11.6378
伊達	-11.638
テー	-11.6381
rav	-11.6382
公社	-11.6383
佐野	-11.6383
dow	-11.6383
friedrich	-11.6384
」、『	-11.6384
cula	-11.6386
slightly	-11.6386
スカイ	-11.6387
ño	-11.639
zin	-11.639
可能な	-11.639
落ち	-11.639
ма	-11.6391
exile	-11.6392
価格	-11.6394
phoenix	-11.6394
注意	-11.6397
(2014).	-11.6397
ceremony	-11.6399
0-4	-11.64
藤田	-11.6403
山下	-11.6403
近世	-11.6404
鑑	-11.6406
landing	-11.6406
豊田	-11.6407
8°	-11.6407
バリ	-11.6407
temperature	-11.641
楽章	-11.641
搭載	-11.6411
年ぶり	-11.6413
モリ	-11.6415
苦	-11.6415
バーグ	-11.6415
?)	-11.6419
›	-11.6421
場合もある	-11.6424
キャラ	-11.6424
校区	-11.6425
cards	-11.6429
良い	-11.643
告示第	-11.6431
のことである	-11.6431
狂	-11.6432
princeton	-11.6433
乗り	-11.6435
yes	-11.6437
スコットランド	-11.6438
こく	-11.6438
132	-11.6438
slow	-11.6438
pun	-11.6445
信仰	-11.6445
再建	-11.6445
合同	-11.6446
operator	-11.6446
発達	-11.6447
reflect	-11.6447
拡張	-11.6448
ready	-11.6449
remain	-11.6451
112	-11.6451
資金	-11.6452
58.	-11.6452
ドリーム	-11.6453
東映	-11.6454
読売新聞	-11.6454
長男	-11.6455
菓子	-11.6456
jal	-11.6457
speech	-11.6461
1987.	-11.6462
急行	-11.6463
revised	-11.6463
多数の	-11.6464
堅	-11.6465
2006).	-11.6466
鈴	-11.6468
使用されている	-11.647
(3)	-11.647
中隊	-11.6471
save	-11.6472
hamburg	-11.6473
equal	-11.6475
marital	-11.6475
昼	-11.6476
セブン	-11.6477
ough	-11.6477
ladies	-11.6477
アリス	-11.6478
oidea	-11.6478
stic	-11.6479
cott	-11.6481
homepage	-11.6483
fiba	-11.6483
ient	-11.6484
日に発売された	-11.6485
kenneth	-11.6487
82.	-11.6487
裁	-11.6489
françois	-11.6491
ве	-11.6491
生成	-11.6493
当たり	-11.6495
mineral	-11.6498
95.	-11.6498
田川	-11.65
、1970	-11.65
sisters	-11.65
uma	-11.6501
長岡	-11.6501
continental	-11.6501
eighth	-11.6502
完	-11.6502
瀬戸	-11.6503
ロシアの	-11.6505
ビス	-11.6507
社の	-11.6509
大隊	-11.6509
に師事	-11.6511
今井	-11.6511
市街地	-11.6511
球場	-11.6514
岡本	-11.6516
1988.	-11.6516
形成	-11.6517
(20	-11.6519
ador	-11.6519
tian	-11.6519
editions	-11.6521
guns	-11.6521
resort	-11.6521
依	-11.6522
tko	-11.6523
増加	-11.6524
女王	-11.6524
記号	-11.6525
struggle	-11.6526
に存在した	-11.6528
幻	-11.6529
後藤	-11.6529
calendar	-11.6531
申	-11.6531
haven	-11.6531
boo	-11.6532
fis	-11.6535
父親	-11.6537
kö	-11.6537
任務	-11.6538
いろ	-11.6538
perry	-11.654
fill	-11.6541
)※	-11.6541
参戦	-11.6541
ぶり	-11.6542
ンド	-11.6542
所蔵	-11.6543
horror	-11.6544
murphy	-11.6544
負け	-11.6544
分割	-11.6546
字は	-11.6547
で放送された	-11.6549
と同	-11.6551
1846	-11.6554
ポスト	-11.6554
pk	-11.6555
ц	-11.6555
球団	-11.6556
暴	-11.6558
軍人	-11.6561
萩	-11.6562
告	-11.6562
であるため	-11.6563
ツー	-11.6563
制定	-11.6563
operates	-11.6563
人形	-11.6568
myth	-11.6569
。2000	-11.6571
イラン	-11.6573
まだ	-11.6573
143	-11.6573
ひと	-11.6573
支社	-11.6574
passing	-11.6575
リーグの	-11.6577
解放	-11.6577
本名は	-11.6578
られていた	-11.6578
来た	-11.6579
指導者	-11.658
ちゅう	-11.658
でデビュー	-11.6583
defensive	-11.6586
1989)	-11.6587
ぼう	-11.6588
マラ	-11.6589
金曜日	-11.6589
1994)	-11.6591
simply	-11.6591
alis	-11.6593
1986.	-11.6596
frequently	-11.6596
和泉	-11.6599
ガラス	-11.6599
novels	-11.6599
でき	-11.6599
判	-11.66
lem	-11.6602
beta	-11.6602
ك	-11.6603
те	-11.6603
confirmed	-11.6604
伊豆	-11.6604
処分	-11.6606
一度	-11.6609
soil	-11.6609
ース	-11.661
相談	-11.6612
かた	-11.6613
bug	-11.6613
membership	-11.6613
threat	-11.6614
mora	-11.6616
知られている	-11.6616
ドラゴン	-11.6617
(1998).	-11.6619
frog	-11.6619
準備	-11.6621
counter	-11.6622
grow	-11.6625
truck	-11.6625
eddie	-11.6625
fuji	-11.6625
2),	-11.6626
吉野	-11.6626
birthday	-11.6626
relay	-11.6627
silva	-11.6628
の下で	-11.6629
ido	-11.6629
オフィシャルサイト	-11.6629
復興	-11.663
ments	-11.6631
observer	-11.6632
指揮者	-11.6633
主要	-11.6633
advocate	-11.6634
mps	-11.6637
統治	-11.6638
するも	-11.6638
長谷川	-11.6638
許可	-11.6643
affiliated	-11.6643
iraq	-11.6644
gregory	-11.6645
規模	-11.6647
joan	-11.6649
hoo	-11.6649
一般に	-11.6649
個の	-11.6651
隣	-11.6653
mart	-11.6655
ケース	-11.6658
代表取締役	-11.6658
122	-11.6659
岬	-11.6659
eleven	-11.6661
鷲	-11.6661
盛岡	-11.6662
cca	-11.6663
column	-11.6664
(1994)	-11.6665
comunale	-11.6665
sprint	-11.6667
ride	-11.6667
shared	-11.6669
・・・	-11.6669
delta	-11.667
discover	-11.6671
brad	-11.6672
著作	-11.6676
uff	-11.6676
derby	-11.6678
卿	-11.668
C	-11.668
bristol	-11.6682
truth	-11.6684
roth	-11.6684
‹	-11.6686
milk	-11.6689
33;	-11.669
の音楽	-11.6691
bian	-11.6691
ved	-11.6692
プラン	-11.6692
まい	-11.6693
日発行	-11.6693
1843	-11.6694
jul	-11.6695
カム	-11.6695
6-2	-11.6695
81.	-11.6697
飛び	-11.6699
miguel	-11.6699
nielsen	-11.6699
det	-11.6699
dating	-11.6705
開催された	-11.6706
公式ホームページ	-11.6707
民国	-11.6707
公認	-11.6708
ico	-11.6708
tea	-11.6709
ギー	-11.6709
監督の	-11.671
consecutive	-11.671
の影響	-11.6712
np	-11.6714
ソル	-11.6714
largely	-11.6715
襲	-11.6716
anchor	-11.6716
freestyle	-11.6717
ヘンリー	-11.6719
cork	-11.672
mtv	-11.6721
メス	-11.6723
doug	-11.6724
mou	-11.6724
元禄	-11.6724
に選ばれた	-11.6724
nath	-11.6724
beer	-11.6725
ストリート	-11.6725
アシスタント	-11.6727
皆	-11.673
dian	-11.6731
rifle	-11.6731
市立小	-11.6732
parallel	-11.6733
jos	-11.6733
boats	-11.6737
グラン	-11.6739
cru	-11.674
として活躍	-11.6741
incident	-11.6742
adrian	-11.6746
companion	-11.6746
phillips	-11.6746
然	-11.6748
alter	-11.6749
俣	-11.675
woods	-11.675
ña	-11.675
もあった	-11.6751
montana	-11.6755
task	-11.6755
率いる	-11.6755
痛	-11.6756
nel	-11.6756
harrison	-11.6757
の場合は	-11.6758
気象	-11.6758
centuries	-11.6759
oscar	-11.676
爆	-11.676
対戦	-11.676
mental	-11.6761
物理学	-11.6762
meter	-11.6765
marathon	-11.6766
混	-11.6766
thal	-11.6766
gou	-11.6768
neck	-11.6769
charter	-11.6769
iranian	-11.677
篤	-11.677
目標	-11.6771
vari	-11.6772
複数	-11.6772
ernest	-11.6774
するための	-11.6774
hudson	-11.6774
solve	-11.6776
単独	-11.6778
審査	-11.6778
即	-11.6778
ラジオ番組	-11.6781
rao	-11.6783
ここ	-11.6783
dag	-11.6784
consumer	-11.6785
sty	-11.6785
違い	-11.6786
uta	-11.6786
ほん	-11.6786
母は	-11.6786
眠	-11.6787
脱退	-11.6789
加賀	-11.6789
ör	-11.6789
高崎	-11.679
災害	-11.6791
vid	-11.6792
およそ	-11.6792
さと	-11.6794
disney	-11.6795
everything	-11.6795
歩兵	-11.6796
fauna	-11.6798
偽	-11.6798
寝	-11.68
伏	-11.6801
シオ	-11.6803
添	-11.6803
mach	-11.6806
oxy	-11.6808
ación	-11.6809
universities	-11.6809
promise	-11.6809
学科卒業	-11.6813
athens	-11.6813
(1991	-11.6814
武蔵	-11.6814
を記録した	-11.6815
挑戦	-11.6815
franchise	-11.6815
colin	-11.6816
1993)	-11.6818
東日本旅客鉄道	-11.6818
devon	-11.6818
、1976	-11.6819
の結果	-11.6821
好き	-11.6821
パートナー	-11.6822
owners	-11.6823
organic	-11.6826
patent	-11.6826
1-6	-11.6827
を開始した	-11.6827
実践	-11.6827
10,000	-11.683
situation	-11.683
まれ	-11.683
vat	-11.6832
74.	-11.6834
barb	-11.6834
aus	-11.6834
warner	-11.6838
年の第	-11.684
0.8	-11.684
boundary	-11.684
佐伯	-11.6841
消防署	-11.6842
lud	-11.6843
perform	-11.6843
4-6	-11.6845
似	-11.6846
extensive	-11.6846
employed	-11.6847
末期	-11.6848
munich	-11.6848
拓	-11.6849
learn	-11.6849
outer	-11.6851
tac	-11.6851
出馬	-11.6853
鳳	-11.6853
nga	-11.6854
grim	-11.6854
attached	-11.6854
exempt	-11.6854
西村	-11.6856
適	-11.6857
モード	-11.6858
sultan	-11.6858
装備	-11.6858
1992)	-11.6859
nit	-11.686
1985.	-11.6862
75.	-11.6863
が行われる	-11.6866
ticket	-11.6867
152	-11.6867
84.	-11.6869
加茂	-11.6869
新潮社	-11.6869
rab	-11.687
zak	-11.6872
クリス	-11.6872
ごと	-11.6873
trouble	-11.6874
auckland	-11.6874
cord	-11.6874
suffered	-11.6875
teachers	-11.6875
チャールズ	-11.6877
頃から	-11.6877
楠	-11.6878
chy	-11.6881
あさ	-11.6882
viv	-11.6882
まず	-11.6885
みち	-11.6886
外国人	-11.6886
swa	-11.6886
原田	-11.6886
の製造	-11.6887
合格	-11.6891
monastery	-11.6893
är	-11.6893
人口約	-11.6893
都道府県	-11.6897
衆議院	-11.6897
quickly	-11.6897
ビール	-11.6897
87.	-11.6899
カナ	-11.69
ディス	-11.6901
sabha	-11.6903
trap	-11.6904
wake	-11.6904
expert	-11.6904
ラク	-11.6906
財団	-11.6908
兵器	-11.6909
scientist	-11.6909
toll	-11.691
本塁打	-11.691
石田	-11.6911
涙	-11.6913
tti	-11.6913
氏が	-11.6913
ゲイ	-11.6914
revealed	-11.6915
斗	-11.6915
大宮	-11.6915
edwards	-11.6918
larva	-11.6918
たん	-11.6919
occupation	-11.6919
siege	-11.6921
日経	-11.6923
manor	-11.6923
行われ	-11.6925
arnold	-11.6927
caribbean	-11.6927
blanc	-11.6929
に加入	-11.6929
odd	-11.6929
berger	-11.693
thirty	-11.6931
応援	-11.6931
pia	-11.6932
choir	-11.6933
に所属する	-11.6933
臨床	-11.6935
escape	-11.6935
220	-11.6936
毎	-11.6937
体の	-11.6939
ごとに	-11.6941
ヴァイ	-11.6942
ncia	-11.6943
astronomy	-11.6943
出入口	-11.6945
ユナイテッド	-11.6945
tis	-11.6947
野田	-11.6947
graduating	-11.6947
悠	-11.6949
cir	-11.695
announces	-11.6951
ディスク	-11.6953
笑	-11.6953
armenian	-11.6954
コミュニティ	-11.6954
薫	-11.6955
ère	-11.6955
spider	-11.6957
カフェ	-11.6957
maurice	-11.6958
penguin	-11.696
の地	-11.6962
重複	-11.6963
boro	-11.6964
後半	-11.6964
委託	-11.6967
admiral	-11.6969
ための	-11.697
アブ	-11.6971
1.3	-11.6971
owski	-11.6973
平日	-11.6974
sack	-11.6975
求	-11.6976
lena	-11.6977
ronald	-11.6978
receive	-11.698
pressure	-11.698
アール	-11.6981
engineers	-11.6982
ière	-11.6984
depth	-11.6985
ellen	-11.6987
vig	-11.6989
outdoor	-11.699
ファースト	-11.6991
tales	-11.6991
照明	-11.6991
比較的	-11.6992
ローカル	-11.6995
征	-11.7001
県立	-11.7001
1990,	-11.7002
科の	-11.7003
」(『	-11.7003
ヤマ	-11.7004
溝	-11.7004
getting	-11.7005
terra	-11.7006
応用	-11.7006
dp	-11.7006
大手	-11.7008
?"	-11.7009
crc	-11.7009
沿革	-11.7009
credited	-11.701
pain	-11.701
キャンパス	-11.7011
lyon	-11.7011
1997)	-11.7012
三井	-11.7013
stanford	-11.7013
voyage	-11.7013
始め	-11.7013
mean	-11.7013
egyptian	-11.7014
2-3	-11.7014
内科	-11.7014
typical	-11.7015
西区	-11.7016
地区の	-11.7016
cult	-11.702
temp	-11.7022
あら	-11.7022
charity	-11.7022
についての	-11.7023
67;	-11.7023
リーグ戦	-11.7024
んでいる	-11.7025
aaa	-11.7026
、1978	-11.7027
柴	-11.7028
間に	-11.7028
wellington	-11.7028
98.	-11.7028
をリリース	-11.7029
0-6	-11.7029
発音	-11.703
星の	-11.7031
lighthouse	-11.7031
ロイ	-11.7033
tik	-11.7033
よい	-11.7034
抜	-11.7035
いま	-11.7035
春日	-11.7035
punjab	-11.7035
ق	-11.7037
ロサンゼルス	-11.7038
誤	-11.7038
dress	-11.7038
ج	-11.7039
cant	-11.7041
ひら	-11.7042
bau	-11.7043
franz	-11.7044
biz	-11.7047
heath	-11.7049
scholarship	-11.705
wag	-11.705
が必要	-11.7051
できた	-11.7051
abandoned	-11.7053
ár	-11.7054
年以降	-11.7055
sleep	-11.7055
作用	-11.7055
creating	-11.7057
1845	-11.7057
poem	-11.7057
checklist	-11.706
rant	-11.706
を描いた	-11.706
authorities	-11.7061
volumes	-11.7061
logy	-11.7062
水戸	-11.7063
root	-11.7064
scotia	-11.7064
、1975	-11.7064
[3]	-11.7065
coaches	-11.7069
wel	-11.707
ビア	-11.707
崩壊	-11.707
磨	-11.7071
序	-11.7074
ふるさと	-11.7074
1983.	-11.7074
bears	-11.7077
raise	-11.7078
止	-11.7081
アウ	-11.7082
joins	-11.7083
watson	-11.7083
えて	-11.7084
フランク	-11.7085
catch	-11.7085
85.	-11.7086
93.	-11.7088
ベリー	-11.7088
wait	-11.7089
提案	-11.7089
breaking	-11.709
haus	-11.7093
ح	-11.7094
漫画家	-11.7095
protest	-11.7098
北海道道	-11.71
を得る	-11.71
固定	-11.7103
iva	-11.7104
leonard	-11.7104
kou	-11.7104
燕	-11.7104
lamp	-11.7105
日野	-11.7105
(1984)	-11.7105
1991)	-11.7106
window	-11.7106
laura	-11.7107
薄	-11.7107
出雲	-11.7109
honey	-11.711
cave	-11.7112
危機	-11.7113
1-7	-11.7114
де	-11.7114
(1989	-11.7116
ブルース	-11.7116
η	-11.7117
pé	-11.7117
stick	-11.7117
イチ	-11.7118
寛永	-11.712
190	-11.712
人事	-11.7121
初め	-11.7121
kennedy	-11.7122
3-8	-11.7122
1990)	-11.7122
国王	-11.7124
venezuela	-11.7124
virus	-11.7124
ノール	-11.7126
編纂	-11.7126
菊池	-11.7127
endo	-11.713
syl	-11.7131
フリードリヒ	-11.7132
tica	-11.7133
不詳	-11.7133
修了	-11.7134
abitate	-11.7135
fw	-11.7136
時計	-11.7136
grid	-11.7137
ゼル	-11.7137
reservoir	-11.7138
まん	-11.7143
クイズ	-11.7144
initiative	-11.7144
英雄	-11.7144
animation	-11.7144
聡	-11.7144
活動を	-11.7145
prim	-11.7145
improv	-11.7146
coaching	-11.7147
交番	-11.7149
semifinals	-11.7149
幡	-11.715
ッティ	-11.7151
漢字	-11.7151
zhang	-11.7151
serie	-11.7154
laugh	-11.7156
含まれ	-11.7157
ě	-11.7158
wards	-11.716
しているが	-11.716
練	-11.7162
prague	-11.7162
コンビ	-11.7163
に参加した	-11.7164
が収録されている	-11.7164
1844	-11.7167
を用いて	-11.7168
ナレーション	-11.717
wingspan	-11.7171
本店	-11.7172
sierra	-11.7173
gk	-11.7174
議長	-11.7174
1.8	-11.7175
ムス	-11.7176
functions	-11.7176
sequence	-11.7177
archiv	-11.7177
isle	-11.7178
ș	-11.718
streets	-11.718
madison	-11.718
の町名	-11.7181
stockholm	-11.7183
リャ	-11.7183
kmq	-11.7184
lá	-11.7184
村が	-11.7185
を用いた	-11.7188
nach	-11.7189
種目	-11.7191
62.	-11.7193
72.	-11.7193
ナンバー	-11.7194
赤い	-11.7196
cricinfo	-11.7197
ティック	-11.7199
shield	-11.72
0.9	-11.7202
が可能	-11.7202
浦和	-11.7203
chia	-11.7204
killing	-11.7204
褐色	-11.7204
最初に	-11.7205
classified	-11.7206
statement	-11.7208
後も	-11.7208
徒	-11.7209
anger	-11.7209
tigers	-11.721
presence	-11.7212
製薬	-11.7213
jose	-11.7213
champ	-11.7214
5°	-11.7214
determin	-11.7215
88.	-11.7216
郭	-11.7216
dawn	-11.7217
ものが	-11.7217
みの	-11.7218
を得て	-11.7219
hamlet	-11.722
graf	-11.7221
徳川	-11.7223
心理学	-11.7226
献	-11.7226
loch	-11.7227
銭	-11.7231
ランプ	-11.7232
fold	-11.7233
秘書	-11.7236
モス	-11.7238
luke	-11.724
handed	-11.7243
とり	-11.7243
倶楽部	-11.7247
シャル	-11.7248
genre	-11.7248
注目	-11.7248
弟子	-11.7249
廃止された	-11.725
コンテスト	-11.7251
イェ	-11.7253
供	-11.7254
131	-11.7255
染	-11.7255
mathematical	-11.7255
粉	-11.7258
天使	-11.7258
iidae	-11.726
狭	-11.726
ソビエト連邦	-11.726
geography	-11.726
として知られる	-11.726
arctic	-11.7261
!?	-11.7262
ш	-11.7267
rov	-11.7267
史上	-11.7267
ヒト	-11.7269
biggest	-11.7271
divisions	-11.7272
ratio	-11.7272
来日	-11.7274
drummer	-11.7274
1837	-11.7274
kers	-11.7275
神田	-11.7277
experimental	-11.7277
cub	-11.7279
歳の	-11.728
桐	-11.7281
bf	-11.7283
胡	-11.7284
随	-11.7285
gem	-11.7285
ultimate	-11.7285
heard	-11.7286
せる	-11.7288
の神	-11.7288
1996)	-11.7289
があるが	-11.7289
corp	-11.7289
ý	-11.7291
っていない	-11.7292
arrested	-11.7296
ネン	-11.7296
mcc	-11.7296
handball	-11.7297
堤	-11.7298
ラウンド	-11.7299
日本の鉄道駅一覧	-11.73
seconds	-11.7302
helm	-11.7304
硬	-11.7304
mund	-11.7304
sight	-11.7304
地方の	-11.7305
押し	-11.7305
大津	-11.7308
engines	-11.7309
со	-11.7311
003	-11.7312
94.	-11.7312
routes	-11.7313
chat	-11.7313
external	-11.7314
hul	-11.7315
この時	-11.7316
shima	-11.7316
オープニングテーマ	-11.7316
monk	-11.7317
courts	-11.7318
いつ	-11.7319
歳以上	-11.732
ウェブサイト	-11.7321
clinical	-11.7321
pitch	-11.7321
kerala	-11.7321
iwa	-11.7321
vermont	-11.7322
tho	-11.7324
ジェット	-11.7324
ordered	-11.7324
木曜	-11.7327
tron	-11.7328
scores	-11.733
のみで	-11.733
文明	-11.733
hod	-11.7331
arranged	-11.7331
slovenia	-11.7332
労働者	-11.7332
化された	-11.7332
ディン	-11.7333
大学校	-11.7336
駐在所	-11.7336
液	-11.7337
連携	-11.7338
isch	-11.7338
設立された	-11.7341
1991,	-11.7342
-08	-11.7343
kv	-11.7343
アカ	-11.7343
contributed	-11.7344
linux	-11.7344
itz	-11.7345
完了	-11.7346
57.	-11.7348
visible	-11.7348
駅の	-11.7349
instruments	-11.7351
pag	-11.7352
snake	-11.7352
だと	-11.7353
280	-11.7354
ès	-11.7355
期待	-11.7356
テレビ番組	-11.7356
turns	-11.7356
過程	-11.7358
peer	-11.7358
号交点	-11.7359
まつり	-11.7359
大久保	-11.7361
cali	-11.7361
吉川	-11.7362
いわ	-11.7363
instagram	-11.7365
を廃止	-11.7366
load	-11.7368
ポル	-11.7368
transition	-11.7368
支持	-11.737
じゃ	-11.7371
rangers	-11.7371
artistic	-11.7371
virtual	-11.7371
チョウ	-11.7372
artillery	-11.7373
wedding	-11.7375
エンド	-11.7377
stall	-11.7377
(24	-11.7377
イト	-11.7378
うた	-11.7379
rup	-11.7379
コトバンク	-11.7381
306	-11.7383
icus	-11.7386
1842	-11.7388
bac	-11.7389
1832	-11.7391
出身のサッカー選手	-11.7394
にわたって	-11.7395
1987)	-11.7396
kita	-11.7397
claims	-11.7398
功績	-11.7398
zip	-11.7398
発射	-11.74
宜	-11.7402
vier	-11.7403
信濃	-11.7405
山頂	-11.7405
方言	-11.7406
0000	-11.7406
ブックス	-11.7407
學	-11.7408
エク	-11.7409
置かれ	-11.7409
receiving	-11.7409
alumni	-11.741
bryan	-11.7412
実業家	-11.7413
地元の	-11.7414
ギャ	-11.7415
ロマン	-11.7415
162	-11.7416
スミス	-11.7417
実現	-11.7417
iba	-11.7419
chrom	-11.742
オープニング	-11.742
ルス	-11.7421
セリエ	-11.7423
powered	-11.7423
trick	-11.7429
ahead	-11.743
線交点	-11.743
(1993)	-11.7431
kb	-11.7431
serv	-11.7433
堺	-11.7433
羊	-11.7433
クレジット	-11.7434
ビュー	-11.7435
allan	-11.7436
モンゴル	-11.7437
部に	-11.7437
invited	-11.744
rach	-11.744
探	-11.7442
appeal	-11.7443
揚	-11.7444
山地	-11.7445
シェル	-11.7445
tong	-11.7445
たり	-11.7445
詰	-11.7447
fb	-11.7447
警	-11.7448
blind	-11.7448
最多	-11.745
quot	-11.7451
modul	-11.7451
formal	-11.7451
ンヌ	-11.7455
負傷	-11.7455
向き	-11.7457
の前身	-11.7457
操作	-11.7457
西側	-11.7458
の会	-11.7461
かなり	-11.7461
returns	-11.7461
edit	-11.7462
wooden	-11.7463
pha	-11.7463
チャート	-11.7463
sail	-11.7463
cerambycidae	-11.7464
氏は	-11.7464
не	-11.7465
buch	-11.7465
peaked	-11.7466
funding	-11.7466
discussion	-11.7467
wat	-11.7468
tyr	-11.7468
moral	-11.7468
好きな	-11.7472
wonder	-11.7476
駅間	-11.7476
フィリップ	-11.7478
を受賞	-11.7478
すぎ	-11.7478
oi	-11.7478
2-2	-11.7478
エム	-11.7479
たる	-11.7479
zam	-11.7479
kho	-11.7479
整	-11.7479
享保	-11.7481
mollusk	-11.7482
東区	-11.7485
biological	-11.7486
1841	-11.7486
たもの	-11.7486
го	-11.7487
頂	-11.7488
仲間	-11.7488
持つ	-11.7489
低い	-11.749
輸入	-11.7491
起こ	-11.7491
田辺	-11.7491
hide	-11.7493
人の基礎自治体	-11.7493
gum	-11.7494
やり	-11.7494
efforts	-11.7495
の際	-11.7496
democrat	-11.7497
住所	-11.75
theodor	-11.75
clu	-11.7501
フィル	-11.7501
thunder	-11.7501
gger	-11.7502
を中心とした	-11.7504
スパイ	-11.7505
田原	-11.751
raven	-11.751
鹿島	-11.7514
規制	-11.7516
roc	-11.7516
haut	-11.7517
らん	-11.7518
crowd	-11.7519
treaty	-11.7524
譲渡	-11.7524
反乱	-11.7526
ulu	-11.7527
stood	-11.7527
岩手	-11.7528
shopping	-11.7528
ð	-11.753
の長男	-11.7531
ほどの	-11.7531
superior	-11.7532
recreation	-11.7532
ز	-11.7532
entrepreneur	-11.7534
approved	-11.7535
普通科	-11.7537
gé	-11.7538
事務局	-11.7539
oir	-11.754
パート	-11.7542
出口	-11.7543
79.	-11.7546
borders	-11.7546
ミング	-11.7546
阪急	-11.7547
日本郵便	-11.7547
継続	-11.7548
トリー	-11.7548
northwestern	-11.7549
両親	-11.7549
grows	-11.7549
敦	-11.7549
meets	-11.7553
淡	-11.7554
141	-11.7554
connect	-11.7555
boxer	-11.7555
美濃	-11.7556
(1981)	-11.7559
られて	-11.7559
証券	-11.756
島津	-11.756
ą	-11.756
premiered	-11.7561
jiang	-11.7561
grounds	-11.7561
全線	-11.7562
3-2	-11.7562
はる	-11.7562
民主党	-11.7562
囲碁	-11.7563
tommy	-11.7563
なった	-11.7564
黒田	-11.7565
^{	-11.7566
dum	-11.7567
hob	-11.7568
月末	-11.7568
terminus	-11.7569
巨	-11.757
(2015)	-11.757
無線	-11.757
近畿	-11.7571
ль	-11.7572
constituencies	-11.7574
又は	-11.7574
lover	-11.7575
vita	-11.7576
を結成	-11.7576
紋	-11.7577
れい	-11.7577
hosts	-11.7577
虹	-11.7578
pride	-11.758
developer	-11.758
6-1	-11.7581
、1977	-11.7583
順位	-11.7584
needs	-11.7586
学区	-11.7587
郵便	-11.7587
込	-11.7588
盗	-11.7588
境内	-11.7588
giants	-11.7588
regularly	-11.7589
を最後に	-11.7589
clock	-11.759
ło	-11.7593
(1992)	-11.7594
買	-11.7594
crow	-11.7595
へ移籍	-11.7597
北条	-11.76
ヴェン	-11.76
tries	-11.76
pir	-11.7601
tham	-11.7601
の放送	-11.7602
berkeley	-11.7603
ario	-11.7605
日曜日	-11.7605
hess	-11.7605
subfamily	-11.7606
attend	-11.7606
タワー	-11.7607
朝日放送	-11.7608
billion	-11.7608
慶應義塾大学	-11.7608
bah	-11.7608
bart	-11.7609
defeating	-11.7609
浄	-11.7609
。2017	-11.7612
casa	-11.7612
bolivia	-11.7613
avoid	-11.7613
社員	-11.7614
これにより	-11.7614
は以下の通りである	-11.7615
550	-11.7618
arnett	-11.7619
unlike	-11.7622
古い	-11.7622
1986)	-11.7622
mbo	-11.7623
rowing	-11.7624
有限会社	-11.7624
葬	-11.7625
identity	-11.7626
の小	-11.7626
saskatchewan	-11.7626
fcc	-11.7627
学級	-11.7628
whether	-11.7628
逃げ	-11.7629
vern	-11.7629
キーボード	-11.7629
ibn	-11.7631
ラスト	-11.7631
月現在	-11.7632
明日	-11.7633
boom	-11.7635
83°	-11.7636
todd	-11.7636
sac	-11.7636
表彰	-11.7636
奉行	-11.7639
縦	-11.7639
odi	-11.764
spell	-11.764
形の	-11.764
!”.	-11.7642
(1988	-11.7642
kata	-11.7643
の意	-11.7647
(2010-07-0	-11.7649
ここで	-11.7654
represents	-11.7655
duck	-11.7655
日本経済新聞	-11.7656
qualifier	-11.7656
免	-11.7656
南海	-11.7657
に編入	-11.766
nut	-11.766
cells	-11.766
に入学	-11.766
微	-11.7661
1,0	-11.7662
partners	-11.7663
nico	-11.7663
gender	-11.7665
伝統	-11.7666
answer	-11.7666
カタ	-11.7667
edmund	-11.7668
fam	-11.7669
tend	-11.767
柴田	-11.767
包	-11.767
ワイン	-11.7672
幕末	-11.7673
殺人	-11.7673
年表	-11.7674
ユニ	-11.7675
175	-11.7676
五輪	-11.7676
ベラ	-11.7676
dov	-11.7677
videos	-11.7677
の略	-11.7677
天神	-11.7679
-1)	-11.768
hurst	-11.7681
大名	-11.7682
да	-11.7683
то	-11.7686
expression	-11.7689
オフィシャルブログ	-11.769
dash	-11.7691
、1974	-11.7691
matter	-11.7693
conf	-11.7693
前期	-11.7693
scheme	-11.7695
することを	-11.7696
フロ	-11.7696
2005).	-11.7697
人口は	-11.7698
1988)	-11.7698
クライ	-11.7698
に所在する	-11.7699
ワシントン	-11.7701
惑星	-11.7701
日本で	-11.7701
quarterfinals	-11.7702
、1972	-11.7702
cyclist	-11.7702
alma	-11.7702
alo	-11.7704
しなかった	-11.7705
勤	-11.7706
lys	-11.7707
nun	-11.7708
ヘッド	-11.7708
ジオ	-11.7709
ウィル	-11.7711
julian	-11.7712
針	-11.7714
物の	-11.7716
industries	-11.7716
llan	-11.7717
ecuador	-11.7718
灰	-11.7718
clair	-11.7719
acre	-11.7724
(21	-11.7726
往復	-11.7727
籠	-11.7727
1839	-11.7728
手法	-11.7729
童	-11.7729
、1973	-11.7729
advance	-11.7734
三河	-11.7734
dust	-11.7735
ミッション	-11.7736
270	-11.7736
地に	-11.7737
エール	-11.7737
competing	-11.7738
承認	-11.7738
polo	-11.7739
価値	-11.774
電波	-11.7741
colo	-11.7742
amar	-11.7743
cun	-11.7744
だけでなく	-11.7745
users	-11.7747
idaho	-11.7747
松原	-11.7747
れて	-11.7748
sw	-11.7748
木造	-11.7748
頃に	-11.7749
methods	-11.7751
と同様に	-11.7753
perth	-11.7753
abs	-11.7753
モール	-11.7754
日報	-11.7759
桜井	-11.7759
surgery	-11.7761
damage	-11.7761
completely	-11.7762
庭園	-11.7764
jct	-11.7765
開局	-11.7765
conductor	-11.7768
壇	-11.7768
分岐	-11.7771
vinyl	-11.7771
adults	-11.7772
wyn	-11.7773
gear	-11.7775
ペット	-11.7776
botanical	-11.7776
子が	-11.7778
tool	-11.7779
friendly	-11.7781
焼き	-11.7781
nathan	-11.7782
富田	-11.7782
ブルク	-11.7783
request	-11.7783
宮城	-11.7784
つな	-11.7785
1998)	-11.7785
事情	-11.7786
combination	-11.7786
再編	-11.7787
enemy	-11.7787
寮	-11.7788
横山	-11.7789
marcel	-11.7791
lk	-11.7791
城主	-11.7791
働き	-11.7791
スン	-11.7792
キス	-11.7793
debuted	-11.7793
マグ	-11.7794
侵攻	-11.7794
リウス	-11.7795
幌	-11.7796
こともあり	-11.7801
北方	-11.7803
sant	-11.7803
tram	-11.7804
ノース	-11.7805
業者	-11.7807
との間に	-11.7808
365	-11.7809
トイレ	-11.7811
あと	-11.7812
代理	-11.7815
は中華人民共和国	-11.7816
aru	-11.7816
ショウ	-11.7817
#2	-11.7817
latest	-11.7819
205	-11.782
adapted	-11.7821
に伴う	-11.7823
mn	-11.7823
アド	-11.7825
ファイ	-11.7827
独自の	-11.7828
vfl	-11.783
尋常小学校	-11.7834
forming	-11.7835
serial	-11.7835
松浦	-11.7836
に相当する	-11.7837
天文台	-11.7838
citizens	-11.7839
cluster	-11.7839
carlo	-11.784
bara	-11.784
230	-11.7841
ify	-11.7844
actors	-11.7847
天体	-11.7848
みず	-11.785
compared	-11.785
davies	-11.7851
fir	-11.7853
lach	-11.7854
浜田	-11.7856
dish	-11.7861
209	-11.7862
])	-11.7862
vad	-11.7862
テック	-11.7864
日に行われた	-11.7864
retail	-11.7864
ía	-11.7864
大輔	-11.7865
manufacturing	-11.7865
norsk	-11.7866
archaeological	-11.7867
389	-11.7868
マイル	-11.7868
諸国	-11.7869
スピ	-11.787
。2018	-11.787
ボックス	-11.7872
instituto	-11.7874
09.	-11.7875
brisbane	-11.7875
についても	-11.7875
で放送されていた	-11.7878
jefferson	-11.7878
wh	-11.788
グレイ	-11.788
性格	-11.7881
昔	-11.7883
外科	-11.7884
創造	-11.7884
賞を受賞した	-11.7884
rapid	-11.7885
editorial	-11.7887
賜	-11.7891
をしていた	-11.7893
delaware	-11.7894
沿い	-11.7894
で知られる	-11.7894
mystery	-11.7897
性能	-11.7899
河原	-11.7899
正式に	-11.79
rally	-11.7902
shock	-11.7903
と合併し	-11.7903
管区	-11.7904
指名	-11.7906
落選	-11.7907
猪	-11.7907
水道	-11.7909
bonn	-11.7912
occurred	-11.7912
これら	-11.7912
86.	-11.7913
degrees	-11.7913
鉱	-11.7913
testament	-11.7914
と呼ばれた	-11.7914
解決	-11.7914
されると	-11.7917
psychology	-11.7918
96.	-11.7921
ahmed	-11.7922
venue	-11.7922
を取得	-11.7922
現場	-11.7923
ы	-11.7926
スポンサー	-11.7926
budget	-11.7928
からも	-11.793
バッハ	-11.7933
殺害	-11.7933
ニャ	-11.7933
cyclo	-11.7934
contained	-11.7934
stu	-11.7935
了	-11.7935
patron	-11.7937
ツィ	-11.7937
ストン	-11.7937
tw	-11.7938
sina	-11.7938
ottoman	-11.7939
早く	-11.7939
韓国の	-11.7939
町大字	-11.7939
退団	-11.794
chase	-11.794
fel	-11.7941
rita	-11.7942
07.	-11.7942
osaka	-11.7942
giovanni	-11.7944
warsaw	-11.7944
ぞう	-11.7948
伝承	-11.7951
(1980)	-11.7951
も多い	-11.7952
reduced	-11.7953
上記の	-11.7956
ぜん	-11.7957
hear	-11.7958
⇒	-11.7958
まとめ	-11.7959
institut	-11.796
曲目	-11.796
1980.	-11.7961
棒	-11.7962
safe	-11.7963
ович	-11.7965
persons	-11.7965
取扱	-11.7965
効	-11.7965
mario	-11.7966
(1979)	-11.7969
時点	-11.7969
正式	-11.797
西洋	-11.797
3-5	-11.7972
sections	-11.7975
つけ	-11.7976
yon	-11.7976
rider	-11.7977
郵便番号は	-11.7977
に存在する	-11.7978
essex	-11.7979
acted	-11.7979
すべての	-11.798
潜	-11.798
beam	-11.798
海峡	-11.7981
親王	-11.7981
広島市	-11.7982
mira	-11.7983
scenes	-11.7983
1982.	-11.7984
島田	-11.7984
バンク	-11.7985
endra	-11.7986
藤沢	-11.7986
式の	-11.7986
142	-11.7986
メッセージ	-11.7987
ferry	-11.7988
notice	-11.7988
北朝鮮	-11.7989
ゼロ	-11.799
walking	-11.7991
drew	-11.7991
億円	-11.7993
мо	-11.7993
stroke	-11.7994
回目の	-11.7994
子ども	-11.7995
161	-11.7995
decade	-11.7997
クロー	-11.7999
ティア	-11.7999
スは	-11.8
取材	-11.8
肩	-11.8
伯爵	-11.8002
revolutionary	-11.8003
らい	-11.8006
hawks	-11.8007
oku	-11.8009
burke	-11.8009
mell	-11.801
公式ブログ	-11.801
1600	-11.8011
trumpet	-11.8012
一方で	-11.8013
spi	-11.8016
bike	-11.8017
これに	-11.8018
の本	-11.8018
まった	-11.8021
ものを	-11.8022
のぶ	-11.8024
白石	-11.8024
子は	-11.8025
gut	-11.8025
51°	-11.8025
fs	-11.8025
hughes	-11.8025
crisis	-11.8026
救急	-11.8026
apo	-11.8026
ヨハン	-11.8027
cephal	-11.8028
対立	-11.8028
ことになる	-11.803
を始めた	-11.803
杏	-11.803
酵素	-11.8031
ポルトガル語	-11.8033
monday	-11.8033
cay	-11.8034
以降の	-11.8037
俗	-11.8039
tex	-11.8039
ブラウン	-11.8039
会の	-11.8041
relatively	-11.8042
leh	-11.8043
carry	-11.8045
オリンピックの	-11.8045
一帯	-11.8045
左右	-11.8045
0°	-11.8046
松田	-11.8048
flame	-11.8049
フライ	-11.8049
stadt	-11.8053
1820	-11.8053
indie	-11.8053
routledge	-11.8053
に昇格	-11.8054
鍋	-11.8054
に当たる	-11.8055
1984.	-11.8056
様式	-11.8059
patrol	-11.806
なっている	-11.8061
エド	-11.8063
identification	-11.8064
療法	-11.8064
意識	-11.8065
manitoba	-11.8065
nancy	-11.8067
執行	-11.8067
ターミナル	-11.807
developing	-11.8073
rium	-11.8073
mbr	-11.8074
distinct	-11.8076
ってきた	-11.8079
meat	-11.8079
。2003	-11.808
mines	-11.8081
enburg	-11.8083
贈	-11.8085
が発足	-11.8085
2–1	-11.8086
sort	-11.8086
innings	-11.8086
検討	-11.8088
sca	-11.8089
朝鮮語	-11.809
彼女は	-11.809
鳥取	-11.809
日本映画	-11.8093
と呼ばれ	-11.8095
zion	-11.8096
installed	-11.8096
改め	-11.8099
見る	-11.81
熟	-11.8101
episcopal	-11.8102
branches	-11.8104
悪魔	-11.8104
マシン	-11.8104
込んだ	-11.8105
coalition	-11.8105
維持	-11.8106
留学	-11.8106
端末	-11.8109
coup	-11.811
fid	-11.8112
romance	-11.8112
007	-11.8114
ngo	-11.8115
担	-11.8116
wir	-11.8117
moment	-11.8118
jerusalem	-11.8119
リル	-11.8119
武器	-11.8119
フェスティバル	-11.812
1985)	-11.812
replace	-11.8122
やすい	-11.8124
札幌市	-11.8127
(1987	-11.8129
phd	-11.8129
opposite	-11.8129
定期	-11.8131
命名	-11.8131
newcastle	-11.8131
英文	-11.8131
killer	-11.8133
認可	-11.8133
gawa	-11.8133
法の	-11.8135
relative	-11.8135
insee	-11.8137
1.4	-11.8137
orthodox	-11.8138
大坂	-11.814
canon	-11.814
桁	-11.8141
fasci	-11.8142
enterprise	-11.8142
logic	-11.8144
repair	-11.8147
天皇の	-11.8148
ف	-11.8149
長期	-11.8149
が成立	-11.815
司法	-11.8152
(1997).	-11.8152
saying	-11.8153
コウ	-11.8153
湊	-11.8154
アラン	-11.8156
kap	-11.8157
武士	-11.8158
バトル	-11.8159
いし	-11.8162
experiment	-11.8164
(25	-11.8164
を獲得	-11.8164
florence	-11.8166
thor	-11.8167
に生まれた	-11.8169
トランス	-11.8169
electro	-11.8171
orleans	-11.8171
ことに	-11.8175
78.	-11.8175
運航	-11.8176
外国	-11.8176
66.	-11.8176
ゾン	-11.8179
liberty	-11.8179
congregation	-11.8179
上下	-11.818
survived	-11.818
1833	-11.8183
adventures	-11.8185
shut	-11.8186
passengers	-11.8187
stakes	-11.8187
慈	-11.8188
nap	-11.8188
建築家	-11.8188
1979.	-11.8189
ファミリー	-11.8189
同時	-11.819
深い	-11.819
1836	-11.8191
morph	-11.8191
クリスマス	-11.8194
敗退	-11.8197
successor	-11.8198
rankings	-11.8198
northeastern	-11.8201
をもつ	-11.8201
ブン	-11.8202
idol	-11.8203
ğ	-11.8203
lights	-11.8203
nicol	-11.8205
事業者	-11.8206
はなく	-11.8207
以外	-11.8208
癌	-11.8209
1982)	-11.8209
7.5	-11.8209
scal	-11.8209
kaz	-11.8209
(2015).	-11.8211
リポーター	-11.8211
paradise	-11.8211
外交	-11.8212
subsequent	-11.8213
退職	-11.8213
mode	-11.8214
ルーマニア	-11.8214
抜け	-11.8215
ably	-11.8215
評論家	-11.8216
松竹	-11.8218
5-1	-11.8221
温度	-11.8224
handle	-11.8227
doll	-11.8227
cotton	-11.8228
それぞれの	-11.8229
crater	-11.823
山村	-11.8231
系図	-11.8231
clo	-11.8233
exclusive	-11.8233
扇	-11.8234
instrument	-11.8235
中間	-11.8237
1983)	-11.8237
honours	-11.8239
warm	-11.8239
物理	-11.8241
”,	-11.8241
duty	-11.8241
schu	-11.8242
騎	-11.8243
strange	-11.8245
化合物	-11.8245
anu	-11.8246
熊野	-11.8247
50,000	-11.8247
printing	-11.8248
ガールズ	-11.8248
leads	-11.8248
hiv	-11.8248
日立	-11.8249
fried	-11.8249
ellis	-11.825
の二	-11.825
cons	-11.8251
nah	-11.8253
pens	-11.8253
aaron	-11.8254
午前	-11.8254
誰	-11.8254
上場	-11.8255
に加え	-11.8256
limit	-11.8258
松尾	-11.8258
だけで	-11.8259
electrical	-11.8261
文社	-11.8261
このような	-11.8262
(1989)	-11.8262
ハラ	-11.8265
ก	-11.8269
stern	-11.8269
やがて	-11.8272
ブルガリア	-11.8272
三島	-11.8273
vehicles	-11.8274
1.9	-11.8275
ニュ	-11.8275
城の	-11.8276
lal	-11.8277
においても	-11.8278
改善	-11.8279
sick	-11.8279
戦い	-11.8279
leagues	-11.8279
滅	-11.828
条例	-11.8281
butterfly	-11.8285
lateral	-11.8286
区の	-11.8286
83.	-11.8287
ί	-11.8288
酒井	-11.8289
incumbent	-11.8289
ヒュー	-11.8289
ていく	-11.829
孔	-11.8291
郡区	-11.8292
で初めて	-11.8293
カンパニー	-11.8293
quet	-11.8294
ม	-11.8295
高野	-11.8296
phys	-11.8296
バウ	-11.8297
showing	-11.8298
美しい	-11.8299
に貢献した	-11.8299
เ	-11.8299
restoration	-11.83
tari	-11.8301
所有	-11.8301
1-9	-11.8302
divers	-11.8302
61.	-11.8305
らと	-11.8306
lant	-11.8306
astronomical	-11.8307
rapper	-11.8308
阿波	-11.8308
intersection	-11.8308
村が合併し	-11.8312
thorn	-11.8312
うえ	-11.8313
iki	-11.8313
democracy	-11.8316
していく	-11.8316
southeastern	-11.8317
鎌倉時代	-11.8317
怪	-11.8317
ffer	-11.8317
runners	-11.8317
leipzig	-11.8317
鉱物	-11.832
finger	-11.8322
ユリウス暦	-11.8322
jor	-11.8323
スペ	-11.8324
使われている	-11.8325
のタイトル	-11.8325
4-3	-11.8326
device	-11.8328
鐘	-11.8329
すなわち	-11.8329
cic	-11.8331
バイオ	-11.8333
世は	-11.8334
cartoon	-11.8335
チー	-11.8335
開幕	-11.8335
collective	-11.8335
国境	-11.8335
effort	-11.8338
alam	-11.8338
zia	-11.8341
ñ	-11.8341
sak	-11.8341
ки	-11.8343
ぽ	-11.8344
examples	-11.8345
driving	-11.8345
わり	-11.8345
spy	-11.8346
fortune	-11.8347
harvey	-11.8348
rocks	-11.8349
corr	-11.8349
討	-11.8349
rog	-11.8349
personnel	-11.835
2008-01-31.	-11.835
ency	-11.8352
トス	-11.8352
icon	-11.8352
rust	-11.8353
riz	-11.8356
tells	-11.8357
prot	-11.8357
̇	-11.8358
とある	-11.836
力を	-11.836
相続	-11.8362
ila	-11.8364
racial	-11.8365
4.0	-11.8365
を担当した	-11.8367
mers	-11.8368
従来の	-11.8368
spur	-11.8369
1838	-11.837
linked	-11.837
cincinnati	-11.837
保安	-11.8371
capita	-11.8372
5.5	-11.8372
検定	-11.8374
表題曲	-11.8375
exist	-11.8375
プロモーション	-11.8376
(#1)	-11.8376
settlements	-11.8377
回の	-11.8377
romantic	-11.8377
で優勝	-11.8379
停留場	-11.8379
resulting	-11.838
さか	-11.8382
ビーチ	-11.8383
栃木	-11.8384
cé	-11.8384
278	-11.8386
ノス	-11.8389
172	-11.8389
森田	-11.839
紗	-11.839
pitcher	-11.839
釜	-11.8391
ballet	-11.8391
liner	-11.8392
parade	-11.8392
galaxy	-11.8393
hut	-11.8396
2.3	-11.8396
lodge	-11.8397
弟の	-11.8397
1984)	-11.8399
収集	-11.84
ロイヤル	-11.84
これまで	-11.84
libraries	-11.8402
frankfurt	-11.8402
sworth	-11.8404
cube	-11.8404
drafted	-11.8405
ald	-11.8407
趣味	-11.8407
iu	-11.8407
テロ	-11.8408
。2002	-11.8411
snail	-11.8412
palmer	-11.8415
(1978)	-11.8415
forever	-11.8415
earliest	-11.8416
swimmer	-11.8417
mention	-11.8418
開館	-11.8418
tetra	-11.8421
大阪市立	-11.8421
ו	-11.8421
届	-11.8423
somerset	-11.8423
lima	-11.8425
この曲	-11.8426
до	-11.8428
rotten	-11.8429
上杉	-11.843
!".	-11.843
ビット	-11.8431
resource	-11.8432
pig	-11.8433
大人	-11.8433
チームが	-11.8434
ほとんど	-11.8434
petersburg	-11.8435
puls	-11.8435
彼女の	-11.8436
belongs	-11.8436
focused	-11.8437
カナダの	-11.8437
短い	-11.8438
映画祭	-11.8438
bosnia	-11.8438
を収録	-11.8439
mam	-11.8439
pap	-11.8439
turk	-11.8441
水素	-11.8442
lug	-11.8442
208	-11.8443
銘	-11.8445
バード	-11.8445
曲の	-11.8446
shanghai	-11.8448
bench	-11.8449
tama	-11.845
(27	-11.845
ウェスト	-11.8452
3–1	-11.8453
stones	-11.8454
に指定されている	-11.8454
有効	-11.8455
ов	-11.8457
ヴィチ	-11.8458
手紙	-11.8458
guild	-11.8458
の北	-11.8458
justin	-11.8459
pak	-11.8459
beth	-11.8459
01/	-11.8459
1987,	-11.8464
colony	-11.8465
芽	-11.8466
めい	-11.8466
kami	-11.8466
literacy	-11.8469
なくなった	-11.8471
isation	-11.8473
krishna	-11.8473
複合	-11.8474
spoken	-11.8474
霞	-11.8476
briefly	-11.8477
cited	-11.8478
ija	-11.8478
するという	-11.8479
georgian	-11.8479
uck	-11.848
controlled	-11.8481
engaged	-11.8482
vessel	-11.8482
6–1	-11.8483
65.	-11.8484
poverty	-11.8484
5.0	-11.8485
sept	-11.8486
ウェブ	-11.8486
天然	-11.8486
司令官	-11.8487
藍	-11.8488
meh	-11.8489
cv	-11.8492
possibly	-11.8493
methyl	-11.8493
peterson	-11.8493
tm	-11.8493
tender	-11.8494
の他	-11.8494
東方	-11.8494
rer	-11.8495
nig	-11.8495
を使って	-11.8496
再開	-11.8496
向上	-11.8496
かし	-11.8497
ベースボール	-11.85
jennifer	-11.8502
biol	-11.8502
使い	-11.8503
versus	-11.8503
pres	-11.8504
ラテン語	-11.8505
命令	-11.8506
大山	-11.8508
ガラ	-11.8509
京都市	-11.8509
poli	-11.851
rocky	-11.851
2008)	-11.851
1835	-11.8512
sher	-11.8513
蛇	-11.8514
教え	-11.8514
となったが	-11.8515
grammar	-11.8517
diameter	-11.8517
ヴェー	-11.8517
子会社	-11.8517
losses	-11.8518
pianist	-11.8519
plate	-11.852
もともと	-11.8524
上流	-11.8525
mw	-11.8525
dual	-11.8525
アッ	-11.8526
failure	-11.8528
安藤	-11.8528
manufacturer	-11.8528
plic	-11.853
すれば	-11.853
finds	-11.8533
gü	-11.8534
sé	-11.8535
弦	-11.8535
sou	-11.8537
橋梁	-11.8537
に出	-11.8538
embassy	-11.8539
ライダー	-11.8541
gap	-11.8541
andrea	-11.8542
vladimir	-11.8542
eagles	-11.8543
hak	-11.8544
bj	-11.8544
drawn	-11.8544
水泳	-11.8545
milwaukee	-11.8545
gha	-11.8546
われた	-11.8546
closely	-11.8546
mau	-11.8547
コマ	-11.8548
遠藤	-11.8548
2.7	-11.8549
rogers	-11.855
ジャーナル	-11.855
適用	-11.8551
ライター	-11.8555
ソウ	-11.8556
(1991)	-11.8557
saga	-11.8561
rovers	-11.8563
西武	-11.8565
実行	-11.8566
ß	-11.8566
afghanistan	-11.8566
くり	-11.8568
2.4	-11.8568
bran	-11.8569
oriental	-11.857
gustav	-11.857
stoke	-11.8572
zio	-11.8573
を作る	-11.8574
substitute	-11.8576
witch	-11.8577
の三	-11.8578
即位	-11.8578
63.	-11.8579
意見	-11.8579
ノート	-11.858
フリ	-11.8581
コフ	-11.8583
占領	-11.8584
556	-11.8585
alpine	-11.8585
の次男	-11.8587
ふじ	-11.8587
辞	-11.8587
chandra	-11.8588
著者	-11.8589
名鉄	-11.8589
ぜ	-11.8589
expected	-11.8589
王朝	-11.859
イズ	-11.8591
わない	-11.8593
orchid	-11.8595
(2016)	-11.8596
空気	-11.8596
タカ	-11.8598
(1986	-11.86
reid	-11.86
(30	-11.8603
キャン	-11.8604
ワーク	-11.8604
確	-11.8604
petr	-11.8605
lough	-11.8606
eliminated	-11.8606
馬場	-11.8607
parent	-11.8607
眞	-11.8609
danny	-11.861
主体	-11.861
lian	-11.861
jag	-11.8613
felt	-11.8613
heroes	-11.8617
小島	-11.8618
“「	-11.8619
横須賀	-11.8619
町村	-11.862
吸	-11.8621
循環	-11.8621
更	-11.8622
交渉	-11.8622
小説家	-11.8623
jc	-11.8626
巡	-11.8626
7-1	-11.8627
県にある	-11.8627
syria	-11.8627
を学ぶ	-11.8627
ucci	-11.8627
中退	-11.863
consul	-11.8631
hs	-11.8632
herb	-11.8633
wed	-11.8633
したという	-11.8633
albanian	-11.8634
船橋	-11.8634
川水系	-11.8636
高木	-11.8637
要求	-11.8638
キャスト	-11.8639
的には	-11.8641
option	-11.8642
citizen	-11.8643
purchase	-11.8643
tana	-11.8643
(1977)	-11.8644
辞任	-11.8645
random	-11.8646
ż	-11.8647
たく	-11.8648
spencer	-11.8648
中華民国	-11.8648
2004).	-11.8649
cara	-11.8649
烈	-11.865
あたり	-11.8651
ih	-11.8652
17;	-11.8652
提	-11.8653
一宮	-11.8653
utter	-11.8653
マレーシア	-11.8654
東京大学出版会	-11.8654
注釈	-11.8654
(1995).	-11.8657
percent	-11.8658
yong	-11.8658
ノイ	-11.8661
kurt	-11.8663
cnn	-11.8663
speaking	-11.8664
reasons	-11.8664
printed	-11.8664
の活動	-11.8664
放送開始	-11.8665
hana	-11.8668
ninth	-11.8668
cheng	-11.8669
期生	-11.867
ダウン	-11.8672
psi	-11.8672
grown	-11.8672
brunswick	-11.8672
durham	-11.8673
で初	-11.8674
ウム	-11.8675
肥	-11.8675
4,000	-11.8675
tied	-11.8675
社会学	-11.8676
を務めている	-11.8679
calls	-11.868
scap	-11.8681
と考えられる	-11.8681
を用いる	-11.8681
土曜日	-11.8682
necessary	-11.8682
ボート	-11.8682
安田	-11.8683
merger	-11.8683
線路	-11.8683
rug	-11.8684
metric	-11.8684
flowering	-11.8685
ев	-11.8685
類似	-11.8687
シナ	-11.8687
wikipedia	-11.8688
郡にあった村	-11.8688
賛	-11.8688
歌う	-11.8688
maintained	-11.8689
猛	-11.8691
ついた	-11.8693
ロイド	-11.8693
defending	-11.8694
farmer	-11.8695
riot	-11.8696
エロ	-11.8698
小さい	-11.8699
道場	-11.87
の販売	-11.87
拳	-11.87
と同じく	-11.8701
年連続	-11.8701
改修	-11.8702
storage	-11.8702
639	-11.8703
塁	-11.8704
車体	-11.8704
負	-11.8705
ナショナル	-11.8706
cream	-11.8707
celtic	-11.8708
207	-11.8709
petro	-11.8709
ovi	-11.8709
合唱	-11.871
実際に	-11.871
kbs	-11.8711
電気鉄道	-11.8713
gir	-11.8715
nadu	-11.8715
hired	-11.8715
seed	-11.8716
と思われる	-11.8718
棚	-11.872
nti	-11.8722
tenor	-11.8724
ハウ	-11.8725
johnston	-11.8726
partial	-11.8726
norfolk	-11.8728
climb	-11.8729
dans	-11.8729
anza	-11.873
difficult	-11.8731
グー	-11.8731
4-2	-11.8731
那須	-11.8732
lying	-11.8733
constant	-11.8734
mull	-11.8734
理解	-11.8735
tut	-11.8736
hid	-11.8736
invasion	-11.8736
1834	-11.8736
まえ	-11.8736
突	-11.8737
モンテ	-11.8737
開発された	-11.8737
restored	-11.8738
引き続き	-11.8739
役員	-11.8739
airlines	-11.8739
quartet	-11.8739
年シーズン	-11.874
ッラ	-11.874
sample	-11.8741
寺の	-11.8743
shing	-11.8743
doing	-11.8746
bennett	-11.875
rates	-11.875
マンガ	-11.8752
あや	-11.8752
ドーム	-11.8753
に入った	-11.8753
コンセプト	-11.8754
福寺	-11.8755
で第	-11.8756
関数	-11.8756
ニコ	-11.8757
dispute	-11.8758
黄金	-11.8759
appearing	-11.8759
甲斐	-11.876
synonym	-11.8761
東芝	-11.8763
admitted	-11.8763
bugguide	-11.8764
logical	-11.8764
山梨	-11.8765
少し	-11.8765
hearts	-11.8765
illi	-11.8765
xo	-11.8766
幾	-11.8767
volunteer	-11.8767
防止	-11.8767
nur	-11.8768
フォーク	-11.8768
fernando	-11.8768
伝え	-11.8769
携帯電話	-11.8769
学研究科	-11.8771
趣味は	-11.8771
emergency	-11.8774
wool	-11.8774
rö	-11.8774
croatia	-11.8775
pitt	-11.8776
widow	-11.8776
外務省	-11.8777
当主	-11.8777
クロアチア	-11.8779
北側	-11.878
thousand	-11.8781
flies	-11.8781
1985,	-11.8781
actual	-11.8784
が設置されている	-11.8785
ばん	-11.8786
venice	-11.8787
線の駅である	-11.8789
の武将	-11.8789
sudan	-11.879
kru	-11.8792
injured	-11.8793
プー	-11.8793
yev	-11.8795
カトリック	-11.8795
東側	-11.8797
岐	-11.8797
vill	-11.8798
plum	-11.8798
jamaica	-11.8801
prospect	-11.8801
男爵	-11.8803
回衆議院議員総選挙	-11.8804
vocalist	-11.8804
群馬	-11.8805
legacy	-11.8805
患者	-11.8806
逸	-11.8806
tomatoes	-11.8806
halt	-11.8808
ハーフ	-11.8808
社会主義	-11.8809
1815	-11.8809
thick	-11.8809
rian	-11.881
火災	-11.8812
ische	-11.8812
collector	-11.8815
navi	-11.8816
archi	-11.8816
のサッカー選手	-11.8817
郡は	-11.8817
にある公立小学校	-11.8818
bt	-11.8819
住吉	-11.882
タム	-11.8822
actions	-11.8823
stretch	-11.8824
1988,	-11.8824
capture	-11.8826
カリフォルニア州	-11.8826
方の	-11.8826
腸	-11.8829
lec	-11.8829
港湾	-11.883
陸上競技	-11.8831
オリジナルの	-11.8831
successfully	-11.8832
述	-11.8832
原子	-11.8833
че	-11.8835
ง	-11.8835
purple	-11.8836
縮	-11.8836
妖怪	-11.8836
tx	-11.8837
origins	-11.8837
hind	-11.8838
さまざまな	-11.8839
tomb	-11.8839
新潟市	-11.884
主任	-11.8842
交代	-11.8842
同一	-11.8843
山町	-11.8844
福山	-11.8845
jas	-11.8846
photographs	-11.8846
ジャーナリスト	-11.8849
公開された	-11.8852
dancing	-11.8853
arxiv	-11.8854
の旅	-11.8854
レーション	-11.8854
爆発	-11.8856
回大会	-11.8857
cardinal	-11.8859
マキ	-11.8859
southwestern	-11.886
鄭	-11.886
cis	-11.8861
nf	-11.8862
。2001	-11.8862
novo	-11.8862
liquid	-11.8863
ロフ	-11.8863
robot	-11.8863
簡易	-11.8864
マイク	-11.8864
fy	-11.8864
すぐに	-11.8865
maría	-11.8866
tf	-11.8867
までに	-11.8867
旧制	-11.8868
establish	-11.8869
650	-11.8869
resistance	-11.887
大将	-11.887
結び	-11.887
小学	-11.887
しろ	-11.887
ダービー	-11.8872
であること	-11.8873
2020	-11.8873
1981)	-11.8874
斉藤	-11.8874
シリーズの	-11.8875
招	-11.8876
enko	-11.8877
三田	-11.8877
西川	-11.888
千代	-11.8881
多摩	-11.8881
crazy	-11.8881
ヶ丘	-11.8883
機の	-11.8885
tig	-11.8885
正室	-11.8886
89.	-11.8886
elect	-11.8887
架	-11.8892
の小説	-11.8893
バッ	-11.8894
pinyin	-11.8896
藩の	-11.8898
bodies	-11.8898
commun	-11.8898
松井	-11.8899
specifically	-11.8899
forbes	-11.8901
topics	-11.8901
高級	-11.8902
tent	-11.8902
ちなみに	-11.8902
トーマス	-11.8903
knock	-11.8903
oral	-11.8903
opinion	-11.8903
危険	-11.8904
位で	-11.8904
作品は	-11.8905
合わせて	-11.8906
stable	-11.8907
bron	-11.8909
帆	-11.8911
finding	-11.8911
conduct	-11.8913
ista	-11.8914
腰	-11.8914
で最も	-11.8914
駅より	-11.8915
representation	-11.8915
戦線	-11.8915
blo	-11.8916
目に	-11.8918
面積は	-11.892
perspective	-11.892
春の	-11.892
roughly	-11.8922
sap	-11.8922
(26	-11.8923
おく	-11.8923
家臣	-11.8923
vc	-11.8923
イースト	-11.8924
と契約	-11.8925
トレーニング	-11.8926
鴨	-11.8929
長に就任	-11.8929
lil	-11.8931
ハード	-11.8931
(1990)	-11.8933
josh	-11.8934
blake	-11.8934
(2017).	-11.8934
cass	-11.8934
psycho	-11.8934
ナウ	-11.8935
ました	-11.8935
シップ	-11.8936
離婚	-11.8936
金子	-11.8936
戦隊	-11.8937
4000	-11.8937
logo	-11.8938
高等学校卒業	-11.894
停車	-11.8941
世界遺産	-11.8941
神戸市	-11.8942
specialist	-11.8942
の関係	-11.8943
nominees	-11.8943
卓球	-11.8944
佐世保	-11.8945
プレイヤー	-11.8946
interactive	-11.8947
慶応	-11.8948
隣接するコムーネは以下の通り	-11.8948
解析	-11.8949
熊谷	-11.8949
大会で	-11.895
水産	-11.895
kitchen	-11.8953
muhammad	-11.8955
indicated	-11.8958
ân	-11.8958
wells	-11.896
polar	-11.8961
russ	-11.8962
の木	-11.8962
mojo	-11.8963
売り	-11.8963
の略称	-11.8963
内には	-11.8964
administrator	-11.8965
52°	-11.8966
若い	-11.8969
ción	-11.897
辛	-11.8971
の建設	-11.8971
の内	-11.8974
uga	-11.8975
managing	-11.8975
装甲	-11.8975
椎	-11.8976
作者	-11.8976
dn	-11.8977
水野	-11.8977
sec	-11.8978
南北	-11.8978
ミステリー	-11.8979
時代は	-11.8979
受験	-11.898
スパ	-11.898
cort	-11.8981
changing	-11.8981
ッパー	-11.8982
pull	-11.8983
岩崎	-11.8983
ぷ	-11.8984
sessions	-11.8986
モーター	-11.8989
004	-11.8991
、1971	-11.8992
(28	-11.8998
ло	-11.8999
descent	-11.8999
mosque	-11.9001
dora	-11.9003
macmillan	-11.9003
(1988)	-11.9005
quar	-11.9005
harbor	-11.9007
auf	-11.9008
部は	-11.9009
editors	-11.9009
年代の	-11.9009
アリーナ	-11.901
indigenous	-11.9012
1.7	-11.9014
rash	-11.9018
強く	-11.9019
photographer	-11.9019
学院大学	-11.9019
特許	-11.9022
簡	-11.9022
発表された	-11.9024
連覇	-11.9025
се	-11.9025
=1	-11.9027
站	-11.9027
homes	-11.9027
pent	-11.9027
徒歩約	-11.9027
見られる	-11.9028
notably	-11.9028
職業	-11.9028
tb	-11.903
ét	-11.903
冬季	-11.903
歴史的	-11.9031
ショート	-11.9033
ラント	-11.9033
resulted	-11.9034
ミュ	-11.9034
を超える	-11.9035
研究センター	-11.9035
越前	-11.9036
竹内	-11.9036
海の	-11.9036
newton	-11.9036
receptor	-11.9037
機種	-11.9038
期限付き移籍	-11.9038
bry	-11.9039
abdul	-11.9039
saudi	-11.9041
alive	-11.9041
usgs	-11.9042
duct	-11.9043
2-8	-11.9043
keeper	-11.9044
া	-11.9045
中学校一覧	-11.9047
atp	-11.9049
料金	-11.9049
moo	-11.9049
loo	-11.9049
位に	-11.905
dropped	-11.9051
scorer	-11.9051
明石	-11.9052
社名	-11.9053
含	-11.9053
セルビア	-11.9054
エンディング	-11.9055
将来	-11.9057
苑	-11.9059
bg	-11.9063
複	-11.9063
202	-11.9064
residing	-11.9066
欄	-11.9067
vegas	-11.9067
病気	-11.9067
indonesian	-11.9067
各国	-11.9068
alf	-11.9069
ranch	-11.907
を展開	-11.907
gospel	-11.9071
trading	-11.9071
uniform	-11.9071
139.	-11.9071
herself	-11.9071
ю	-11.9072
といわれる	-11.9073
escu	-11.9073
伊東	-11.9074
wid	-11.9076
extreme	-11.9076
影響	-11.9077
てる	-11.9077
昆虫	-11.9077
sio	-11.9077
日本国有鉄道	-11.9079
preserved	-11.9079
mig	-11.9079
studying	-11.908
brig	-11.9081
sullivan	-11.9081
測定	-11.9082
まれた	-11.9082
hello	-11.9082
ender	-11.9084
jk	-11.9086
立川	-11.9086
determined	-11.9087
年史	-11.9087
公表	-11.909
jf	-11.909
攻	-11.9091
チリ	-11.9092
1978.	-11.9092
earthquake	-11.9092
主宰	-11.9093
前身	-11.9093
興行	-11.9093
細川	-11.9094
ά	-11.9095
旨	-11.9098
bour	-11.9099
直径	-11.91
周辺の	-11.9101
朝日新聞社	-11.9101
83;	-11.9104
ポリス	-11.9104
戦国時代	-11.9105
構築	-11.9105
151	-11.9105
こん	-11.9106
tani	-11.9106
100%	-11.9106
mechanical	-11.9108
たら	-11.911
1831	-11.911
uru	-11.9111
の南	-11.9111
timber	-11.9112
networks	-11.9112
発売元は	-11.9112
opus	-11.9113
bey	-11.9114
ママ	-11.9115
レッ	-11.9116
kut	-11.9119
近江	-11.912
vos	-11.912
powerful	-11.9122
リティ	-11.9122
oso	-11.9123
holt	-11.9124
判断	-11.9124
iel	-11.9125
(1976)	-11.9125
が丘	-11.9126
みなみ	-11.9126
兵庫	-11.9127
osi	-11.9128
wol	-11.9128
するまで	-11.9128
requires	-11.9128
lunar	-11.9129
わず	-11.9129
chef	-11.9129
全曲	-11.9131
1977.	-11.9131
養成	-11.9131
ゆり	-11.9132
influenced	-11.9133
ライヴ	-11.9134
calling	-11.9135
tools	-11.9138
harbour	-11.9138
fab	-11.9139
磁	-11.9139
己	-11.914
dru	-11.914
高校生	-11.9141
プレミアリーグ	-11.9142
の番組	-11.9142
porter	-11.9142
apartment	-11.9143
rosen	-11.9143
それは	-11.9146
animated	-11.9147
visitors	-11.9148
luck	-11.9149
こそ	-11.9149
宣伝	-11.9149
議席	-11.915
spec	-11.915
claude	-11.915
ハリ	-11.9151
さわ	-11.9152
passage	-11.9152
の声	-11.9153
xc	-11.9153
voted	-11.9154
ルン	-11.9154
鉄道の	-11.9154
diplomat	-11.9155
omo	-11.9156
hunting	-11.9157
テス	-11.9158
町田	-11.9159
roberto	-11.9161
importance	-11.9162
relief	-11.9162
206	-11.9162
macro	-11.9164
assi	-11.9168
飼育	-11.9168
軍団	-11.9169
airline	-11.9171
grandson	-11.9171
ごく	-11.9172
(1996).	-11.9172
新幹線	-11.9174
wiley	-11.9176
vé	-11.9177
によっては	-11.9177
woo	-11.9178
西暦	-11.9179
を学び	-11.9179
を行っていた	-11.9183
recipient	-11.9184
204	-11.9185
goalkeeper	-11.9187
2.6	-11.9188
nest	-11.9188
abel	-11.9189
の末	-11.9189
炭	-11.9189
ウォ	-11.919
kau	-11.919
はな	-11.9191
守備	-11.9193
bois	-11.9194
steps	-11.9195
文政	-11.9195
false	-11.9196
山陽	-11.9196
ナム	-11.9197
みどり	-11.9198
views	-11.9198
指摘	-11.9198
テク	-11.92
が特徴	-11.92
干	-11.9201
weapons	-11.9203
1946)	-11.9203
kari	-11.9204
王立	-11.9205
居住	-11.9205
別冊	-11.9205
促進	-11.9205
行事	-11.9207
touring	-11.921
争	-11.921
dear	-11.9214
停	-11.9214
模様	-11.9215
gö	-11.9215
名義で	-11.9216
の日本	-11.9216
(1985)	-11.9217
に収録されている	-11.9217
badminton	-11.9218
bend	-11.9218
gian	-11.9218
fellowship	-11.9218
tul	-11.9219
sculptor	-11.9219
revenue	-11.9219
胤	-11.9222
せき	-11.9222
kilometers	-11.9224
ラップ	-11.9224
quick	-11.9227
機体	-11.9228
衝突	-11.9228
叙	-11.9228
コア	-11.9229
交響楽団	-11.923
研究科	-11.9232
ος	-11.9233
回復	-11.9234
vul	-11.9234
appa	-11.9235
1942)	-11.9236
chad	-11.9237
leslie	-11.9237
5–1	-11.9238
経歴	-11.9238
dina	-11.9238
日光	-11.9239
いけ	-11.924
ket	-11.924
landmarks	-11.924
内田	-11.9241
で約	-11.9242
われる	-11.9242
ั	-11.9243
klein	-11.9243
gua	-11.9243
初版	-11.9243
connor	-11.9244
equivalent	-11.9244
coached	-11.9247
の時代	-11.9248
rath	-11.9249
guides	-11.9249
03/	-11.9249
恋の	-11.925
脈	-11.9251
会社の	-11.9252
起き	-11.9255
ニス	-11.9256
従五位下	-11.9256
還	-11.9256
1/2	-11.9257
hra	-11.926
really	-11.9261
chancellor	-11.9261
eclipse	-11.9262
latino	-11.9263
黄色	-11.9264
witness	-11.9265
ハッ	-11.9265
210	-11.9265
176	-11.9266
salvador	-11.9266
maxim	-11.9266
変換	-11.9266
言い	-11.9267
メガ	-11.9267
leeds	-11.9268
!"	-11.9269
1945)	-11.9269
ポップ	-11.9269
heights	-11.9269
gerald	-11.9269
colors	-11.927
山内	-11.9271
02.	-11.9271
いだ	-11.9271
bahn	-11.9272
definition	-11.9272
/?	-11.9273
サンデー	-11.9273
近い	-11.9276
ェ	-11.9276
煙	-11.9277
belonging	-11.9277
足利	-11.9277
ジャンル	-11.9277
通常の	-11.9278
市外局番の一覧	-11.9278
ニッ	-11.9279
戸田	-11.9279
1981.	-11.9279
南側	-11.928
転換	-11.928
drawing	-11.9281
に関しては	-11.9283
1979)	-11.9284
henderson	-11.9284
characteristics	-11.9286
ネタ	-11.9287
(22	-11.9288
に取り	-11.9289
papa	-11.9289
ガリ	-11.9291
kc	-11.9292
2.8	-11.9293
年までは	-11.9293
cargo	-11.9294
wallace	-11.9295
編纂委員会	-11.9295
を通して	-11.9296
stevens	-11.9296
goods	-11.9297
原因	-11.9299
シネマ	-11.9299
(1975)	-11.93
lancashire	-11.9303
suicide	-11.9304
employment	-11.9304
472	-11.9305
トラン	-11.9305
ばかり	-11.9305
日向	-11.9305
部品	-11.9306
、1968	-11.9306
pga	-11.9307
orders	-11.9308
fivb	-11.9309
nashville	-11.931
ør	-11.9311
残り	-11.9311
繁殖	-11.9311
ér	-11.9311
evich	-11.9312
merit	-11.9315
operate	-11.9319
shift	-11.932
テイ	-11.9321
journalism	-11.9321
iah	-11.9322
知られる	-11.9323
doo	-11.9323
映	-11.9323
chose	-11.9325
建造	-11.9325
autonomous	-11.9326
bailey	-11.9327
funk	-11.9328
ゆく	-11.9328
rise	-11.9328
maur	-11.9329
作品を	-11.9332
stamp	-11.9334
panama	-11.9335
sau	-11.9336
ти	-11.9336
fifteen	-11.9337
gala	-11.9338
ahl	-11.9341
市に	-11.9343
が担当	-11.9346
授与	-11.9349
鶏	-11.9349
を目指す	-11.9351
sacred	-11.9351
cw	-11.9352
ギャラリー	-11.9354
3-6	-11.9354
3-9	-11.9357
stages	-11.9358
curtis	-11.9359
liber	-11.936
らしい	-11.9363
背景	-11.9363
てしまう	-11.9365
バイオグラフィー	-11.9365
主題	-11.9365
valentin	-11.9366
解体	-11.9367
myr	-11.9367
linear	-11.9367
θ	-11.9369
寛政	-11.937
ノフ	-11.937
midnight	-11.937
郡山	-11.9372
チームは	-11.9373
italia	-11.9375
childhood	-11.9375
甲府	-11.9376
の道	-11.938
gab	-11.938
か月	-11.9381
innovation	-11.9382
を構成する	-11.9382
川上	-11.9383
ди	-11.9384
santiago	-11.9385
dim	-11.9387
チェル	-11.9387
wrestler	-11.939
コロンビア	-11.9391
マップ	-11.9391
reader	-11.9392
222	-11.9392
orbit	-11.9394
予選敗退	-11.9394
gna	-11.9395
brooks	-11.9396
山中	-11.9396
あの	-11.9398
銀座	-11.9398
novelist	-11.94
かつての	-11.9403
に参加し	-11.9404
区にある	-11.9406
致	-11.9407
nak	-11.9407
リーナ	-11.9408
、1960	-11.9408
contra	-11.9409
sund	-11.9412
いか	-11.9413
links	-11.9413
1828	-11.9415
偏	-11.9415
自身が	-11.9416
麦	-11.9417
8-1	-11.9417
ンの	-11.9417
コミュニケーション	-11.9418
飾	-11.9418
ガード	-11.9419
ゴル	-11.9419
harper	-11.9419
melo	-11.9422
ノル	-11.9422
celebration	-11.9422
stro	-11.9423
修道院	-11.9423
inaugural	-11.9424
信用金庫	-11.9424
bridges	-11.9426
ité	-11.9426
パソコン	-11.9427
(1974)	-11.9429
hick	-11.9429
tics	-11.943
counsel	-11.943
bloom	-11.9431
エンタテインメント	-11.9431
neighbourhood	-11.9432
エドワード	-11.9434
づくり	-11.9436
刈	-11.9438
年度の	-11.9438
plastic	-11.9439
serious	-11.944
hopkins	-11.9441
小田	-11.9442
didn	-11.9442
clerk	-11.9443
は大	-11.9445
委	-11.9445
1947)	-11.9445
sounds	-11.9448
徐	-11.9449
rau	-11.945
2006)	-11.945
じょ	-11.945
判決	-11.945
に勤務	-11.9452
1–2	-11.9452
edmonton	-11.9453
burton	-11.9453
水曜	-11.9454
朝刊	-11.9454
stefan	-11.9455
technique	-11.9455
大公	-11.9456
finn	-11.9456
進学	-11.9456
бо	-11.9457
falling	-11.9458
人間の	-11.9458
odo	-11.9459
中区	-11.9459
ischen	-11.9459
決勝で	-11.946
に帰	-11.9461
是	-11.9462
sponsored	-11.9462
angels	-11.9463
京都大学	-11.9463
スー	-11.9464
楼	-11.9465
日高	-11.9465
スケ	-11.9465
amo	-11.9467
カレ	-11.9468
thur	-11.9468
執	-11.9469
浜松	-11.947
博多	-11.947
つつ	-11.947
課題	-11.947
が高い	-11.9471
custom	-11.9471
rounds	-11.9472
unable	-11.9472
element	-11.9473
出資	-11.9473
monarch	-11.9474
funds	-11.9475
鮮	-11.9475
数の	-11.9476
補佐	-11.9478
umi	-11.9478
毅	-11.9479
stayed	-11.948
うら	-11.948
の高い	-11.9482
絵本	-11.9482
摩	-11.9482
pter	-11.9483
結局	-11.9484
」”.	-11.9485
strat	-11.9485
家は	-11.9485
大使館	-11.9487
サッカーリーグ	-11.9487
1825	-11.9488
二十	-11.9489
171	-11.949
廃駅	-11.9493
unusual	-11.9495
platforms	-11.9495
落語	-11.9496
日放送	-11.9497
場合がある	-11.9499
}\	-11.9499
320	-11.95
lamb	-11.95
エピソード	-11.9501
seek	-11.9502
オレ	-11.9503
technologies	-11.9503
replacement	-11.9509
caps	-11.951
igan	-11.9512
apr	-11.9513
大きい	-11.9514
yuan	-11.9514
学部教授	-11.9515
rainbow	-11.9515
concrete	-11.9515
ops	-11.9517
tried	-11.9517
skills	-11.9517
6-0	-11.9518
-04	-11.9519
越後	-11.9519
くま	-11.9519
人名	-11.9519
mvp	-11.952
valid	-11.952
デモ	-11.9521
ウー	-11.9523
業績	-11.9524
habit	-11.9524
宮本	-11.9526
yun	-11.9526
richardson	-11.9527
数字	-11.9527
旅団	-11.9528
プス	-11.9528
hispanic	-11.9529
1972.	-11.9529
logan	-11.953
松江	-11.953
マネジメント	-11.9531
radical	-11.9531
リニューアル	-11.9534
ür	-11.9535
ブス	-11.9535
の水	-11.9536
leksikon	-11.9537
entirely	-11.9537
employ	-11.9538
annually	-11.9539
バート	-11.9539
東京都立	-11.954
aran	-11.9541
tino	-11.9541
miner	-11.9542
体系	-11.9542
pearl	-11.9542
dei	-11.9545
gable	-11.9547
competitive	-11.9547
luxembourg	-11.9549
judicial	-11.955
φ	-11.9551
renaissance	-11.9551
作品の	-11.9552
疑	-11.9553
jstor	-11.9553
items	-11.9556
方針	-11.9556
オーディション	-11.9559
があります	-11.9559
渡り	-11.956
nier	-11.9561
3-7	-11.9561
軍は	-11.9562
ディズニー	-11.9563
番組の	-11.9564
遅れ	-11.9564
始まり	-11.9565
確立	-11.9566
綿	-11.9566
河口	-11.9567
ことにより	-11.9567
中央部	-11.9569
cid	-11.9569
rival	-11.9572
ッキー	-11.9572
研究員	-11.9572
過ごし	-11.9573
合流	-11.9573
副会長	-11.9573
playstation	-11.9574
gbif	-11.9575
aunt	-11.9575
ケット	-11.9576
甥	-11.9578
tanzania	-11.9578
響	-11.9579
相互	-11.958
整理	-11.958
懐	-11.958
youngest	-11.9581
formally	-11.9581
kana	-11.9582
brasil	-11.9582
範囲	-11.9582
下げ	-11.9583
rabbi	-11.9583
servant	-11.9583
28°	-11.9584
raid	-11.9584
rb	-11.9584
falcon	-11.9585
-05	-11.9585
rado	-11.9587
carrier	-11.9587
個体	-11.959
国会	-11.9591
血液型	-11.9592
糖	-11.9594
嫁	-11.9596
ф	-11.9596
先端	-11.9597
、1969	-11.9597
mercury	-11.9597
診断	-11.9597
を引き	-11.9599
français	-11.9599
altitude	-11.96
sib	-11.96
lier	-11.96
santos	-11.9601
ishi	-11.9602
powell	-11.9603
引退した	-11.9604
ドライバー	-11.9606
脚本家	-11.9607
させて	-11.9607
学校の	-11.9608
cil	-11.9608
isolated	-11.9608
anglican	-11.961
aris	-11.961
atti	-11.961
曾	-11.961
の高	-11.9611
嫌	-11.9613
にほん	-11.9614
1944)	-11.9615
に改名	-11.9616
日本の元	-11.9619
estonian	-11.9621
itis	-11.9621
quo	-11.9622
ily	-11.9623
歌唱	-11.9623
クルー	-11.9626
faces	-11.9626
khal	-11.9626
夜の	-11.9627
の間で	-11.9627
墨	-11.9629
秩父	-11.9629
を務めていた	-11.9629
andrews	-11.963
商店街	-11.9631
curling	-11.9631
同市	-11.9631
すみ	-11.9632
이	-11.9632
drag	-11.9633
疾患	-11.9633
レディ	-11.9634
brave	-11.9634
リーガ	-11.9637
始めた	-11.9638
流域	-11.9639
日々	-11.964
の孫	-11.964
する事	-11.964
たため	-11.9641
behavior	-11.9642
豊橋	-11.9642
titan	-11.9644
するもの	-11.9646
中学生	-11.9647
継ぎ	-11.9647
89°	-11.9647
当該	-11.9647
闇	-11.9648
使用する	-11.9648
囲	-11.9649
荒川	-11.9651
autumn	-11.9651
arra	-11.9651
に移管	-11.9653
農業協同組合	-11.9653
dri	-11.9654
chor	-11.9654
contain	-11.9655
イラク	-11.9655
ドゥー	-11.9656
町内	-11.9658
geni	-11.9658
lf	-11.9658
wig	-11.966
cello	-11.9662
68.	-11.9664
上映	-11.9665
新井	-11.9665
guru	-11.9665
グラウンド	-11.9666
guer	-11.9666
pocket	-11.9666
coverage	-11.9666
村と合併し	-11.9666
。1999	-11.9667
の愛称	-11.9667
faced	-11.9667
6-4	-11.9669
に属し	-11.9669
の位置	-11.9669
島町	-11.967
issa	-11.9671
のう	-11.9672
ahmad	-11.9672
ブリッジ	-11.9672
結成された	-11.9673
ernst	-11.9674
の町	-11.9674
商店	-11.9675
antarctica	-11.9675
番組である	-11.9675
zza	-11.9676
ダイヤモンド	-11.9676
4-4	-11.9679
ロゴ	-11.968
悲	-11.9681
集中	-11.9681
丸山	-11.9681
本郷	-11.9682
ヒーロー	-11.9683
毛利	-11.9685
2.1	-11.9686
1980)	-11.9686
生没年不詳	-11.9687
チャレンジ	-11.9687
1943)	-11.9688
hydr	-11.9688
平方マイル	-11.9688
すい	-11.9688
世紀に	-11.9689
huang	-11.969
ぐん	-11.969
dx	-11.9691
朋	-11.9691
nurse	-11.9691
exit	-11.9693
ruled	-11.9694
rar	-11.9695
絶対	-11.9695
britannica	-11.9699
69.	-11.97
orum	-11.9701
closure	-11.9701
ching	-11.9702
ファイナル	-11.9703
同様	-11.9703
夫婦	-11.9703
遼	-11.9703
kad	-11.9704
370	-11.9706
solomon	-11.9708
同名の	-11.9708
故郷	-11.9713
安芸	-11.9714
3.1	-11.9714
関係者	-11.9714
1971.	-11.9715
121	-11.9716
odor	-11.9716
分解	-11.9717
歌謡	-11.9718
1821	-11.9718
hov	-11.9719
覧	-11.9719
レク	-11.9721
80.	-11.9722
jah	-11.9724
1976.	-11.9725
屋根	-11.9726
爾	-11.9727
招待	-11.9727
ができる	-11.9727
抵抗	-11.9728
なぜ	-11.9729
julia	-11.973
pattern	-11.9731
アナログ	-11.9732
$3	-11.9733
ぴ	-11.9734
6-3	-11.9734
perhaps	-11.9734
活用	-11.9734
(23	-11.9738
sym	-11.9738
叔父	-11.9739
ダブル	-11.9739
3.2	-11.9739
surrounded	-11.974
adaptation	-11.9741
多い	-11.9743
わかる	-11.9744
ァ	-11.9745
leu	-11.9745
迷	-11.9746
町字	-11.9747
婦	-11.9747
傘下	-11.9747
ガーデン	-11.9747
を代表する	-11.9748
hook	-11.9749
不足	-11.9749
viola	-11.975
dramatic	-11.9751
1986,	-11.9751
秘密	-11.9751
退任	-11.9752
cala	-11.9754
チア	-11.9755
同期	-11.9756
rhin	-11.9756
decades	-11.9758
voting	-11.9759
330	-11.9759
mumbai	-11.976
heinrich	-11.9761
aldo	-11.9762
afterwards	-11.9763
1,2	-11.9763
狼	-11.9766
karen	-11.9767
尺	-11.9768
の戦いで	-11.9773
発表した	-11.9775
functional	-11.9776
née	-11.9777
東山	-11.9778
gym	-11.9778
cornwall	-11.9782
intermediate	-11.9782
otherwise	-11.9784
bent	-11.9785
thu	-11.9786
-07	-11.9788
glory	-11.9789
causes	-11.9789
代表として	-11.9789
とは別	-11.979
zimbabwe	-11.979
友人	-11.9791
194	-11.9794
渕	-11.9794
カッ	-11.9795
amin	-11.9795
合う	-11.9795
ミュンヘン	-11.9796
pav	-11.9796
odes	-11.9797
synth	-11.9801
とオリンピックで	-11.9802
ケーブル	-11.9803
途	-11.9803
ッコ	-11.9803
separated	-11.9803
employees	-11.9803
advertising	-11.9806
総延長	-11.9807
リレー	-11.9807
アキ	-11.9807
bett	-11.9807
配給	-11.9808
俳句	-11.9808
黒い	-11.9809
offering	-11.981
loser	-11.9811
原町	-11.9812
拝	-11.9812
の存在	-11.9813
oki	-11.9815
台風	-11.9815
過ぎ	-11.9815
本拠地	-11.9815
saka	-11.9817
の死後	-11.9818
allmovie	-11.9818
いていた	-11.9819
元気	-11.982
第一次世界大戦	-11.982
boa	-11.9821
アンナ	-11.9824
calgary	-11.9826
合わせ	-11.9826
sheffield	-11.9827
(1972)	-11.9828
longest	-11.9828
白山	-11.9828
whilst	-11.9829
行われている	-11.9829
主力	-11.983
共編著	-11.9831
普	-11.9831
行く	-11.9831
308	-11.9833
visiting	-11.9833
ぼく	-11.9834
補助	-11.9835
合戦	-11.9835
4-9	-11.9835
ローン	-11.9835
dzi	-11.9835
直線	-11.9835
4°	-11.9835
powers	-11.9837
クレイ	-11.9837
組み	-11.9837
代当主	-11.984
たちが	-11.984
shares	-11.9842
swing	-11.9842
walt	-11.9844
advisory	-11.9844
verb	-11.9845
strategy	-11.9845
–15	-11.9848
chap	-11.985
blow	-11.9851
役割	-11.9851
050	-11.9851
観察	-11.9852
(1973)	-11.9853
米子	-11.9854
cond	-11.9854
認識	-11.9855
名で	-11.9855
流行	-11.9856
spiritual	-11.9856
存	-11.9857
書記	-11.9857
remember	-11.9858
そば	-11.9859
1814	-11.9861
パッケージ	-11.9862
かす	-11.9862
八代	-11.9863
380	-11.9864
nant	-11.9864
scan	-11.9865
surgeon	-11.9866
曽	-11.9871
生涯	-11.9871
区分	-11.9871
01)	-11.9873
bishops	-11.9874
巻第	-11.9875
phy	-11.9875
地形	-11.9876
lü	-11.9876
toward	-11.9876
フロント	-11.9877
(1971)	-11.9878
歳の時に	-11.9878
revision	-11.9878
オレンジ	-11.9878
佑	-11.9879
(1985	-11.9879
スロー	-11.9879
(1987)	-11.988
生きる	-11.988
しも	-11.9881
少将	-11.9882
montgomery	-11.9883
伊予	-11.9884
agreed	-11.9884
東京堂出版	-11.9884
ludwig	-11.9885
リミックス	-11.9886
refuge	-11.9889
allowing	-11.9889
hindi	-11.9889
9–1	-11.989
devi	-11.9891
預	-11.9891
ともいう	-11.9891
click	-11.9892
203	-11.9893
世が	-11.9895
bros	-11.9895
cular	-11.9896
大佐	-11.9896
mixing	-11.9897
ヴォル	-11.9897
争い	-11.9897
bout	-11.9899
constitutional	-11.99
sik	-11.99
輸出	-11.99
segment	-11.99
収録されている	-11.99
ters	-11.9902
を得	-11.9904
管轄	-11.9904
detective	-11.9906
実績	-11.9906
わが	-11.9906
tric	-11.9907
欧	-11.9908
詩集	-11.9908
kri	-11.9909
290	-11.9909
召	-11.9909
(29	-11.991
architects	-11.9911
-09	-11.9911
hild	-11.9911
dollar	-11.9911
暁	-11.9914
myanmar	-11.9914
エディ	-11.9914
通称は	-11.9915
らく	-11.9915
エクス	-11.9915
zookeys	-11.9915
ж	-11.9915
メジャーデビュー	-11.9915
旗本	-11.9917
methodist	-11.9917
ファル	-11.9918
grandfather	-11.9919
を通る	-11.992
に基づき	-11.9921
trop	-11.9921
一家	-11.9921
資本	-11.9923
イロ	-11.9923
年の音楽	-11.9925
ボディ	-11.9925
みな	-11.9926
室町時代	-11.9928
リトル	-11.9928
cour	-11.9928
dana	-11.9929
スポット	-11.993
者に	-11.993
航路	-11.9931
覆	-11.9933
私の	-11.9933
とよ	-11.9934
国立公園	-11.9936
60.	-11.9936
scha	-11.9937
舞鶴	-11.9937
lars	-11.9939
simpson	-11.9939
緊急	-11.9939
178	-11.994
missile	-11.9941
薬品	-11.9942
subsidiary	-11.9942
subjects	-11.9942
演技	-11.9942
芸人	-11.9942
hydroxy	-11.9943
ことも	-11.9944
(1981	-11.9944
1975.	-11.9947
1806	-11.9948
asteroid	-11.9948
わら	-11.9949
小笠原	-11.9949
姫路	-11.9949
レポート	-11.995
せた	-11.9952
manage	-11.9952
るため	-11.9952
アマ	-11.9956
通じ	-11.9957
dah	-11.996
に転	-11.9961
256	-11.9961
marcus	-11.9962
strand	-11.9965
人材	-11.9965
ヒロ	-11.9966
paralympic	-11.9966
中将	-11.9967
monitor	-11.9968
dk	-11.9969
territories	-11.9969
journals	-11.997
strategic	-11.9973
グラム	-11.9973
文学部	-11.9973
それら	-11.9975
cornell	-11.9975
colleges	-11.9976
ピアニスト	-11.9976
(4)	-11.9976
チェーン	-11.9976
珍	-11.9977
自殺	-11.9978
2007)	-11.9979
drink	-11.9979
ラジ	-11.998
鉱山	-11.9981
comprehensive	-11.9982
婚	-11.9982
destination	-11.9982
1973)	-11.9983
旭川	-11.9984
各地	-11.9985
が行われている	-11.9985
strength	-11.9987
achievement	-11.9987
shrub	-11.9989
ドライブ	-11.9989
honors	-11.9992
このとき	-11.9994
することが	-11.9994
っこ	-11.9995
canyon	-11.9997
遠征	-11.9999
treasure	-12
viii	-12.0002
大井	-12.0003
窪	-12.0003
ケア	-12.0003
06/	-12.0007
iceland	-12.0007
戦国	-12.0008
scope	-12.0009
rachel	-12.0009
離れた	-12.0011
cherry	-12.0011
má	-12.0011
disco	-12.0014
建設された	-12.0015
河野	-12.0018
presenter	-12.0022
新編	-12.0023
科学技術	-12.0024
zhi	-12.0024
船舶	-12.0025
collegiate	-12.0026
oria	-12.0026
アナウンス	-12.0027
五十	-12.0027
zor	-12.0027
chorus	-12.0029
ブレイ	-12.0029
マツ	-12.0032
議会議員	-12.0033
ngc	-12.0034
nham	-12.0035
暗殺	-12.0036
認証	-12.0036
monkey	-12.0037
favorite	-12.0037
heavily	-12.0038
keeping	-12.0039
frances	-12.0039
されること	-12.004
differ	-12.0041
90.	-12.0042
標	-12.0043
身体	-12.0044
アラビア語	-12.0047
町に	-12.0047
qualify	-12.0048
に分類される	-12.0048
409	-12.0049
describes	-12.0049
舌	-12.0049
を使用する	-12.005
arrangement	-12.005
を描く	-12.0051
builder	-12.0052
isaac	-12.0052
号の	-12.0053
逢	-12.0054
2009)	-12.0054
vac	-12.0055
standings	-12.0056
併	-12.0056
iq	-12.0056
questions	-12.0057
jail	-12.0058
19:00	-12.0058
冒険	-12.0058
gast	-12.0059
sailing	-12.0059
ピエール	-12.0059
人工	-12.0059
pump	-12.006
mbs	-12.0062
じま	-12.0063
nearest	-12.0064
茨城	-12.0066
ienne	-12.0067
史跡	-12.0067
alto	-12.0067
以前の	-12.0072
pell	-12.0073
唱	-12.0074
unter	-12.0074
虚	-12.0075
explorer	-12.0076
ミュー	-12.0077
583	-12.0077
chuck	-12.0078
の旧	-12.0079
共産党	-12.008
保守	-12.0081
に出場した	-12.0082
tran	-12.0083
隣接する	-12.0084
協定	-12.0084
shri	-12.0087
1976)	-12.0087
ボス	-12.0087
ゾーン	-12.0088
ディオ	-12.0088
bourne	-12.0088
centr	-12.0088
隈	-12.0089
学位	-12.0089
同社の	-12.0089
それまで	-12.009
家老	-12.0091
以前	-12.0091
三条	-12.0092
スコット	-12.0092
ペー	-12.0094
gott	-12.0096
ターン	-12.0096
diversity	-12.0098
jorge	-12.0098
1945.	-12.01
plaza	-12.0101
lah	-12.0101
キューバ	-12.0103
ロボット	-12.0104
vl	-12.0106
の中の	-12.0107
出来る	-12.0108
再放送	-12.0112
の死	-12.0112
celebrate	-12.0112
町名	-12.0113
rani	-12.0118
64,	-12.0118
特急	-12.0118
心理	-12.0119
vila	-12.012
用途	-12.012
processing	-12.0121
すでに	-12.0122
行われる	-12.0124
ヴィルヘルム	-12.0125
ストロ	-12.0125
南町	-12.0125
期に	-12.0128
flute	-12.0129
ライセンス	-12.0132
十六	-12.0133
1801	-12.0134
の総称	-12.0136
筒	-12.0136
時から	-12.0136
に移り	-12.0136
の全	-12.0137
tempo	-12.0137
壊	-12.0138
終了した	-12.0138
に進出	-12.0139
europa	-12.0141
(2016).	-12.0142
2.2	-12.0143
cameron	-12.0143
1978)	-12.0144
日号	-12.0144
designs	-12.0145
数が	-12.0146
holder	-12.0147
anglo	-12.0147
上げた	-12.0147
frontier	-12.0149
fran	-12.0149
festivals	-12.0149
división	-12.015
法学	-12.0153
tung	-12.0153
県内	-12.0154
鞍	-12.0154
flor	-12.0154
歌舞伎	-12.0156
に移籍した	-12.0157
batting	-12.0157
infrastructure	-12.0159
hank	-12.0162
throne	-12.0163
用いられる	-12.0165
晶	-12.0166
mediterranean	-12.0166
hira	-12.0167
愛知県道	-12.0167
illy	-12.0168
demon	-12.0169
filled	-12.0169
͡	-12.0169
bark	-12.0169
robertson	-12.017
denver	-12.017
地理	-12.0172
代の	-12.0172
発電	-12.0173
ウラ	-12.0177
戦闘機	-12.0177
memories	-12.0178
therapy	-12.0178
リゾート	-12.0178
こうとうがっこう	-12.0179
dialect	-12.0179
cruise	-12.018
近衛	-12.018
lj	-12.018
同年の	-12.0181
ró	-12.0181
詳細は	-12.0182
に用いられる	-12.0183
くに	-12.0183
patricia	-12.0184
晩	-12.0185
demolished	-12.0186
ばら	-12.0188
自体	-12.0189
の仕事	-12.019
賞金	-12.0192
一般社団法人	-12.0192
大事典	-12.0192
丹波	-12.0192
収容	-12.0193
ibi	-12.0195
hail	-12.0196
rida	-12.0197
バレエ	-12.0198
0–1	-12.0198
月曜日	-12.02
瞳	-12.0202
kō	-12.0203
barnes	-12.0204
初回	-12.0204
trainer	-12.0205
ボード	-12.0205
ballad	-12.0206
..."	-12.0206
エフエム	-12.0206
toured	-12.0206
historia	-12.0206
rookie	-12.0207
でもあった	-12.0208
natur	-12.0208
準決勝	-12.0209
買い	-12.0209
第五	-12.021
ヴィア	-12.0211
恒星	-12.0211
ボイ	-12.0213
性を	-12.0214
opposed	-12.0214
interests	-12.0215
export	-12.0215
基本的に	-12.0218
designation	-12.022
属の	-12.022
1977)	-12.022
ω	-12.0222
(1986)	-12.0225
opsis	-12.0226
四丁目	-12.0227
投げ	-12.0227
produces	-12.0227
シニア	-12.023
実況	-12.023
1974.	-12.0232
ort	-12.0232
既に	-12.0233
翌日	-12.0233
締結	-12.0236
pes	-12.0236
deck	-12.0236
sted	-12.0237
slovakia	-12.0237
請	-12.0239
motorcycle	-12.0239
エコ	-12.0239
太子	-12.024
三角	-12.024
フト	-12.024
angola	-12.0242
の地域	-12.0242
waiting	-12.0243
霧	-12.0243
negative	-12.0244
carp	-12.0246
ブリー	-12.0246
血液型は	-12.0249
earning	-12.0249
国語	-12.0251
amor	-12.0252
kenny	-12.0254
先発	-12.0255
cera	-12.0256
ヲ	-12.0257
inches	-12.0257
コーン	-12.0259
日産	-12.026
manuscript	-12.026
regarded	-12.026
oph	-12.026
1938)	-12.0261
ヶ谷	-12.0261
highways	-12.0262
フォト	-12.0263
蒼	-12.0263
シート	-12.0265
構想	-12.0266
放送の	-12.0267
nac	-12.0267
copenhagen	-12.0267
ownership	-12.0268
ネオ	-12.0269
brien	-12.0269
ა	-12.0269
jews	-12.027
が運営する	-12.0271
opportunity	-12.0271
sberg	-12.0271
の設計	-12.0272
死亡した	-12.0273
初演	-12.0273
compiled	-12.0273
音響	-12.0274
津市	-12.0276
特定の	-12.0276
終了後	-12.0276
5-8	-12.0276
資料館	-12.0277
メタル	-12.0277
、1964	-12.0277
305	-12.0278
340	-12.0279
毎日放送	-12.0279
celebrated	-12.0279
improvement	-12.028
グラフ	-12.0281
以	-12.0281
rector	-12.0281
主張	-12.0281
地の	-12.0282
289	-12.0283
にかけての	-12.0283
漁業	-12.0284
bula	-12.0285
alien	-12.0286
seoul	-12.0287
愛媛	-12.0287
サンド	-12.0287
のみの	-12.0288
創作	-12.0288
高岡	-12.0288
模	-12.0289
救	-12.0289
女神	-12.0289
nina	-12.029
収入	-12.0294
創建	-12.0294
アプリ	-12.0295
平田	-12.0295
ストーン	-12.0295
sandy	-12.0295
lect	-12.0295
concerts	-12.0295
buzz	-12.0298
公式戦	-12.0299
喜多	-12.0299
myspace	-12.0299
資産	-12.03
枚目	-12.0301
ダニエル	-12.0301
خ	-12.0302
裁判所	-12.0302
fiji	-12.0303
遷	-12.0304
まんが	-12.0305
ユニオン	-12.0307
ranks	-12.0307
6.0	-12.0307
判事	-12.0308
パフォーマンス	-12.0308
phor	-12.0308
に含まれる	-12.0308
-90	-12.0308
essential	-12.0309
xt	-12.031
gothic	-12.031
xxx	-12.0311
小学校の	-12.0311
若手	-12.0311
最後	-12.0312
440	-12.0312
にする	-12.0313
メチル	-12.0313
saf	-12.0315
次男	-12.0316
の境界	-12.0316
kali	-12.0317
ータ	-12.0317
であると	-12.0319
グローバル	-12.0319
インディーズ	-12.032
ベストアルバム	-12.0321
alcohol	-12.0321
alexandr	-12.0322
-80	-12.0322
duncan	-12.0322
幹部	-12.0323
武蔵野	-12.0323
江戸時代の	-12.0325
kow	-12.0325
185	-12.0326
跡地	-12.0326
野球部	-12.0326
sheriff	-12.0327
1984,	-12.0328
恵子	-12.0328
browser	-12.0328
王の	-12.0329
有斐閣	-12.033
に移住	-12.033
義務	-12.033
栄養	-12.0331
hypo	-12.0332
学問	-12.0333
の実	-12.0333
棋士	-12.0335
tasmania	-12.0336
enstein	-12.0336
を設け	-12.0337
果実	-12.0337
トニー	-12.0338
malta	-12.0341
tonight	-12.0341
立国会図書館デジタルコレクション	-12.0342
cull	-12.0343
のもと	-12.0343
manner	-12.0344
で生まれた	-12.0345
、1967	-12.0345
下り	-12.0345
忘れ	-12.0345
トウ	-12.0346
44°	-12.0346
glenn	-12.0347
makeup	-12.0347
vest	-12.0348
knights	-12.035
ボストン	-12.0351
vani	-12.0352
託	-12.0352
preliminary	-12.0353
ギン	-12.0353
ゼー	-12.0354
gibson	-12.0355
1812	-12.0355
心の	-12.0355
460	-12.0356
青い	-12.0357
百合	-12.0358
段階	-12.0358
発明	-12.036
不定期	-12.036
inscription	-12.0362
性質	-12.0362
horses	-12.0363
nato	-12.0363
invest	-12.0363
村山	-12.0364
女子大学	-12.0365
surviving	-12.0366
brass	-12.0367
王国の	-12.0369
巴	-12.0369
シャルル	-12.037
が出	-12.037
pronunciation	-12.0373
伊賀	-12.0374
発着	-12.0374
婦人	-12.0375
木下	-12.0376
おも	-12.0376
受信	-12.0377
落成	-12.0377
balance	-12.0378
一般的な	-12.0379
roller	-12.0379
medien	-12.0379
の妹	-12.038
めて	-12.0381
qual	-12.0381
1969)	-12.0381
bd	-12.0383
advantage	-12.0384
講義	-12.0385
1827	-12.0386
中原	-12.0387
ドコモ	-12.0387
slam	-12.0388
francesco	-12.0388
desire	-12.0388
建立	-12.0388
掌	-12.0389
ラヴ	-12.039
taste	-12.039
couples	-12.0391
マンション	-12.0391
道具	-12.0391
bella	-12.0392
手術	-12.0393
1822	-12.0394
667	-12.0396
noise	-12.0397
ovsky	-12.0399
petit	-12.0401
が決定	-12.0402
兄の	-12.0402
comedian	-12.0404
protocol	-12.0404
ボウ	-12.0406
商事	-12.0406
列伝第	-12.0407
に関して	-12.041
malay	-12.0412
clav	-12.0414
1971)	-12.0414
lent	-12.0414
wah	-12.0415
マール	-12.0415
proposal	-12.0416
貸	-12.0416
日外アソシエーツ	-12.0418
住友	-12.0419
ラーメン	-12.0419
したものである	-12.042
言う	-12.0421
7–1	-12.0421
wyoming	-12.0422
speak	-12.0423
179	-12.0424
巨人	-12.0424
設	-12.0425
eldest	-12.0425
ミラノ	-12.0426
ย	-12.0427
ruins	-12.0427
新規	-12.0427
manhattan	-12.0427
siv	-12.0429
chant	-12.0429
baum	-12.043
thomson	-12.0432
コーヒー	-12.0433
花の	-12.0433
攻め	-12.0433
古川	-12.0435
shelter	-12.0436
衡	-12.0436
ideas	-12.0438
lucas	-12.0438
プリンス	-12.0442
seal	-12.0442
brom	-12.0443
flags	-12.0444
の基礎	-12.0447
人事興信録	-12.0448
町役場	-12.0448
clement	-12.0449
syrian	-12.045
授	-12.0451
codes	-12.0452
当て	-12.0454
package	-12.0454
inspector	-12.0454
uchi	-12.0454
roz	-12.0454
argo	-12.0455
filmed	-12.0455
га	-12.0456
slide	-12.0456
存在する	-12.0457
であったため	-12.0457
officials	-12.0458
等で	-12.0461
debate	-12.0462
wp	-12.0463
9:00	-12.0463
retiring	-12.0463
measure	-12.0464
コンテンツ	-12.0464
登山	-12.0464
ウォーター	-12.0465
売上	-12.0466
ジア	-12.0466
の王	-12.0468
ი	-12.0469
het	-12.0472
scho	-12.0473
工芸	-12.0475
$2	-12.0475
gates	-12.0477
soap	-12.0477
mollusca	-12.0478
回日本	-12.048
の東	-12.048
electronics	-12.0481
1972)	-12.0483
浅野	-12.0484
sword	-12.0485
ingen	-12.0486
patients	-12.0489
ultimately	-12.0489
violence	-12.0489
fix	-12.049
歳没	-12.0492
小泉	-12.0492
spots	-12.0493
glo	-12.0493
高島	-12.0494
横断	-12.0496
篠	-12.0497
ニエ	-12.0498
駅は	-12.0499
liz	-12.05
coffee	-12.0501
します	-12.0501
tini	-12.0502
を下	-12.0503
lub	-12.0503
も多く	-12.0506
っち	-12.0507
allied	-12.0507
に復帰	-12.0509
missions	-12.0511
手がけ	-12.0511
は主に	-12.0511
創業者	-12.0512
スピード	-12.0513
5-7	-12.0513
の数	-12.0513
そんな	-12.0516
耐	-12.0516
名簿	-12.052
のライブ	-12.052
1982,	-12.0521
bradford	-12.0522
dip	-12.0524
ネコ	-12.0526
1823	-12.0527
(1983)	-12.0527
ユーザー	-12.0527
新町	-12.0527
季節	-12.0529
businesses	-12.053
フロー	-12.0531
espncricinfo	-12.0532
markets	-12.0533
総督	-12.0534
landmark	-12.0534
ssa	-12.0534
を搭載	-12.0535
へい	-12.0536
sussex	-12.0536
(1984	-12.0537
釣り	-12.0538
encounter	-12.0538
を新設	-12.0538
....	-12.0538
ダブルス	-12.0539
maharashtra	-12.0539
caught	-12.054
edgar	-12.0541
proper	-12.0541
稿	-12.0541
regarding	-12.0543
弘前	-12.0543
最上	-12.0543
subdivision	-12.0545
関西テレビ	-12.0545
セラ	-12.0546
361	-12.0547
くろ	-12.0548
scher	-12.0548
affair	-12.0548
植民地	-12.0549
オオ	-12.055
罰	-12.055
ò	-12.0553
陶	-12.0553
tours	-12.0553
初当選	-12.0553
frequency	-12.0556
instruction	-12.0556
advisor	-12.0556
浅草	-12.0556
周囲	-12.0557
1999)	-12.0557
480	-12.0558
改築	-12.0558
クション	-12.0558
vä	-12.0558
倫	-12.0559
一日	-12.0559
ving	-12.0559
半分	-12.056
1790	-12.0561
3.7	-12.0561
巻き	-12.0562
パイロット	-12.0562
mania	-12.0563
径	-12.0564
上昇	-12.0564
polis	-12.0565
holmes	-12.0565
genes	-12.0566
06°	-12.0566
2011".	-12.0567
駆逐艦	-12.0567
provinces	-12.0568
司令部	-12.0568
記念館	-12.0569
1818	-12.0569
、1965	-12.057
locomotives	-12.0571
milli	-12.0572
南方	-12.0573
単に	-12.0575
濱	-12.0576
助け	-12.0576
lithuanian	-12.0578
熱帯	-12.0578
hugo	-12.0579
杜	-12.0579
trying	-12.058
dahl	-12.058
星野	-12.058
haz	-12.0581
ひがし	-12.0581
copper	-12.0585
graves	-12.0585
1974)	-12.0585
retained	-12.0585
veteran	-12.0586
を持っている	-12.0588
郁	-12.0589
財務	-12.059
indians	-12.0591
を率いて	-12.0591
moni	-12.0592
グラフィック	-12.0592
上京	-12.0593
グッド	-12.0593
2-5	-12.0594
レール	-12.0594
興味	-12.0595
ジョーンズ	-12.0596
archaeology	-12.0599
enable	-12.06
loud	-12.0602
congressional	-12.0602
地獄	-12.0603
smoke	-12.0604
showed	-12.0605
queens	-12.0606
と言われている	-12.0606
年後の	-12.0606
台北	-12.0606
259	-12.0607
れない	-12.0609
essays	-12.0609
概念	-12.0609
らし	-12.061
宮殿	-12.0611
weak	-12.0611
ざわ	-12.0613
bruno	-12.0614
doctorate	-12.0614
の中では	-12.0615
リトアニア	-12.0616
を果たし	-12.0616
kum	-12.0618
worship	-12.0619
survive	-12.062
certification	-12.0621
参考	-12.0623
6,000	-12.0624
hama	-12.0624
mhz	-12.0625
介護	-12.0625
lecturer	-12.0625
herzegovina	-12.0625
有機	-12.0627
ania	-12.0628
nishi	-12.0628
先行	-12.0629
diary	-12.0629
を発表した	-12.063
rebuilt	-12.0631
大阪府大阪市	-12.0632
出版部	-12.0632
307	-12.0633
cannon	-12.0634
bling	-12.0634
contributing	-12.0635
loose	-12.0635
用に	-12.0635
ゲート	-12.0636
andre	-12.0638
1826	-12.0638
crack	-12.0641
nab	-12.0641
が異なる	-12.0642
lebanon	-12.0642
世帯数	-12.0643
編集部	-12.0643
[...]
