<pad>	0
<unk>	0
▁	0
unused_0	0
unused_1	0
unused_2	0
unused_3	0
unused_4	0
unused_5	0
unused_6	0
unused_7	0
unused_8	0
unused_9	0
unused_10	0
unused_11	0
unused_12	0
の	-1.98841
、	-3.53467
。	-3.61205
)	-3.98487
年	-4.04376
(	-4.08682
・	-4.36988
-	-4.55968
は	-4.66912
月	-4.75172
が	-5.09423
:	-5.17308
.	-5.17357
に	-5.23331
を	-5.29142
日	-5.32375
で	-5.42286
1	-5.4797
2	-5.53729
「	-5.53776
と	-5.55003
『	-5.57941
」	-5.59389
^	-5.60409
3	-5.69098
』	-5.75745
,	-5.87605
4	-5.89836
/	-6.05874
s	-6.11947
5	-6.15185
a	-6.17722
である	-6.23914
から	-6.29959
6	-6.30809
7	-6.33512
し	-6.36132
10	-6.36381
8	-6.39998
した	-6.40464
第	-6.44633
9	-6.44682
や	-6.49705
12	-6.55066
b	-6.55902
“	-6.61259
11	-6.61428
日閲覧	-6.6165
も	-6.61971
市	-6.6277
として	-6.64767
する	-6.66673
町	-6.78656
大	-6.8374
号	-6.9049
c	-6.91096
人	-6.91801
日本	-6.9238
m	-6.93428
the	-6.95612
”.	-6.97669
ス	-6.97735
では	-6.98778
).	-7.0343
年に	-7.04237
昭和	-7.04622
子	-7.07348
e	-7.08701
た	-7.08876
p	-7.10325
中	-7.10338
線	-7.11268
山	-7.11579
d	-7.12327
には	-7.19133
20	-7.19872
る	-7.2039
一	-7.21095
郡	-7.21954
15	-7.22154
駅	-7.22665
分	-7.24379
など	-7.25493
村	-7.26928
of	-7.29874
18	-7.32361
上	-7.33588
平成	-7.34223
16	-7.34372
17	-7.34544
な	-7.35047
している	-7.36395
川	-7.37019
回	-7.37919
30	-7.38246
また	-7.39049
部	-7.39476
』(	-7.39641
新	-7.39886
された	-7.40836
東	-7.42441
f	-7.42927
本	-7.44226
13	-7.44425
14	-7.44912
して	-7.45171
ア	-7.45928
"	-7.45997
=	-7.47412
名	-7.47965
この	-7.48133
ズ	-7.49306
国	-7.50074
i	-7.50516
in	-7.51578
ド	-7.51959
t	-7.52927
南	-7.53118
家	-7.5423
25	-7.54264
西	-7.55681
長	-7.56454
22	-7.56584
英語	-7.56804
元	-7.57313
n	-7.57575
j	-7.58528
g	-7.58916
19	-7.60057
三	-7.60258
!	-7.60375
ク	-7.60463
その	-7.60689
という	-7.6252
r	-7.6266
ラ	-7.62859
北	-7.62895
後	-7.63001
島	-7.63277
日に	-7.63613
24	-7.63815
ト	-7.63929
h	-7.63936
小	-7.64788
21	-7.65426
2017	-7.65541
作曲	-7.65817
'	-7.65884
2018	-7.67447
となる	-7.67516
下	-7.67725
により	-7.6791
位	-7.68685
て	-7.69167
23	-7.69536
カ	-7.69677
より	-7.70181
か	-7.70483
k	-7.70535
内	-7.70627
度	-7.70736
による	-7.70921
田	-7.70942
へ	-7.71293
28	-7.71535
り	-7.72024
〜	-7.72236
29	-7.7276
高	-7.72806
野	-7.73566
o	-7.73703
isbn	-7.73786
26	-7.75223
明治	-7.75525
道	-7.75713
v	-7.75929
い	-7.76014
社	-7.76209
l	-7.76489
ナ	-7.7679
27	-7.78111
となった	-7.78237
大学	-7.79055
前	-7.79388
com	-7.7978
法	-7.80644
タ	-7.81126
and	-7.81537
ノ	-7.81622
水	-7.81807
2016	-7.81944
&	-7.81991
～	-7.82129
de	-7.82565
株式会社	-7.82854
マ	-7.83003
作詞	-7.83197
お	-7.83494
み	-7.84246
者	-7.84697
2012	-7.84849
され	-7.85327
コ	-7.85871
2015	-7.85897
2013	-7.86201
東京	-7.86384
ル	-7.86422
される	-7.86592
2014	-7.87006
同	-7.87369
リ	-7.87497
2011	-7.87513
x	-7.88097
://	-7.88694
ている	-7.89872
がある	-7.90667
会	-7.90956
生	-7.91949
城	-7.91951
2010	-7.9201
u	-7.9218
州	-7.92968
地	-7.94557
木	-7.9624
正	-7.96426
であり	-7.96477
平	-7.96483
き	-7.96541
寺	-7.97149
まで	-7.97254
県	-7.97385
小学校	-7.9772
w	-7.97793
2009	-7.98434
によって	-7.98928
31	-7.99105
光	-7.99145
y	-7.99785
であった	-7.99806
美	-8.00023
にある	-8.00222
to	-8.00654
2008	-8.0104
時	-8.01201
オ	-8.01492
代	-8.01493
バ	-8.01991
金	-8.02132
エ	-8.02334
レ	-8.02782
世界	-8.02908
原	-8.03256
編曲	-8.03409
く	-8.03521
全	-8.03641
ロ	-8.03953
デ	-8.04059
文	-8.04455
2007	-8.0477
こ	-8.06142
王	-8.06244
二	-8.06403
区	-8.06973
史	-8.07902
]	-8.08901
されている	-8.09502
ダ	-8.09651
和	-8.09846
イ	-8.09978
http	-8.1031
サ	-8.10372
性	-8.10492
シ	-8.1094
海	-8.11115
間	-8.11343
ム	-8.11508
つ	-8.11539
役	-8.11734
現	-8.11753
放送	-8.11886
とは	-8.12131
ジ	-8.12447
神	-8.12467
巻	-8.12974
フ	-8.13235
曲	-8.13604
ため	-8.14334
英語版	-8.14686
キ	-8.14778
数	-8.14994
学	-8.15245
編	-8.15282
マン	-8.15898
版	-8.15906
日本の	-8.15959
花	-8.16052
ザ	-8.16439
橋	-8.16572
旧	-8.16625
石	-8.16635
戦	-8.16696
en	-8.16786
明	-8.16921
ら	-8.16923
on	-8.17054
出身	-8.17244
その後	-8.17406
2006	-8.17623
co	-8.18021
型	-8.18099
立	-8.18805
行	-8.18979
」(	-8.1915
面	-8.19206
al	-8.19387
”	-8.19438
氏	-8.19608
アルバム	-8.19752
化	-8.19902
世	-8.20496
手	-8.20541
km	-8.21413
+	-8.21571
中学校	-8.21817
チ	-8.22408
等	-8.22531
リー	-8.2287
勝	-8.22967
中国	-8.23134
用	-8.23408
映画	-8.25363
作品	-8.25803
、「	-8.26263
–	-8.26667
科	-8.26687
目	-8.26807
賞	-8.27169
国道	-8.27195
監督	-8.2721
ミ	-8.27636
見	-8.27717
2005	-8.27919
公	-8.2835
的	-8.28362
った	-8.28804
月に	-8.29037
[	-8.29797
頁	-8.30399
軍	-8.30474
語	-8.30558
国際	-8.30732
no	-8.30769
英	-8.31063
谷	-8.31242
台	-8.31333
ディ	-8.31373
www	-8.31395
地域	-8.3143
40	-8.32256
z	-8.32391
ニ	-8.33045
ティ	-8.33165
音楽	-8.33332
所	-8.33668
す	-8.3396
市立	-8.34054
および	-8.34391
局	-8.34436
鉄道	-8.34525
屋	-8.34548
義	-8.34762
にも	-8.35412
la	-8.35493
re	-8.36047
ガ	-8.36068
ツ	-8.36234
グ	-8.36539
していた	-8.36845
選手	-8.36971
となり	-8.37497
別	-8.37579
にて	-8.38441
ic	-8.38474
天	-8.38897
において	-8.38935
系	-8.38995
フランス	-8.39144
ネ	-8.3935
シングル	-8.39526
2000	-8.39882
バス	-8.39912
信	-8.40086
th	-8.4014
ン	-8.40318
ハ	-8.40319
2004	-8.40349
番	-8.40564
教育	-8.40573
真	-8.40589
学校	-8.40601
男	-8.40608
>	-8.4085
年から	-8.41293
一覧	-8.4141
話	-8.4155
物	-8.41732
安	-8.41737
店	-8.4204
メ	-8.42425
風	-8.42652
シリーズ	-8.42743
センター	-8.4282
同年	-8.42885
サン	-8.43781
秒	-8.44162
における	-8.44358
江	-8.44373
50	-8.44497
セ	-8.44507
宮	-8.44535
情報	-8.44538
fc	-8.44978
形	-8.45005
リーグ	-8.45315
及び	-8.45322
約	-8.45374
女	-8.46029
通	-8.46061
cm	-8.46098
式	-8.46654
研究	-8.46704
le	-8.46856
テ	-8.47126
プ	-8.47233
久	-8.47236
愛	-8.47331
期	-8.47468
でも	-8.4761
清	-8.47796
ビ	-8.47834
代表	-8.47919
館	-8.48109
高等学校	-8.48141
作	-8.48206
ed	-8.48273
だった	-8.48312
重	-8.4838
イン	-8.48687
ウ	-8.48809
外	-8.49032
雄	-8.49126
う	-8.49333
ing	-8.49399
機	-8.49911
体	-8.49937
白	-8.50215
歌	-8.50378
年には	-8.50407
里	-8.50488
しかし	-8.50625
への	-8.50633
パ	-8.51022
2003	-8.51065
馬	-8.5118
次	-8.51627
ブ	-8.51843
女子	-8.51977
番組	-8.5198
at	-8.52028
ある	-8.52191
公式サイト	-8.52222
北海道	-8.52807
後に	-8.52976
院	-8.53191
方	-8.53196
種	-8.534
100	-8.53523
初	-8.53619
流	-8.54268
室	-8.54423
協会	-8.5464
ー	-8.54729
現在の	-8.54767
なお	-8.54772
的な	-8.55015
書	-8.55111
アン	-8.55126
こと	-8.55421
er	-8.55625
地区	-8.56101
出	-8.56227
モ	-8.56275
テレビ	-8.5628
さ	-8.56332
ゴ	-8.5635
井	-8.56535
となっている	-8.56552
2002	-8.56615
森	-8.56637
成	-8.56658
優勝	-8.56674
_	-8.56785
場	-8.56785
口	-8.5694
って	-8.57077
車	-8.57319
直	-8.57346
文化	-8.57917
だ	-8.58049
吉	-8.5819
武	-8.58326
について	-8.58403
星	-8.58602
音	-8.58689
ま	-8.58841
大阪	-8.59178
チーム	-8.59283
シュ	-8.59287
アル	-8.59454
夫	-8.59876
治	-8.60164
大会	-8.60211
点	-8.60262
プロ	-8.60286
カー	-8.60432
中央	-8.60581
ケ	-8.60981
ta	-8.61119
朝	-8.61303
之	-8.61351
事業	-8.61774
;	-8.61919
アメリカ	-8.62158
→	-8.62429
活動	-8.62525
0	-8.62525
年度	-8.62586
es	-8.62712
ち	-8.62855
松	-8.62954
2019	-8.62978
2001	-8.63046
for	-8.63056
古	-8.6316
jr	-8.63423
時間	-8.63567
あ	-8.63807
ヤ	-8.6385
神社	-8.63992
st	-8.64012
me	-8.64819
)4	-8.64871
グループ	-8.64933
船	-8.6504
頭	-8.65243
林	-8.65414
nhk	-8.65626
沢	-8.65697
力	-8.66099
春	-8.66365
?	-8.66371
万	-8.66545
八	-8.66652
父	-8.66665
門	-8.66876
各	-8.66966
知	-8.67199
ていた	-8.67283
ない	-8.67339
ラー	-8.67511
所属	-8.67755
などの	-8.6802
35	-8.68204
バー	-8.6878
志	-8.68807
ラン	-8.69398
級	-8.69647
pdf	-8.7015
さん	-8.70688
news	-8.70741
論	-8.70884
め	-8.70915
出版	-8.71029
事	-8.71079
開発	-8.7109
政	-8.71144
無	-8.7142
ソ	-8.7176
字	-8.71804
45	-8.7206
じ	-8.72079
cd	-8.72346
え	-8.72677
宗	-8.7273
歳	-8.734
色	-8.73558
is	-8.73697
心	-8.74019
尾	-8.74072
ロー	-8.74206
五	-8.74308
とも	-8.74392
郷	-8.74601
津	-8.74696
良	-8.74739
岩	-8.74907
ター	-8.74916
ボ	-8.74978
スト	-8.75099
官	-8.75113
都市	-8.75246
ドイツ	-8.75554
実	-8.75695
|	-8.75853
地方	-8.7609
60	-8.76204
着	-8.76372
ゲーム	-8.76637
集	-8.76639
us	-8.76744
女性	-8.76833
有	-8.76968
コン	-8.77009
ポ	-8.77145
na	-8.77298
jp	-8.77334
他	-8.77382
シー	-8.77439
いた	-8.77461
太	-8.77474
トン	-8.77521
座	-8.77866
母	-8.78756
主	-8.79074
1999	-8.79111
堂	-8.79468
公園	-8.801
総合	-8.80669
不	-8.80704
丸	-8.80787
ko	-8.81448
施設	-8.81971
広	-8.82095
ma	-8.82168
千	-8.82547
徳	-8.82578
会社	-8.83131
日本語	-8.83135
定	-8.84169
発	-8.84188
多	-8.8422
リン	-8.84256
夏	-8.84261
go	-8.84775
校	-8.8481
道路	-8.8539
のみ	-8.85446
入	-8.85935
ソン	-8.86769
丁目	-8.86804
1998	-8.86821
ギ	-8.86836
とする	-8.86886
む	-8.87005
34	-8.87104
ワ	-8.87247
試合	-8.87729
土	-8.87747
クラブ	-8.87881
q	-8.88274
になる	-8.88358
大正	-8.885
空	-8.88588
ラジオ	-8.88761
組	-8.88772
御	-8.88932
制	-8.89026
ニー	-8.89107
ヒ	-8.89258
戸	-8.89404
38	-8.89504
条	-8.89679
があり	-8.89756
士	-8.90015
派	-8.90347
記	-8.9035
マー	-8.90399
豊	-8.90766
教授	-8.91472
または	-8.91567
制作	-8.91784
声	-8.91809
京都	-8.9198
ヴィ	-8.92113
di	-8.92275
両	-8.92292
円	-8.92467
忠	-8.92609
...	-8.92636
太郎	-8.92709
36	-8.92767
」「	-8.92896
当時	-8.93114
管理	-8.9339
高校	-8.93543
man	-8.93616
関係	-8.93634
技術	-8.93736
全国	-8.93756
an	-8.93763
1997	-8.93812
章	-8.93958
幸	-8.94006
こう	-8.94148
黒	-8.94163
ニュース	-8.9428
訳	-8.94703
1996	-8.94745
彦	-8.94802
とともに	-8.95023
※	-8.95114
四	-8.95348
ピ	-8.95448
社会	-8.95531
ch	-8.95548
ぶ	-8.95576
39	-8.95586
47	-8.95711
現在は	-8.95991
永	-8.96255
坂	-8.96258
保	-8.96328
北緯	-8.96339
総	-8.96486
企業	-8.9658
ca	-8.96611
tv	-8.96732
隊	-8.96759
48	-8.96925
スター	-8.97015
イタリア	-8.97424
ベ	-8.97622
スポーツ	-8.97656
37	-8.9782
イギリス	-8.98053
陽	-8.98141
崎	-8.98199
by	-8.98235
33	-8.98262
利	-8.98327
港	-8.98468
ペ	-8.98661
合	-8.98764
55	-8.99051
問題	-8.99365
年間	-8.99424
鎮	-8.99494
it	-8.99506
ベル	-8.99556
に関する	-8.99561
sa	-8.99685
経済	-8.99688
×	-8.9981
路	-9.00048
mo	-9.0027
70	-9.00291
生まれ	-9.00302
1995	-9.00307
米	-9.00372
気	-9.00635
シーズン	-9.00677
司	-9.00834
を経て	-9.00971
ナー	-9.01121
赤	-9.01144
be	-9.01191
建設	-9.01406
32	-9.01422
80	-9.01584
ほか	-9.01648
聖	-9.01862
年まで	-9.01879
六	-9.01945
伝	-9.02019
アメリカ合衆国	-9.02065
隆	-9.02222
エル	-9.02446
90	-9.02454
弘	-9.02488
佐	-9.02581
岡	-9.02658
当	-9.02711
da	-9.02825
藩	-9.0292
加	-9.02935
計画	-9.0316
を持つ	-9.03418
ro	-9.03469
ファ	-9.03513
se	-9.03781
1994	-9.04003
になった	-9.04061
現在	-9.04099
七	-9.04394
46	-9.0442
do	-9.04489
ヴァ	-9.0451
ne	-9.0456
ご	-9.04601
瀬	-9.04768
システム	-9.0484
1990	-9.04864
仁	-9.04953
mi	-9.05059
藤	-9.05231
先	-9.05256
一部	-9.0549
販売	-9.05599
都	-9.05617
師	-9.0603
守	-9.06045
記録	-9.06265
生活	-9.06308
夜	-9.06386
#	-9.06427
インターネット	-9.06473
(2015	-9.06648
ており	-9.0678
福	-9.06844
現代	-9.06936
よ	-9.06961
1993	-9.07091
製作	-9.0712
事件	-9.07138
カル	-9.07265
さらに	-9.07287
男子	-9.0732
(2017	-9.07333
領	-9.07494
44	-9.07568
波	-9.07611
と共に	-9.07688
葉	-9.07692
シャ	-9.0778
企画	-9.07804
ッ	-9.07887
et	-9.08079
たち	-9.08225
id	-9.08471
業	-9.08584
進	-9.08709
龍	-9.08729
ゲ	-9.08961
樹	-9.09032
発売	-9.09086
関	-9.091
今	-9.09106
連	-9.09122
ロシア	-9.0927
タイ	-9.093
カン	-9.09397
ビル	-9.09409
草	-9.09442
香	-9.09446
アイ	-9.09453
々	-9.09661
対	-9.09691
ジャ	-9.09727
ホ	-9.09769
時代	-9.09952
泉	-9.10167
東経	-9.10387
類	-9.10493
東京都	-9.10603
world	-9.10646
通り	-9.10688
病院	-9.10735
ジョン	-9.10835
民	-9.1094
49	-9.11107
湖	-9.11352
来	-9.11359
ii	-9.11604
ka	-9.11623
(2012	-9.11765
1987	-9.1177
秀	-9.12266
web	-9.12398
玉	-9.12428
すると	-9.12514
ar	-9.12616
銀行	-9.12735
(2014	-9.12782
モデル	-9.13147
教	-9.13231
組織	-9.13232
浦	-9.13348
表	-9.13359
党	-9.13379
(2016	-9.13636
1992	-9.13755
蔵	-9.13785
(2011	-9.13919
html	-9.13964
レイ	-9.14018
te	-9.14037
my	-9.14122
オー	-9.14186
月号	-9.14188
データベース	-9.14343
的に	-9.14401
兵	-9.14503
半	-9.1455
サービス	-9.14572
温泉	-9.14703
だが	-9.14728
夢	-9.14939
(2013	-9.14951
ga	-9.1526
new	-9.15298
ぎ	-9.15383
属	-9.15386
ず	-9.15449
できる	-9.15602
love	-9.15746
河	-9.15853
pp	-9.15906
ja	-9.15936
{\	-9.16274
42	-9.16297
1991	-9.16335
ホーム	-9.16402
経	-9.1658
権	-9.16595
誌	-9.16903
1989	-9.16913
日から	-9.16938
られた	-9.16984
歴史	-9.16994
mm	-9.17173
ムービー	-9.17241
根	-9.1725
tbs	-9.17262
\	-9.17307
43	-9.1733
出演	-9.17431
れ	-9.1753
開	-9.17599
or	-9.17657
相	-9.17799
設立	-9.17847
電	-9.17867
しており	-9.17896
ヌ	-9.17912
第一	-9.18094
品	-9.18142
バンド	-9.1867
担当	-9.18877
富	-9.18942
自	-9.18957
韓国	-9.18967
レン	-9.19125
ば	-9.19292
ダー	-9.19386
ど	-9.19407
池	-9.19446
わ	-9.1967
エン	-9.19799
著	-9.19874
ランド	-9.19963
ドラマ	-9.20024
図	-9.20032
研究所	-9.20254
アー	-9.20347
pa	-9.20413
浜	-9.20573
基	-9.20693
vol	-9.20707
群	-9.20765
理	-9.20777
出場	-9.208
火	-9.20932
紀	-9.21063
デザイン	-9.21089
としては	-9.21092
ライブ	-9.21104
タン	-9.21157
music	-9.212
主に	-9.21235
物語	-9.21321
課	-9.21432
特に	-9.21479
死	-9.21487
環境	-9.21544
el	-9.21833
ha	-9.21837
kg	-9.22103
工場	-9.22104
員	-9.22127
リア	-9.22431
チャ	-9.22463
を行う	-9.22486
ba	-9.22512
as	-9.22617
交通	-9.22624
節	-9.22626
妻	-9.22632
委員会	-9.22673
在	-9.22779
1980	-9.22824
角	-9.22867
1986	-9.22888
産業	-9.22927
足	-9.22929
調査	-9.22966
孝	-9.23166
ra	-9.2335
人物	-9.23426
ファン	-9.23475
食	-9.23515
デビュー	-9.23899
省	-9.23958
器	-9.24089
シン	-9.24133
(2010	-9.24241
開始	-9.2428
メンバー	-9.24287
(2018	-9.24617
学園	-9.24687
越	-9.24737
生産	-9.24804
兼	-9.25078
写真	-9.2537
特別	-9.25464
スーパー	-9.25468
ヘ	-9.25698
されていた	-9.26168
経営	-9.26201
名古屋	-9.26263
学会	-9.26471
ページ	-9.26522
ね	-9.26527
青	-9.26559
ki	-9.2656
に伴い	-9.26599
鉄	-9.26628
57	-9.26923
41	-9.26991
美術	-9.27013
交差点	-9.27058
ほど	-9.27085
かつて	-9.27126
so	-9.27182
dvd	-9.27256
1988	-9.27279
初代	-9.27295
ベスト	-9.273
文庫	-9.27348
選手権	-9.27361
画	-9.27376
lo	-9.27668
け	-9.27674
ge	-9.27693
ビー	-9.27851
楽	-9.27906
親	-9.27998
con	-9.28202
ロン	-9.28208
政府	-9.28539
副	-9.28565
康	-9.28594
達	-9.28627
これは	-9.28685
戦争	-9.28742
フィ	-9.28783
ゼ	-9.28816
再	-9.28958
秋	-9.29041
】	-9.29067
階	-9.29179
量	-9.29185
パン	-9.29238
博	-9.29304
新聞	-9.2932
人口	-9.29377
ti	-9.29496
一般	-9.2952
び	-9.29535
羽	-9.29537
華	-9.29759
末	-9.29864
つの	-9.29942
を参照	-9.30021
愛知県	-9.30032
}	-9.30189
56	-9.30206
小説	-9.30207
1985	-9.30208
ver	-9.30234
ジュ	-9.30406
(2009	-9.30506
運動	-9.30612
鈴木	-9.30762
っている	-9.30797
左	-9.3081
廃止	-9.30841
せ	-9.30899
とされる	-9.30971
命	-9.31025
を務めた	-9.3103
友	-9.31137
京	-9.31149
ネット	-9.31179
1984	-9.31272
you	-9.31447
元年	-9.31448
あり	-9.31492
せん	-9.3155
twitter	-9.31671
街	-9.31681
脚本	-9.31687
昌	-9.31882
例	-9.31957
宝	-9.31985
園	-9.32174
伊	-9.3219
収録	-9.32252
開催	-9.32344
os	-9.32359
マル	-9.32373
ハイ	-9.32423
58	-9.32451
ふ	-9.32545
恋	-9.32619
団体	-9.32646
人間	-9.32775
多くの	-9.32793
興	-9.32923
〈	-9.32957
style	-9.33048
建築	-9.33124
ter	-9.33212
っ	-9.33249
と呼ばれる	-9.33253
オリジナル	-9.33275
九州	-9.33448
バン	-9.33563
―	-9.33602
(2007	-9.33642
利用	-9.3367
ット	-9.33776
団	-9.33857
サッカー	-9.33923
のため	-9.33934
洋	-9.33958
の一部	-9.34012
コー	-9.34132
路線	-9.34154
59	-9.34163
卒業	-9.34213
bo	-9.34364
ホール	-9.34584
53	-9.34673
身	-9.34674
構造	-9.34894
カップ	-9.34913
部門	-9.35026
オブ	-9.35037
職	-9.35078
翌	-9.35127
倉	-9.35265
サイト	-9.35372
1983	-9.35562
桜	-9.35602
よう	-9.35983
貴	-9.36082
(2008	-9.36116
そして	-9.36121
名は	-9.36177
付	-9.36238
南部	-9.36316
絵	-9.36318
族	-9.36384
設置	-9.36423
科学	-9.36451
撮影	-9.36489
竹	-9.36584
中村	-9.36695
やま	-9.36741
ly	-9.36757
一郎	-9.36793
横	-9.36882
右	-9.36955
モン	-9.3709
以降	-9.37187
記念	-9.37407
製	-9.37439
それ	-9.37474
周	-9.37491
自動車	-9.37537
パー	-9.37552
湯	-9.37631
未	-9.37699
俊	-9.37789
ジェ	-9.37873
ブル	-9.38289
リング	-9.38333
栄	-9.38391
恵	-9.38406
したが	-9.38449
サー	-9.38522
1982	-9.38652
ことから	-9.38812
だけ	-9.3906
兄	-9.39214
☆	-9.39223
に対して	-9.39259
gi	-9.39272
ヨーロッパ	-9.39335
コース	-9.39394
機能	-9.39484
海軍	-9.39611
也	-9.39615
スペイン	-9.39625
横浜	-9.39712
文学	-9.39737
)”.	-9.39753
終点	-9.39907
アジア	-9.40016
工業	-9.40068
公式	-9.40152
アニメ	-9.40164
建	-9.40229
作家	-9.40255
にあった	-9.405
雪	-9.40571
政治	-9.40891
live	-9.40928
li	-9.41042
そ	-9.4106
雲	-9.41257
指定	-9.41269
号線	-9.41304
第二	-9.41449
05	-9.4146
タイトル	-9.41533
たい	-9.4155
52	-9.41605
fa	-9.41607
天皇	-9.41617
街道	-9.41668
源	-9.417
場所	-9.41713
200	-9.41744
オリンピック	-9.41978
航空	-9.42016
1981	-9.42087
編集	-9.42117
54	-9.42198
one	-9.42226
満	-9.42237
塩	-9.42355
熱	-9.42357
der	-9.42364
教会	-9.42532
鳥	-9.42638
ひ	-9.42723
ただし	-9.42752
日まで	-9.42773
バル	-9.42863
に位置する	-9.42869
結果	-9.4287
祭	-9.42961
十	-9.42985
ガー	-9.43048
終了	-9.43147
team	-9.43151
マイ	-9.43168
データ	-9.4325
紹介	-9.43264
開業	-9.43265
ac	-9.43316
奥	-9.43463
商	-9.43467
運営	-9.43556
常	-9.43586
書房	-9.43647
んだ	-9.43666
劇場	-9.43667
智	-9.4373
ルー	-9.4374
佐藤	-9.43781
org	-9.43811
澤	-9.43941
郵便局	-9.44027
フェ	-9.44103
郎	-9.44268
好	-9.44389
パリ	-9.44439
介	-9.44721
とした	-9.44834
設計	-9.45057
のうち	-9.45112
表記	-9.45151
1979	-9.45216
世紀	-9.45226
vs	-9.45228
喜	-9.45254
弾	-9.4527
側	-9.45305
いる	-9.45366
百	-9.4543
もある	-9.45558
08	-9.4568
ユ	-9.45762
年代	-9.45826
台湾	-9.45853
君	-9.45903
そう	-9.46008
を受け	-9.46038
楽曲	-9.46045
【	-9.46181
japan	-9.46282
ce	-9.46288
修	-9.46359
事務所	-9.46376
1972	-9.46447
毛	-9.46515
ん	-9.46573
with	-9.46662
仏	-9.46766
文字	-9.46775
インド	-9.4689
景	-9.46932
神戸	-9.47128
支店	-9.47283
fm	-9.47306
空港	-9.47478
レース	-9.47526
ヴ	-9.477
紙	-9.47744
田中	-9.47851
公開	-9.47874
広島	-9.48006
状	-9.48069
産	-9.48144
賀	-9.48216
フリー	-9.48245
500	-9.48275
net	-9.48275
の一つ	-9.48385
能	-9.48524
オン	-9.48587
時に	-9.48617
キー	-9.48699
ガン	-9.48719
起点	-9.48774
トゥ	-9.48837
跡	-9.49016
帝	-9.49085
アナウンサー	-9.49101
超	-9.49154
かん	-9.49267
登録	-9.49275
植物	-9.4931
プロデューサー	-9.49322
比	-9.49353
1978	-9.49453
ri	-9.49455
02	-9.49584
調	-9.49585
埼玉県	-9.49593
については	-9.49594
https	-9.4966
板	-9.49731
どう	-9.49744
られる	-9.49817
昭	-9.49891
以上	-9.49951
ジー	-9.50038
日発売	-9.50058
連盟	-9.50123
山田	-9.50171
町立	-9.50222
使用	-9.5025
会議	-9.50267
女優	-9.50289
方面	-9.50344
per	-9.50453
動	-9.50488
ジャパン	-9.50492
庁	-9.50605
am	-9.51074
助	-9.51171
1970	-9.51203
チェ	-9.51225
むら	-9.51305
vi	-9.51407
スタ	-9.51471
同じ	-9.51474
段	-9.51631
デン	-9.51661
1976	-9.51746
順	-9.51931
艦	-9.51949
ギター	-9.52025
(2006	-9.52051
ni	-9.52067
警察	-9.52235
ロック	-9.52266
泰	-9.52276
発行	-9.52282
)3	-9.52323
ホテル	-9.52337
ダム	-9.52598
製造	-9.52754
su	-9.52797
詩	-9.52857
俳優	-9.52933
国家	-9.52984
通信	-9.52998
un	-9.53049
少年	-9.53217
諸	-9.53231
ック	-9.53243
国立	-9.53304
ダン	-9.53455
造	-9.53465
しょう	-9.53495
薬	-9.53624
from	-9.53707
ライ	-9.53711
慶	-9.5372
を含む	-9.53759
ハン	-9.53791
裕	-9.53792
区間	-9.53835
1974	-9.53855
!!	-9.53879
雅	-9.53897
竜	-9.53927
ku	-9.54016
宿	-9.54163
03	-9.5419
病	-9.5425
盤	-9.54278
界	-9.54326
吉田	-9.54329
ミュージック	-9.54366
かい	-9.54483
選	-9.54588
整備	-9.5463
04	-9.5467
レス	-9.54707
00	-9.54821
感	-9.54821
渡	-9.54825
ワン	-9.54827
86	-9.54831
茂	-9.54844
座標	-9.54953
イタリア語	-9.55044
任	-9.55056
歌手	-9.55087
62	-9.55112
娘	-9.55119
機関	-9.55156
イベント	-9.55167
雑誌	-9.55221
孫	-9.55231
1973	-9.55302
press	-9.55402
だい	-9.55438
978-4	-9.5551
映像	-9.55606
資料	-9.55819
1977	-9.5584
65	-9.5587
観光	-9.55931
ながら	-9.55997
個人	-9.56007
51	-9.56021
1975	-9.56071
ライン	-9.5626
75	-9.56355
ことを	-9.56369
all	-9.56373
ho	-9.56409
大字	-9.5641
フジテレビ	-9.56411
説	-9.56428
舞台	-9.56482
pe	-9.56509
son	-9.56709
社長	-9.56726
遠	-9.56836
姫	-9.56843
公演	-9.56904
健	-9.56998
トリ	-9.57214
01	-9.57278
bs	-9.5728
ザー	-9.57364
オープン	-9.57393
po	-9.57398
88	-9.57402
ヴェ	-9.5743
漫画	-9.57477
au	-9.57559
ろ	-9.57581
(2005	-9.57699
si	-9.57718
中に	-9.57719
芸術	-9.57784
なし	-9.57799
講談社	-9.57864
近	-9.57953
1971	-9.5803
工	-9.58075
演出	-9.58079
工事	-9.58119
演奏	-9.58127
pro	-9.58184
ーン	-9.58264
07	-9.58278
反	-9.58282
非	-9.58317
1969	-9.58332
府	-9.58338
せい	-9.58352
学者	-9.58408
深	-9.58456
兵庫県	-9.58528
福岡	-9.58642
北部	-9.58653
高橋	-9.58689
決定	-9.58694
ke	-9.58722
頼	-9.58909
帯	-9.58923
独立	-9.58985
sc	-9.59063
他の	-9.59201
学生	-9.59228
図書館	-9.59276
要	-9.59323
コーナー	-9.59464
代目	-9.59544
ニュー	-9.59725
場合	-9.5983
があった	-9.59837
敗	-9.59995
九	-9.60001
chi	-9.60012
若	-9.60029
official	-9.60078
居	-9.60108
沼	-9.6011
学科	-9.60395
構成	-9.60406
異	-9.6041
雨	-9.60427
レー	-9.60525
é	-9.60551
)10	-9.60569
当時の	-9.60702
矢	-9.6076
阿	-9.60768
球	-9.6089
以来	-9.61172
奈	-9.61175
変更	-9.61237
発表	-9.61278
にあたる	-9.61323
09	-9.61372
向	-9.61426
貞	-9.61618
カナダ	-9.61622
ために	-9.61641
car	-9.6175
エンジン	-9.61771
男性	-9.61772
の娘	-9.61782
化学	-9.61787
遊	-9.61891
関東	-9.6196
ハー	-9.61963
99	-9.61963
その他	-9.61967
1889	-9.62074
op	-9.62104
輪	-9.62123
かわ	-9.62123
ru	-9.62168
李	-9.62291
関連	-9.62389
display	-9.62653
指導	-9.62667
しん	-9.62728
清水	-9.62766
のために	-9.62783
完成	-9.62806
63	-9.62837
{	-9.62849
これ	-9.62854
jo	-9.62864
杯	-9.62895
(@	-9.62903
寿	-9.63033
典	-9.63061
契約	-9.63084
すること	-9.63134
になっている	-9.63182
甲	-9.63331
といった	-9.63444
ブラ	-9.6346
300	-9.6354
関西	-9.6371
片	-9.63725
言	-9.63758
善	-9.63813
最高	-9.63816
スタジオ	-9.63884
に対する	-9.64027
質	-9.64066
ve	-9.64092
動物	-9.64095
行政	-9.64165
試験	-9.6417
up	-9.64197
学院	-9.64253
岐阜県	-9.64289
支援	-9.64316
メートル	-9.64371
私	-9.64422
76	-9.64431
学部	-9.64502
最初の	-9.64635
血	-9.64732
フル	-9.64738
ソング	-9.64746
銀	-9.64751
des	-9.64762
取	-9.64822
られ	-9.6491
博物館	-9.64931
69	-9.64981
64	-9.6503
共和国	-9.65082
リリース	-9.65168
sp	-9.6526
電子	-9.65345
酒	-9.65385
テン	-9.6542
バイ	-9.65561
柳	-9.65578
ように	-9.65595
首	-9.65651
1947	-9.65708
オーストラリア	-9.65726
入り	-9.65732
を中心に	-9.65846
%	-9.6585
ノー	-9.65958
mc	-9.6598
ad	-9.65992
ドゥ	-9.66004
ちゃん	-9.66027
増	-9.6603
千葉県	-9.66106
であったが	-9.66144
競技	-9.66152
du	-9.66239
営業	-9.66259
ダイ	-9.66381
張	-9.66527
オール	-9.66548
1968	-9.66597
ヨ	-9.6663
骨	-9.66654
85	-9.66658
06	-9.66799
宇宙	-9.66802
されて	-9.66969
滝	-9.67012
出版社	-9.67019
カード	-9.67023
味	-9.67042
ぐ	-9.67055
ウィ	-9.67088
状態	-9.67103
自然	-9.674
ピアノ	-9.67419
優	-9.6747
料理	-9.67477
1955	-9.67515
98	-9.67518
ワールド	-9.67692
、2007	-9.67693
1954	-9.67706
なかった	-9.67757
クラス	-9.67862
サイ	-9.67908
山口	-9.68114
、2008	-9.68119
魚	-9.68164
国内	-9.68236
ごう	-9.68445
セン	-9.68456
っていた	-9.68537
管	-9.68575
車両	-9.68606
彼は	-9.68771
ミー	-9.6887
ツアー	-9.68902
三郎	-9.68924
ton	-9.68924
制度	-9.6893
ation	-9.68943
79	-9.68984
初の	-9.69128
を受けた	-9.6927
陸軍	-9.6938
を行った	-9.69464
犬	-9.69485
牛	-9.69486
、2010	-9.6949
製品	-9.69498
塚	-9.69502
けん	-9.69513
勝利	-9.69522
ニューヨーク	-9.69529
ユー	-9.69534
宏	-9.69555
藤原	-9.69643
便	-9.69696
展	-9.69919
前に	-9.69943
とし	-9.69966
66	-9.69976
istat	-9.70015
87	-9.70161
旅	-9.70219
像	-9.70278
農	-9.70351
セル	-9.70539
原作	-9.70614
山本	-9.70676
引	-9.70691
王国	-9.70728
業務	-9.70769
枠	-9.7077
hi	-9.70812
参加	-9.70853
国立統計研究所	-9.70883
ガス	-9.70888
野球	-9.70897
などで	-9.71072
land	-9.71086
枚	-9.71109
主演	-9.71168
小林	-9.71174
政策	-9.71205
自由	-9.71274
ホームページ	-9.71305
変	-9.71482
客	-9.71523
68	-9.7154
95	-9.71542
堀	-9.71542
スキー	-9.71559
67	-9.71599
警察署	-9.71602
wa	-9.71765
大阪府	-9.71768
記事	-9.7186
乗	-9.71897
枝	-9.71903
ry	-9.71961
布	-9.7204
年より	-9.72053
千葉	-9.72062
などを	-9.72085
とう	-9.7214
ディー	-9.72168
霊	-9.7222
1956	-9.72226
為	-9.72239
エス	-9.72374
次郎	-9.72415
会長	-9.72427
悪	-9.72431
<	-9.7244
合併	-9.72465
配信	-9.72493
再び	-9.72517
盛	-9.72603
嘉	-9.72694
トラ	-9.7275
97	-9.72799
鶴	-9.72963
走	-9.72979
創立	-9.73023
あるいは	-9.73085
ッツ	-9.73123
、2009	-9.73142
純	-9.73147
観	-9.73197
個	-9.73203
1967	-9.73263
江戸	-9.73315
層	-9.73338
美術館	-9.73364
月から	-9.73378
差	-9.73382
湾	-9.73395
計	-9.73497
録	-9.73525
将軍	-9.73549
78	-9.7355
られている	-9.73561
言語	-9.73581
アナ	-9.73647
人が	-9.73671
lu	-9.73889
les	-9.74076
とき	-9.74081
メディア	-9.7415
ine	-9.74214
農業	-9.74219
シティ	-9.74321
東北	-9.74399
89	-9.74413
専門	-9.74514
vo	-9.74627
田村	-9.74632
共著	-9.74711
ya	-9.74738
伊藤	-9.74773
ロンドン	-9.74795
ローマ	-9.74843
部分	-9.74878
医療	-9.74889
列車	-9.74946
畑	-9.75012
クラ	-9.75065
させる	-9.75129
プロジェクト	-9.75131
住	-9.75139
じょう	-9.75368
されており	-9.75497
400	-9.75547
鹿	-9.75552
持	-9.75583
ベース	-9.75605
ジョ	-9.7567
キン	-9.75861
沖縄	-9.75901
プラ	-9.75924
1945	-9.75931
1960	-9.75939
ブランド	-9.7594
トー	-9.75941
shi	-9.7596
にかけて	-9.76024
解	-9.76067
、2006	-9.76118
ではなく	-9.7619
弟	-9.76513
協力	-9.76564
{{{	-9.76576
ビデオ	-9.76701
へと	-9.76779
旗	-9.76803
ex	-9.76812
市民	-9.76851
市場	-9.76859
1950	-9.76964
トップ	-9.7703
ティー	-9.77053
させた	-9.77159
勢	-9.77188
内容	-9.7719
ところ	-9.77198
であるが	-9.77275
.,	-9.77312
店舗	-9.7735
ことが	-9.77472
ハウス	-9.77479
べ	-9.77497
(2004	-9.77515
梅	-9.7752
当初は	-9.77524
強	-9.77529
裏	-9.77554
キャ	-9.77651
77	-9.77668
メン	-9.77676
ール	-9.77732
ちょう	-9.77736
極	-9.77789
向け	-9.77917
長野県	-9.77939
ックス	-9.7796
おお	-9.78134
仲	-9.78244
部長	-9.78347
fr	-9.78373
ジャン	-9.78427
av	-9.78435
1964	-9.78498
1966	-9.78503
切	-9.78527
1958	-9.78528
よく	-9.78546
リオ	-9.78579
早	-9.78585
人気	-9.78596
96	-9.78701
将	-9.78707
報	-9.7878
最後の	-9.78789
レコード	-9.78837
黄	-9.78875
監修	-9.7889
バージョン	-9.78907
家族	-9.7899
砲	-9.79028
県道	-9.7908
エー	-9.79294
破	-9.79341
1965	-9.79426
国民	-9.79509
デジタル	-9.79513
デル	-9.79546
リスト	-9.79605
緑	-9.79643
クロ	-9.79649
ia	-9.79651
渡辺	-9.79732
務	-9.79732
舞	-9.7996
なる	-9.80097
mar	-9.80167
電気	-9.80198
特	-9.80204
になり	-9.80263
誠	-9.80304
以下の	-9.8037
富士	-9.80444
浩	-9.80447
などが	-9.80615
」、「	-9.80637
冬	-9.80688
za	-9.8069
評価	-9.80699
1948	-9.80745
寛	-9.80765
房	-9.80796
結	-9.80799
公式ウェブサイト	-9.80826
尚	-9.80841
ers	-9.80901
ほ	-9.80977
大きな	-9.80985
茶	-9.81064
提供	-9.8114
速	-9.81175
漢	-9.81233
以後	-9.8131
本社	-9.81337
会員	-9.81347
best	-9.81423
ブルー	-9.81442
なく	-9.81467
ものである	-9.81492
61	-9.81573
意	-9.81645
全日本	-9.81655
、2005	-9.81837
紀元前	-9.81859
:1	-9.81887
起	-9.82017
洞	-9.82159
頃	-9.82174
からは	-9.82179
綱	-9.82297
角川日本地名大辞典	-9.82383
芳	-9.82386
東海	-9.8249
筋	-9.82546
ps	-9.82633
最大	-9.82779
il	-9.82875
静岡県	-9.82935
キャラクター	-9.8297
ドン	-9.83028
大統領	-9.83047
帝国	-9.83066
宇	-9.83202
姓	-9.83204
ワールドカップ	-9.83221
運行	-9.83233
松本	-9.83269
を務める	-9.83374
池田	-9.83394
積	-9.83413
ts	-9.83436
軽	-9.83446
補	-9.83465
共同	-9.83465
付近	-9.83528
視	-9.83708
mer	-9.83733
ショー	-9.83739
sh	-9.83747
ドル	-9.83784
周辺	-9.83808
予定	-9.83813
それぞれ	-9.83852
メーカー	-9.83864
転	-9.83895
ボーカル	-9.83904
university	-9.83953
最終	-9.84034
縁	-9.84191
理論	-9.8429
クス	-9.84315
イー	-9.84478
端	-9.84489
地球	-9.84496
we	-9.84496
reference	-9.84515
塔	-9.84542
ダンス	-9.84546
フォン	-9.84589
配	-9.84594
1962	-9.84627
受賞	-9.84629
1963	-9.84655
編成	-9.84681
ジン	-9.84852
形式	-9.84978
予選	-9.85065
河川	-9.85089
本部	-9.851
議会	-9.85125
須	-9.85146
加藤	-9.85173
いち	-9.85185
茨城県	-9.85219
準	-9.8525
アメリカの	-9.8531
bi	-9.85345
交	-9.85351
ニア	-9.85351
系統	-9.8538
方法	-9.85385
(2003	-9.85515
校舎	-9.85533
ブログ	-9.85586
戦で	-9.85613
doi	-9.85688
ゾ	-9.85696
に改称	-9.85773
鬼	-9.85851
日付	-9.8591
取り	-9.85953
神奈川県	-9.86093
、2012	-9.86154
でもある	-9.86162
たか	-9.8619
1957	-9.86197
ベン	-9.86317
印	-9.86337
ion	-9.8638
オランダ	-9.86433
唐	-9.86449
岸	-9.8648
油	-9.86588
ような	-9.86678
テル	-9.86822
ian	-9.86842
1961	-9.86891
峰	-9.86894
ウス	-9.86916
登	-9.86949
則	-9.86986
パーク	-9.87041
乱	-9.8706
えき	-9.87111
札幌	-9.87128
ゲン	-9.87193
丘	-9.87218
イル	-9.87256
格	-9.87296
1941	-9.87425
連載	-9.87439
法人	-9.87499
アフリカ	-9.87529
敏	-9.87583
令	-9.87589
トル	-9.87608
席	-9.87633
national	-9.8764
連続	-9.87667
しない	-9.87681
少女	-9.87695
地名	-9.87722
様々な	-9.87726
gen	-9.87728
can	-9.87755
star	-9.87764
岳	-9.879
部隊	-9.87975
認定	-9.88033
冠	-9.88054
においては	-9.88071
打	-9.88084
fe	-9.88099
ロス	-9.88168
単	-9.8822
ピー	-9.88224
選挙	-9.88246
西部	-9.88278
!」	-9.88386
ざ	-9.88441
沙	-9.88458
1959	-9.88476
he	-9.8848
、2011	-9.88538
ボー	-9.88559
伯	-9.88614
の地名	-9.88641
身長	-9.88663
祐	-9.8873
н	-9.88742
ケン	-9.88824
保護	-9.88901
低	-9.88901
事故	-9.88905
辺	-9.88998
落	-9.89009
1952	-9.89018
、2000	-9.89049
タイム	-9.89053
海外	-9.89157
1000	-9.89165
輝	-9.89202
バック	-9.89217
委員	-9.89266
素	-9.893
nd	-9.89327
日本では	-9.89532
キング	-9.89585
延	-9.89677
)11	-9.89681
機構	-9.89685
世界選手権	-9.89721
大和	-9.89726
ブリ	-9.89733
red	-9.89779
三重県	-9.89876
石川	-9.90014
後は	-9.90014
敬	-9.90057
機械	-9.9007
ひろ	-9.90115
げ	-9.90365
コーチ	-9.90367
攻撃	-9.9039
翌年	-9.90428
ること	-9.90446
ポイント	-9.90495
テレビ朝日	-9.90512
残	-9.90524
晴	-9.90548
ミニ	-9.90548
まる	-9.9061
ブラジル	-9.90627
ss	-9.90677
ヴァー	-9.9072
新潟県	-9.90747
行き	-9.90757
ほう	-9.90782
何	-9.90789
単位	-9.90794
コル	-9.90833
彼の	-9.9089
酸	-9.90895
値	-9.90906
荘	-9.91021
麻	-9.91073
メイン	-9.91115
1949	-9.91192
新田	-9.91215
、2004	-9.91216
いて	-9.91239
井上	-9.91239
スペシャル	-9.91286
のための	-9.91409
タウン	-9.91475
の選手一覧	-9.91483
年生	-9.91485
彩	-9.91532
本線	-9.91592
の歴史	-9.91611
ゆう	-9.91706
稲	-9.91745
医	-9.91746
引退	-9.91757
名古屋市	-9.91771
古代	-9.91803
全体	-9.91829
朝鮮	-9.91846
1953	-9.91854
生徒	-9.91898
83	-9.91964
演	-9.91987
84	-9.91998
由	-9.92027
そのため	-9.9204
殿	-9.92057
ゆ	-9.92092
ヴァン	-9.92115
ミン	-9.92121
駅前	-9.92204
モー	-9.92267
装置	-9.92274
ライト	-9.92318
伝説	-9.92357
fi	-9.92371
den	-9.92372
よりも	-9.92412
新しい	-9.92416
兄弟	-9.92435
東部	-9.92523
[1]	-9.92532
第三	-9.92569
以下	-9.92657
福島	-9.92721
伸	-9.92735
作曲家	-9.9277
篇	-9.92812
〉	-9.92858
チャンネル	-9.9288
sports	-9.9294
um	-9.92959
歳で	-9.9316
)12	-9.93173
73	-9.93208
共	-9.93343
子供	-9.9339
老	-9.93498
グランプリ	-9.93581
アス	-9.93589
列	-9.93605
講師	-9.93743
福岡県	-9.93795
開設	-9.93812
スク	-9.93877
sch	-9.94019
対応	-9.94022
主題歌	-9.94034
距離	-9.94105
72	-9.94144
allcinema	-9.94188
諸島	-9.94261
専門学校	-9.94298
肉	-9.94302
細	-9.94317
)7	-9.94428
なか	-9.94523
ると	-9.94609
ッド	-9.94659
長崎	-9.94683
密	-9.94745
よし	-9.94772
日本テレビ	-9.94795
成績	-9.94884
専用	-9.94936
近代	-9.95067
大臣	-9.95257
中部	-9.9527
精	-9.95298
1951	-9.95348
時代の	-9.95431
医学	-9.95437
祖	-9.95531
bar	-9.95532
技	-9.95567
、2013	-9.95627
のち	-9.95687
書店	-9.95702
憲	-9.95749
望	-9.95781
シェ	-9.95793
アンド	-9.9589
弁	-9.95905
ション	-9.96104
プレ	-9.9611
月には	-9.96115
time	-9.96166
р	-9.96203
life	-9.96244
フォ	-9.96288
最も	-9.96288
im	-9.96298
毎年	-9.96321
京都府	-9.96342
war	-9.96356
解説	-9.96417
ソロ	-9.96453
с	-9.96541
カラ	-9.96621
峠	-9.96713
に変更	-9.96724
としている	-9.96734
、1990	-9.96736
運用	-9.96739
境	-9.96741
ドイツ語	-9.96745
留	-9.96746
羅	-9.96813
方式	-9.96903
ビジネス	-9.96903
イギリスの	-9.96965
飯	-9.97027
カール	-9.97055
余	-9.97062
ことで	-9.97067
box	-9.97069
オル	-9.97122
率	-9.97128
創	-9.97143
チャー	-9.97219
装	-9.9722
mu	-9.97233
香港	-9.97265
応	-9.973
san	-9.97322
アメリカ合衆国の	-9.9733
希	-9.97348
通称	-9.97368
四国	-9.97374
アップ	-9.97429
レッド	-9.97433
劉	-9.97466
cens	-9.97513
きょう	-9.97518
実施	-9.97599
していたが	-9.97599
ty	-9.97615
ステージ	-9.97677
の中で	-9.97694
太陽	-9.97726
限定	-9.97822
まさ	-9.97883
international	-9.97887
込み	-9.97952
、2014	-9.97968
ウェイ	-9.97981
74	-9.97982
テーマ	-9.97998
−	-9.9802
記載	-9.9802
歩	-9.98049
hp	-9.98051
ju	-9.98081
のような	-9.98116
大型	-9.98132
line	-9.98162
主義	-9.98194
営	-9.98307
ny	-9.98343
ヶ	-9.98347
インターチェンジ	-9.9837
表現	-9.9841
初めて	-9.98445
壁	-9.98473
牧	-9.98481
桂	-9.98519
宣	-9.98541
幅	-9.98556
陣	-9.98567
を行い	-9.98587
言葉	-9.98604
チン	-9.98629
フォー	-9.9867
シア	-9.98766
ロシア語	-9.98784
グラ	-9.98796
知事	-9.98854
流れ	-9.98924
商品	-9.99038
ラブ	-9.99065
セット	-9.99076
結婚	-9.99107
タレント	-9.99137
自治体	-9.99172
ポジションは	-9.99188
様	-9.99203
のように	-9.99262
難	-9.99343
対象	-9.99382
こともある	-9.9943
主人公	-9.99459
しい	-9.99655
*	-9.99802
cc	-9.99884
中山	-9.9991
児	-9.99962
市長	-10.0003
画家	-10.0008
ロード	-10.001
顔	-10.0011
だったが	-10.0017
勇	-10.0028
東洋	-10.0031
戦後	-10.0037
オーストリア	-10.0037
ユニット	-10.0039
仙台	-10.004
かつ	-10.0048
ji	-10.0053
ップ	-10.0056
剤	-10.0067
食品	-10.0067
リス	-10.0071
使	-10.0072
シル	-10.0079
程度	-10.0079
カバー	-10.0079
リンク切れ	-10.0082
歯	-10.0085
紅	-10.0085
ボン	-10.0092
える	-10.0097
インタビュー	-10.0099
日本人	-10.0099
開校	-10.0101
大使	-10.0102
新潟	-10.0112
ラム	-10.0112
ポーランド	-10.0114
株	-10.0115
ことがある	-10.0126
主な	-10.0131
(2002	-10.0131
亜	-10.0134
ポン	-10.0148
本作	-10.0149
しか	-10.0154
具	-10.0156
トラック	-10.016
けい	-10.0161
飛行	-10.0165
、2003	-10.0176
がいる	-10.0178
が多い	-10.0186
網	-10.019
トンネル	-10.0192
ーズ	-10.0196
内に	-10.0216
her	-10.0221
刑事	-10.0221
プロフィール	-10.0222
ファー	-10.0222
陸	-10.0223
パラ	-10.0227
ナイト	-10.0235
舎	-10.0235
グリ	-10.0237
効果	-10.0238
翼	-10.0238
1943	-10.0244
したもの	-10.0246
弥	-10.0248
ろう	-10.0252
区域	-10.0258
テレビドラマ	-10.0258
、2001	-10.0261
io	-10.0268
ジャー	-10.0272
児童	-10.0274
岡山	-10.0275
砂	-10.0278
市内	-10.028
を指す	-10.0281
もと	-10.0291
退	-10.0296
site	-10.0296
グル	-10.0297
ノン	-10.03
1944	-10.0301
国鉄	-10.0302
を意味する	-10.0308
礼	-10.031
させ	-10.0312
ベイ	-10.0315
によると	-10.0319
ポール	-10.0322
番地	-10.0324
men	-10.0335
のひとつ	-10.0339
フランス語	-10.0349
徒歩	-10.0363
α	-10.0365
ヴォ	-10.037
day	-10.0376
и	-10.0376
健康	-10.038
急	-10.0381
に対し	-10.0383
回戦	-10.0383
反応	-10.0383
住宅	-10.0386
中心	-10.0386
投手	-10.0388
sen	-10.0394
敵	-10.0395
ランキング	-10.0401
中野	-10.0406
ネットワーク	-10.0415
94	-10.0418
に就任	-10.0429
」『	-10.0429
杉	-10.0429
、2002	-10.0432
防衛	-10.0435
普通	-10.0436
市にある	-10.0437
域	-10.044
殺	-10.0443
まち	-10.0446
を行っている	-10.0448
続	-10.045
要出典	-10.045
va	-10.0452
したため	-10.0453
離	-10.0458
するが	-10.0462
博士	-10.0463
圏	-10.0466
同社	-10.0466
住民	-10.0472
米国	-10.0476
(2001	-10.0477
参	-10.048
を結ぶ	-10.0482
受	-10.0485
枚目のシングル	-10.0486
メル	-10.0492
マーク	-10.0497
実験	-10.0511
ci	-10.0515
あい	-10.0515
静	-10.0516
伊勢	-10.0517
地元	-10.0519
バラ	-10.0523
out	-10.0527
エイ	-10.0529
統計	-10.0529
イングランド	-10.0533
展開	-10.0535
history	-10.0546
ケイ	-10.0548
穴	-10.0549
休	-10.0553
温	-10.0562
賢	-10.0575
と同じ	-10.0589
最	-10.0592
に属する	-10.0594
初期	-10.0598
バイパス	-10.0601
シャー	-10.0606
断	-10.0608
スクール	-10.061
展示	-10.0611
コード	-10.0628
通算	-10.063
西日本	-10.0633
ap	-10.0638
ナン	-10.0644
!』	-10.0649
ゴー	-10.0654
番号	-10.0664
uk	-10.0666
得点	-10.0672
テレ	-10.0673
状況	-10.068
タル	-10.0687
連邦	-10.0688
連合	-10.069
fifa	-10.0691
筆	-10.0693
解散	-10.07
岡山県	-10.0701
衣	-10.0702
日本代表	-10.0706
かった	-10.0709
クル	-10.0709
幼稚園	-10.0711
部屋	-10.0716
群馬県	-10.0723
宗教	-10.0725
月まで	-10.0727
付き	-10.0729
本名	-10.0734
東日本	-10.0736
ten	-10.0738
等の	-10.0746
太田	-10.0747
木村	-10.0748
スウェーデン	-10.0753
焼	-10.0758
tu	-10.0761
福島県	-10.0764
基本	-10.0764
競馬	-10.0765
送	-10.0774
bu	-10.0775
吾	-10.0776
art	-10.0782
いずれも	-10.0783
cha	-10.0786
与	-10.0792
1946	-10.0792
yu	-10.0793
一方	-10.0795
800	-10.0795
剣	-10.0797
推進	-10.0799
iv	-10.0802
ジュニア	-10.0803
症	-10.0804
大橋	-10.0804
仙	-10.0805
広島県	-10.0806
なり	-10.0808
ze	-10.0811
未来	-10.0811
’	-10.0815
.;	-10.0816
議	-10.0819
海岸	-10.0823
可	-10.0829
位置	-10.0832
imento	-10.0839
八幡	-10.0845
数は	-10.0846
を設立	-10.0847
アート	-10.0847
陵	-10.0849
付け	-10.0862
鹿児島県	-10.0868
税	-10.0885
圧	-10.0885
接	-10.0888
題	-10.0892
沖	-10.0897
営業所	-10.0898
呉	-10.0898
本人	-10.0908
baseball	-10.0919
嶋	-10.0919
自動車道	-10.0922
air	-10.0925
pi	-10.0929
彼	-10.0932
賞受賞	-10.0935
延長	-10.0936
暦	-10.0938
デー	-10.0938
ol	-10.0939
ant	-10.0944
レギュラー	-10.0953
教室	-10.0958
にあり	-10.0967
民族	-10.0969
指	-10.0969
んで	-10.0974
服	-10.098
中継	-10.0983
柄	-10.099
ソフト	-10.0991
ワイ	-10.0994
プロデュース	-10.0994
city	-10.1
土地	-10.1002
tokyo	-10.1002
特徴	-10.1007
表示	-10.1007
蓮	-10.1008
■	-10.1009
—	-10.1011
野村	-10.1012
集団	-10.1015
菜	-10.1017
照	-10.1018
cl	-10.1018
主催	-10.1028
陳	-10.1031
1940	-10.1034
期間	-10.1038
○	-10.1047
自ら	-10.1054
super	-10.1067
age	-10.1068
で開催された	-10.1068
などに	-10.107
兵衛	-10.1072
ec	-10.1072
books	-10.1076
宮城県	-10.1079
万円	-10.1081
秋田	-10.1083
情	-10.1085
晋	-10.1085
ッシュ	-10.109
グリーン	-10.1097
オス	-10.1097
するため	-10.1102
分野	-10.1103
折	-10.1111
死去	-10.1113
list	-10.1116
録音	-10.1125
don	-10.1128
競走	-10.1136
マリ	-10.1136
アーティスト	-10.1141
防	-10.1142
小学館	-10.1143
トロ	-10.1144
ber	-10.1149
分類	-10.1156
ヤン	-10.1159
術	-10.116
в	-10.1165
ペン	-10.1175
mix	-10.1186
tri	-10.1192
衛	-10.1193
結成	-10.1197
ir	-10.1203
を務め	-10.1205
を受ける	-10.1209
理由	-10.1212
条約	-10.1217
軍事	-10.1221
額	-10.1221
工学	-10.1227
ます	-10.1229
ヘル	-10.1235
報告	-10.1238
dettaglio	-10.1241
tavola	-10.1242
の戦い	-10.1242
革命	-10.1244
閲覧	-10.1247
種類	-10.125
潮	-10.1252
tic	-10.1261
玄	-10.1274
熊本	-10.1283
福祉	-10.1284
アリ	-10.1288
の一覧	-10.129
売	-10.1298
ゲスト	-10.1301
デイ	-10.1305
プリ	-10.1306
材	-10.1306
レット	-10.1307
生物	-10.1308
官報	-10.1313
交流	-10.1314
項	-10.1315
中世	-10.1316
妙	-10.1317
宮崎	-10.1317
朝日	-10.1322
とされている	-10.1323
息子	-10.1324
穂	-10.1325
放送局	-10.1325
芝	-10.1326
ッチ	-10.1331
行動	-10.1332
政治家	-10.1344
まり	-10.1346
ビン	-10.1348
注	-10.1357
が多く	-10.1362
統合	-10.1365
脇	-10.1366
前作	-10.1372
際	-10.1374
上野	-10.1375
サル	-10.1376
輸送	-10.138
標高	-10.1381
邦	-10.1382
細胞	-10.1384
称	-10.1385
略	-10.1387
名称	-10.1388
能力	-10.1388
飛	-10.1394
アカデミー	-10.1398
時期	-10.14
異なる	-10.1407
長さ	-10.1416
芸	-10.1418
観測	-10.142
研究会	-10.1423
追	-10.1425
フィー	-10.1427
150	-10.1428
dj	-10.1443
尊	-10.1443
ドー	-10.1444
und	-10.1447
寄	-10.1447
ph	-10.1454
平和	-10.1454
地下鉄	-10.1454
日には	-10.1458
マリア	-10.1466
地下	-10.1466
プレイ	-10.147
共編	-10.147
高い	-10.1471
運転	-10.1473
hu	-10.1474
を受けて	-10.1475
移転	-10.1477
ner	-10.1478
参照	-10.1478
、2016	-10.1489
セイ	-10.1493
01.”	-10.1493
ment	-10.1495
ジョージ	-10.1496
ger	-10.1497
1920	-10.1501
核	-10.1501
報道	-10.1502
専攻	-10.1505
レーベル	-10.1507
月刊	-10.1508
近く	-10.1509
作戦	-10.1512
これを	-10.1515
に生まれる	-10.1516
没	-10.1519
乳	-10.1521
コンピュータ	-10.1524
john	-10.1528
rd	-10.153
ファイル	-10.1532
日時点のオリジナルよりアーカイブ	-10.1532
竣工	-10.1534
建物	-10.1539
文書	-10.1539
ab	-10.1543
ボル	-10.1549
!(	-10.1551
、2015	-10.1553
組合	-10.1564
活躍	-10.1566
á	-10.1571
取締役	-10.158
ドラ	-10.1582
1942	-10.1585
テレビ東京	-10.1585
法律	-10.1589
藩主	-10.1591
商業	-10.1595
同時に	-10.1595
鹿児島	-10.1599
ディア	-10.1599
乃	-10.1612
によれば	-10.1623
スタッフ	-10.1623
スタジアム	-10.1626
とその	-10.1631
功	-10.1632
亮	-10.164
version	-10.1644
mon	-10.1646
たが	-10.165
うち	-10.1651
労働	-10.1659
大野	-10.1672
読み	-10.1674
カリ	-10.1676
王座	-10.1682
熊	-10.1687
ダル	-10.169
案内	-10.1691
しりつ	-10.1703
スイス	-10.1708
pr	-10.1708
散	-10.1711
姉	-10.1718
熊本県	-10.172
iii	-10.1725
貨物	-10.1725
歌詞	-10.1732
je	-10.1735
就任	-10.1737
僧	-10.1739
ホー	-10.1741
劇	-10.1741
で行われた	-10.1741
持ち	-10.1746
設定	-10.1753
パス	-10.1754
卒	-10.1756
されていない	-10.1767
之助	-10.1768
障害	-10.1772
いい	-10.1779
93	-10.1789
中学	-10.1794
刀	-10.1799
que	-10.1799
pc	-10.1801
青森県	-10.1802
面積	-10.1809
条件	-10.1811
発生	-10.1813
発見	-10.1818
かつては	-10.1818
きた	-10.182
die	-10.1827
に収録	-10.1827
逆	-10.183
罪	-10.1834
1,	-10.1845
rock	-10.1847
エネルギー	-10.1848
ds	-10.1854
クリ	-10.1858
静岡	-10.1862
基準	-10.1862
コミック	-10.1863
全長	-10.1872
軌道	-10.1872
ken	-10.1879
連絡	-10.1884
経験	-10.1885
奈良	-10.1887
譲	-10.1894
oh	-10.1895
に参加	-10.1897
規定	-10.19
処理	-10.1904
ミス	-10.1904
内で	-10.1905
すべて	-10.1909
中国語	-10.1909
降	-10.1911
ボール	-10.1914
ステークス	-10.1915
変化	-10.1918
ウィリアム	-10.1921
に由来する	-10.1921
助教授	-10.1922
82	-10.1941
ほぼ	-10.1943
セント	-10.1946
website	-10.1948
設備	-10.1952
end	-10.1954
しゃ	-10.1954
メイ	-10.1961
パル	-10.1962
臣	-10.1967
ンズ	-10.1972
眼	-10.1979
先生	-10.1981
妹	-10.1982
政権	-10.1993
)9	-10.1996
作業	-10.2002
聞	-10.2005
岐阜	-10.2016
はない	-10.2019
案	-10.2023
廃	-10.2025
軸	-10.2026
ヴェル	-10.2028
棟	-10.2029
人々	-10.203
思想	-10.203
魔	-10.2035
脳	-10.2037
エア	-10.2045
ブラック	-10.2047
クレ	-10.2048
得	-10.2052
しま	-10.2053
ぬ	-10.2055
終	-10.2065
昇	-10.2066
なら	-10.2069
斉	-10.207
平均	-10.207
中島	-10.2071
記述	-10.2072
アイドル	-10.2075
1939	-10.2078
炎	-10.2089
ist	-10.2092
コンサート	-10.2094
スペイン語	-10.2094
事典	-10.2101
他に	-10.2104
が行われた	-10.2108
支	-10.2108
つき	-10.2116
cy	-10.2116
至	-10.2117
ガル	-10.212
デュ	-10.212
т	-10.2126
改革	-10.2134
che	-10.214
駅から	-10.2142
発足	-10.2145
600	-10.2149
覚	-10.2152
独	-10.2157
柱	-10.2158
デス	-10.2163
マッ	-10.2166
ai	-10.2168
gu	-10.2169
タイプ	-10.2173
ck	-10.2175
ディレクター	-10.2175
青年	-10.2177
姿	-10.2179
全て	-10.218
移籍	-10.2184
遺跡	-10.2186
ネス	-10.2188
用語	-10.219
登場	-10.219
費	-10.2191
影	-10.2193
市川	-10.2199
出し	-10.2201
会場	-10.2207
大分県	-10.2209
ica	-10.2213
哲	-10.2213
直接	-10.2216
できない	-10.2216
途中	-10.2225
メキシコ	-10.2226
アラ	-10.2228
弁護士	-10.2229
大賞	-10.2232
イオン	-10.2234
地図	-10.2237
フォード	-10.2246
山形県	-10.2246
ley	-10.2252
チュ	-10.2256
そのまま	-10.2256
res	-10.2259
哲学	-10.2263
誕生	-10.2268
dr	-10.2271
氷	-10.2275
存在	-10.2277
寺院	-10.2278
安全	-10.2281
享年	-10.2282
旅行	-10.2285
ana	-10.2289
カイ	-10.2294
傷	-10.2298
がわ	-10.2303
zo	-10.2303
分校	-10.2308
小さな	-10.231
ニン	-10.2316
ソー	-10.2317
(2000	-10.2317
ent	-10.232
ham	-10.2321
議員	-10.2324
庭	-10.2328
top	-10.2329
上で	-10.2333
)8	-10.2336
ものの	-10.2339
をもって	-10.234
栃木県	-10.2348
小型	-10.2354
週刊	-10.2355
統一	-10.2356
早稲田大学	-10.2359
[4	-10.2361
小野	-10.2361
ms	-10.237
ケー	-10.237
youtube	-10.2372
高さ	-10.2373
ピン	-10.2377
ラス	-10.2378
カラー	-10.2384
対策	-10.2385
dy	-10.2389
ソ連	-10.2395
、1989	-10.2397
tr	-10.24
del	-10.2401
広場	-10.2402
これらの	-10.2403
角川書店	-10.2404
斎	-10.2409
イラスト	-10.2409
ft	-10.2417
大学院	-10.2421
フィールド	-10.2423
』『	-10.2441
指揮	-10.2448
同盟	-10.2448
交換	-10.245
奇	-10.2453
ゆき	-10.2454
ではない	-10.2456
内閣	-10.2457
ユース	-10.2459
大阪市	-10.2464
高田	-10.2465
するために	-10.247
ナイ	-10.247
せず	-10.2471
尻	-10.2475
市役所	-10.248
鏡	-10.2483
運	-10.2486
剛	-10.2487
の楽曲	-10.2488
online	-10.2488
tour	-10.2489
脱	-10.2491
精神	-10.2492
ルイ	-10.2492
演劇	-10.2497
環	-10.2499
駒	-10.2499
ag	-10.2503
相手	-10.2503
支部	-10.2503
首相	-10.2505
資格	-10.2507
場合は	-10.2511
1930	-10.2511
google	-10.2512
坊	-10.2514
instrumental	-10.2516
浅	-10.2518
、1994	-10.2519
、1995	-10.2521
合成	-10.2526
岩手県	-10.2528
重要な	-10.2529
に移籍	-10.253
國	-10.2542
創業	-10.2543
沖縄県	-10.2551
啓	-10.2557
iso	-10.2559
支配	-10.2561
出典	-10.2562
当駅	-10.2564
納	-10.2565
を設置	-10.257
ライフ	-10.2573
少	-10.2577
劇団	-10.2577
徳島	-10.2582
‐	-10.2586
ペル	-10.2589
』、『	-10.2592
tra	-10.2598
1927	-10.26
ポー	-10.2602
もしくは	-10.2611
開通	-10.2612
(*	-10.2614
プル	-10.2615
当初	-10.2616
180	-10.2616
uefa	-10.2619
護	-10.2621
料	-10.2621
カメラ	-10.2625
候補	-10.2638
を持ち	-10.2639
マス	-10.2639
ブー	-10.2641
マガジン	-10.2642
はこの	-10.2644
半島	-10.2647
ll	-10.2648
ポリ	-10.2648
、1996	-10.2649
1936	-10.265
ことが多い	-10.2657
完全	-10.266
ング	-10.2661
移動	-10.2663
引き	-10.2666
92	-10.2677
日記	-10.2681
庄	-10.2681
ていたが	-10.2682
選出	-10.2692
山形	-10.2693
教師	-10.2693
あき	-10.2694
おか	-10.2701
梨	-10.2703
成立	-10.2707
金沢	-10.2712
トレ	-10.2712
行われた	-10.2712
名を	-10.2714
自身の	-10.2718
フラ	-10.2719
桃	-10.2724
遺	-10.2725
lin	-10.2732
スタイル	-10.2743
american	-10.2747
射	-10.2747
サイド	-10.2755
失	-10.2758
ジャック	-10.2758
です	-10.2765
おり	-10.2767
決勝	-10.277
facebook	-10.2773
club	-10.2774
蘭	-10.2774
割	-10.2777
虎	-10.2777
以上の	-10.2779
モスクワ	-10.278
放	-10.278
ジャケット	-10.2787
皮	-10.2795
county	-10.2809
を除く	-10.2812
、1998	-10.2815
高速	-10.2819
ント	-10.2833
同じく	-10.2834
バレーボール	-10.2836
が存在する	-10.2837
佳	-10.2846
書院	-10.2846
sk	-10.285
考え	-10.2857
声優	-10.2859
五郎	-10.286
亀	-10.287
週	-10.287
形態	-10.287
研	-10.2871
発展	-10.2875
訓練	-10.2876
wi	-10.2878
改	-10.288
徳島県	-10.2887
前田	-10.2888
の研究	-10.2888
新聞社	-10.289
愛媛県	-10.2892
ler	-10.2894
接続	-10.2898
у	-10.2899
欧州	-10.2917
に登場する	-10.2917
れる	-10.2925
荒	-10.2926
浮	-10.2927
を示す	-10.2927
神経	-10.2935
までは	-10.2936
120	-10.294
河内	-10.2941
コムーネ	-10.2942
標準	-10.2943
猫	-10.2944
night	-10.2948
ヴァル	-10.2949
、1992	-10.2949
川崎	-10.295
村上	-10.2951
消防	-10.2952
基地	-10.2956
倍	-10.2958
81	-10.296
如	-10.2962
я	-10.2968
1926	-10.2979
妃	-10.2982
article	-10.2984
鳴	-10.2984
目的	-10.299
山梨県	-10.2991
床	-10.2993
過	-10.2995
records	-10.2997
ベルリン	-10.2998
育成	-10.2998
000	-10.3001
さい	-10.3002
広く	-10.3003
復帰	-10.3011
1925	-10.3013
政党	-10.3016
クー	-10.3017
不明	-10.3025
柔道	-10.3026
自分	-10.3028
ミル	-10.3028
旭	-10.3031
高速道路	-10.3033
上海	-10.3035
と改称	-10.3038
1937	-10.3041
のこと	-10.3044
ようになった	-10.3053
、1999	-10.3054
叢書	-10.3056
ドリ	-10.3058
同日	-10.3059
ジョー	-10.3064
糸	-10.3066
、1997	-10.3067
徹	-10.3076
к	-10.3076
1923	-10.3082
シャン	-10.3085
養	-10.3085
山口県	-10.3088
もあり	-10.309
寧	-10.3096
em	-10.3097
厚	-10.3099
°	-10.31
としても	-10.31
sex	-10.31
、1993	-10.3101
ゲル	-10.3105
van	-10.3107
エリア	-10.3108
仏教	-10.311
ak	-10.3112
講座	-10.3112
а	-10.3113
コレクション	-10.3114
原題	-10.3114
。2010	-10.3116
ブレ	-10.3121
名義	-10.3122
ことができる	-10.3124
連隊	-10.3129
二人	-10.3133
敷	-10.3133
上に	-10.3133
のお知らせ	-10.3136
選手権大会	-10.3137
理事長	-10.3139
ハル	-10.3146
刊	-10.3152
もう	-10.3154
那	-10.3157
恩	-10.3162
ぼ	-10.3165
始	-10.3169
雑	-10.3171
空間	-10.3172
over	-10.3174
貫	-10.3175
にして	-10.3175
ul	-10.3178
sha	-10.3182
かな	-10.3183
するなど	-10.3187
天正	-10.3192
に移転	-10.3198
強い	-10.3203
プロダクション	-10.3206
北京	-10.3207
可能	-10.3218
養子	-10.3225
戦闘	-10.323
地震	-10.3233
秋田県	-10.3234
以外の	-10.3234
治療	-10.3236
football	-10.3236
長男	-10.3238
pv	-10.3242
トム	-10.3243
果	-10.3248
高等	-10.3251
成長	-10.3256
ns	-10.3258
名誉教授	-10.3263
入門	-10.3264
投	-10.3266
駐車場	-10.3267
yo	-10.3267
ウル	-10.3267
ゴルフ	-10.3268
小川	-10.3273
洲	-10.3274
輔	-10.3278
辻	-10.328
翻訳	-10.328
を発表	-10.3281
皇	-10.3283
史上	-10.3285
しょうがっこう	-10.3293
とも呼ばれる	-10.3293
かず	-10.3299
栗	-10.3302
ハート	-10.3307
プール	-10.3315
blue	-10.3315
新宿	-10.3319
論文	-10.3324
和田	-10.3328
cho	-10.3328
別名	-10.3332
冷	-10.3341
オリ	-10.3341
金曜	-10.3344
機器	-10.3347
スタン	-10.3352
ウェ	-10.3356
分析	-10.3359
平凡社	-10.3361
バスケットボール	-10.3365
inc	-10.3367
й	-10.3367
を開始	-10.337
減	-10.3374
クロス	-10.3375
者が	-10.338
ヤング	-10.3382
page	-10.3383
僕	-10.3384
者は	-10.3387
笠	-10.339
ザン	-10.3391
太平洋	-10.3392
塾	-10.3393
浪	-10.3394
刊行	-10.3396
population	-10.3398
長い	-10.3406
人口は	-10.3406
体育	-10.3411
チャン	-10.3413
コール	-10.3413
pre	-10.3416
許	-10.3416
census	-10.3419
journal	-10.3431
準優勝	-10.3436
9784	-10.344
佐々木	-10.3441
市出身	-10.3442
事務	-10.3443
リュ	-10.3443
ヒット	-10.3455
york	-10.3458
ソフトウェア	-10.3459
淳	-10.346
、1980	-10.3462
所在地	-10.3463
時には	-10.3463
村立	-10.3467
スル	-10.3467
大きく	-10.3468
ina	-10.3471
獲得	-10.3473
けんどう	-10.3474
times	-10.3476
助手	-10.3488
丁	-10.3488
長野	-10.3488
していない	-10.3491
ポート	-10.3492
恒	-10.3498
ser	-10.35
ネル	-10.3506
_{	-10.3508
秘	-10.351
中華人民共和国	-10.3513
あなた	-10.3514
に入り	-10.3516
ルート	-10.352
ほとんど	-10.3537
投票	-10.3537
勝ち	-10.3537
姉妹	-10.3539
スタート	-10.354
ntt	-10.3546
闘	-10.3547
てきた	-10.3549
ショ	-10.355
拠点	-10.3557
紫	-10.3562
united	-10.3564
朗	-10.3565
ステ	-10.3569
一人	-10.357
本町	-10.3572
時点で	-10.3574
700	-10.3574
br	-10.3575
ネー	-10.3577
家庭	-10.3577
派遣	-10.3582
キリスト教	-10.3585
バス停	-10.3593
160	-10.3593
奏	-10.3594
短	-10.3595
方向	-10.3596
250	-10.3599
検	-10.36
archive	-10.3603
1934	-10.3604
主要	-10.3608
保険	-10.3608
更新	-10.3611
〉、	-10.3613
墓	-10.3614
卒業後	-10.3615
をする	-10.3617
profile	-10.362
ie	-10.3623
仕様	-10.3623
呂	-10.3625
被	-10.3625
プログラム	-10.3628
奈良県	-10.3628
腕	-10.3629
gar	-10.363
各種	-10.3631
テニス	-10.3634
違い	-10.3634
、1991	-10.3637
秦	-10.3644
価	-10.3649
スコ	-10.365
思	-10.3653
従	-10.3656
ーナ	-10.3657
承	-10.3658
電話	-10.3658
電力	-10.3659
幕	-10.3666
県の県道一覧	-10.3666
掲載	-10.367
1938	-10.3671
説明	-10.3674
トーク	-10.3681
益	-10.3683
さき	-10.3685
愛知	-10.3689
体制	-10.3695
1922	-10.3701
金属	-10.3704
子会社	-10.371
179	-10.3712
通常	-10.3713
虫	-10.3719
隣	-10.3719
入れ	-10.3726
bra	-10.3732
取得	-10.3734
からなる	-10.3735
キャスター	-10.374
ゴール	-10.374
男女	-10.3741
臨	-10.3746
ウェル	-10.3747
ガイド	-10.3749
と呼ぶ	-10.375
銃	-10.3751
錦	-10.3752
石川県	-10.3753
呼	-10.3754
辞典	-10.3757
皇帝	-10.3758
理事	-10.3758
ate	-10.3766
ben	-10.3768
形で	-10.3768
の息子	-10.3781
地上	-10.3782
ィ	-10.3783
季	-10.3787
ガール	-10.379
ベトナム	-10.3793
ヒル	-10.3796
評	-10.3798
当選	-10.3798
ster	-10.3802
有名	-10.3802
ツァ	-10.3805
舟	-10.3814
普及	-10.3819
福井	-10.3824
うた	-10.3825
2}}}	-10.3827
、1988	-10.3828
val	-10.383
物質	-10.3834
kinenote	-10.3835
侯	-10.3835
キュ	-10.3837
その後は	-10.3846
ut	-10.3848
0%	-10.3859
南西	-10.3861
高山	-10.3865
〒	-10.3866
ウィン	-10.3867
back	-10.3875
tor	-10.3878
マイケル	-10.3879
ロバート	-10.388
を取り	-10.3884
ッカー	-10.3886
無料	-10.3888
絶	-10.3897
朝日新聞	-10.3898
衆	-10.3899
教え	-10.3899
mlb	-10.3902
給	-10.3902
後期	-10.3903
クト	-10.391
1935	-10.3916
帰	-10.3918
チョ	-10.3921
bc	-10.3921
軒	-10.3923
(1999	-10.3923
way	-10.3924
off	-10.3933
富山	-10.3934
夕	-10.3934
まつ	-10.3936
などがある	-10.3936
並	-10.3939
歴代	-10.3942
ng	-10.3948
保存	-10.395
ゴン	-10.3951
fu	-10.3956
菊	-10.3957
ハンガリー	-10.3957
導入	-10.3958
亭	-10.3962
哉	-10.3966
全域	-10.3968
サム	-10.3972
新たに	-10.3976
なん	-10.3977
sun	-10.3978
共訳	-10.3981
est	-10.3982
拡大	-10.3983
てん	-10.3985
tan	-10.3991
停車場線	-10.4003
、1987	-10.4019
貴族	-10.402
カス	-10.4022
顧問	-10.4023
cal	-10.4029
71	-10.403
リンク	-10.4035
電鉄	-10.4037
はその	-10.404
高知	-10.4049
★	-10.405
、1986	-10.4052
立ち	-10.4053
人民	-10.4054
切り	-10.4056
山崎	-10.4057
万人	-10.4062
チャンピオン	-10.4063
岩波書店	-10.4067
tion	-10.4072
系列	-10.4076
大学教授	-10.4076
父親	-10.4081
mac	-10.4085
ソニー	-10.4085
サラ	-10.4085
備	-10.4093
一丁目	-10.4095
名が	-10.41
すぐ	-10.4107
広告	-10.4111
富山県	-10.4116
フレ	-10.4121
朱	-10.4122
彼女	-10.4127
晃	-10.413
分離	-10.413
土曜	-10.4132
ベー	-10.4137
1921	-10.4141
tro	-10.4153
if	-10.4155
1932	-10.4155
松山	-10.4158
の廃止市町村一覧	-10.416
かみ	-10.4161
収録曲	-10.4165
時代に	-10.4165
video	-10.4168
艇	-10.4171
書き	-10.4172
冊	-10.4175
克	-10.4179
大陸	-10.418
梁	-10.4185
170	-10.4186
win	-10.4188
局長	-10.4195
オフ	-10.4196
橋本	-10.4196
週間	-10.4196
師団	-10.4197
学習	-10.4203
広報	-10.4203
西経	-10.4209
nu	-10.4212
bl	-10.4216
king	-10.4216
サポート	-10.4216
済	-10.4218
になって	-10.4218
和歌山県	-10.4226
仕事	-10.4228
日現在	-10.4231
ker	-10.4235
アク	-10.4239
lan	-10.4243
丹	-10.4244
短期大学	-10.425
王子	-10.4253
公立	-10.4253
作成	-10.4254
執筆	-10.4255
を流れる	-10.4256
1918	-10.4257
》	-10.4257
インター	-10.4268
弟子	-10.4271
zi	-10.4277
《	-10.4278
検査	-10.4287
当時は	-10.4287
プロ野球	-10.4289
さくら	-10.429
入社	-10.4292
ブロック	-10.4295
ビッグ	-10.4296
右衛門	-10.4297
data	-10.4299
初出場	-10.4302
名誉	-10.4303
全集	-10.4303
人生	-10.4307
あった	-10.431
mr	-10.4311
オンライン	-10.4312
マク	-10.4317
book	-10.4317
php	-10.4317
体重	-10.4317
想	-10.4319
仕	-10.4321
ren	-10.4323
から発売された	-10.4324
ray	-10.4324
職員	-10.4327
そこで	-10.4327
ラグビー	-10.4327
念	-10.4328
д	-10.4328
回転	-10.4331
のちに	-10.4332
田町	-10.4333
織	-10.4334
雷	-10.4336
車線	-10.4339
を見	-10.434
もり	-10.434
ともに	-10.4343
道の駅	-10.4344
医師	-10.4349
侍	-10.435
1928	-10.4352
ブロ	-10.4353
券	-10.4353
スカ	-10.4353
衛星	-10.4363
おう	-10.4365
総務省	-10.4366
となって	-10.4367
フー	-10.4369
長崎県	-10.4376
グロ	-10.4378
唯一の	-10.4379
sta	-10.4381
上田	-10.4388
選抜	-10.4395
1}}}	-10.44
腹	-10.4401
の一人	-10.4407
株式	-10.4408
れた	-10.4409
139	-10.441
スペース	-10.4411
くん	-10.4413
に本社を置く	-10.4416
共通	-10.4416
に所在	-10.442
談	-10.4423
示	-10.4428
1929	-10.4428
イヤー	-10.4429
阪	-10.4434
分子	-10.4439
夫人	-10.4439
シス	-10.4446
下車	-10.4454
min	-10.4455
最大の	-10.4457
基礎	-10.4463
まま	-10.4463
課長	-10.4467
川町	-10.4475
内部	-10.4477
速度	-10.4478
rs	-10.4483
受け	-10.4484
領域	-10.4486
ラル	-10.4491
har	-10.4492
中継局	-10.4494
創設	-10.4496
出身の人物一覧	-10.4501
コロ	-10.4503
学術	-10.4505
ヨン	-10.4509
限	-10.451
ただ	-10.4511
をしている	-10.4514
ベルギー	-10.4514
1900	-10.4515
置	-10.4516
魂	-10.453
、1981	-10.4533
1933	-10.4538
1924	-10.4543
高松	-10.4544
体験	-10.4548
ストーリー	-10.4549
収	-10.4556
ang	-10.4569
大分	-10.457
銅	-10.4572
inter	-10.4574
加入	-10.4575
苦	-10.4575
ジャンプ	-10.4577
part	-10.4578
リュー	-10.4578
ヴィン	-10.4582
菌	-10.4583
駅舎	-10.4584
金融	-10.4585
database	-10.4587
sky	-10.4589
行為	-10.4589
容	-10.4591
枚目	-10.4592
柏	-10.4592
ブック	-10.4593
経済学	-10.4593
西側	-10.4594
づ	-10.4596
確認	-10.4614
脚	-10.4619
祖父	-10.4621
エンディングテーマ	-10.4631
イメージ	-10.4631
鷹	-10.4633
髪	-10.4642
福井県	-10.4643
ドイツの	-10.4643
昇格	-10.4646
、1982	-10.465
シーン	-10.4658
つく	-10.466
略称	-10.4663
就	-10.4665
、1984	-10.467
平野	-10.467
(1998	-10.4676
м	-10.4677
文芸	-10.4677
石井	-10.4678
共演	-10.4679
由来	-10.4681
テレビアニメ	-10.4683
ep	-10.4688
gp	-10.469
町にある	-10.4691
快	-10.4709
オフィス	-10.4717
英国	-10.4717
high	-10.4728
再生	-10.4729
戦略	-10.4729
改正	-10.4729
sur	-10.4731
リック	-10.4733
例えば	-10.4734
と考えられている	-10.4736
ミュージシャン	-10.4739
を担当	-10.4739
ソウル	-10.4745
しょ	-10.4747
の中心	-10.4749
オペラ	-10.4749
学校法人	-10.4751
中川	-10.4753
メール	-10.4762
及	-10.4765
sf	-10.4772
年にかけて	-10.4774
際に	-10.4774
耳	-10.4777
植	-10.4781
弱	-10.4783
cor	-10.4785
ピア	-10.4787
1931	-10.4789
高原	-10.4791
プレスリリース	-10.4795
一番	-10.4804
慶長	-10.4808
母親	-10.4809
を果たした	-10.4811
特定	-10.4816
コミックス	-10.4818
1914	-10.4819
自己	-10.4822
騎手	-10.4825
石油	-10.4828
周年記念	-10.4828
賞を受賞	-10.483
寒	-10.4832
知識	-10.4833
体育館	-10.4834
指導者	-10.4834
の一つである	-10.4834
程	-10.4835
入学	-10.4844
小惑星	-10.4845
続く	-10.4845
日曜	-10.4845
mp	-10.4846
par	-10.4846
月場所	-10.4849
loc	-10.4851
pmid	-10.4854
練習	-10.4857
願	-10.4857
アメリカン	-10.4857
アイルランド	-10.4858
渓	-10.4872
に入社	-10.4873
office	-10.4874
テスト	-10.4876
これが	-10.4877
ブラン	-10.4881
на	-10.4882
める	-10.4883
作られた	-10.4888
されたが	-10.4891
に位置し	-10.4891
天文	-10.4894
双	-10.4894
月曜	-10.4895
回目	-10.4896
、2017	-10.4898
エレ	-10.4899
1919	-10.4899
eu	-10.4899
青山	-10.4904
年からは	-10.4905
中止	-10.4908
ガイ	-10.4911
の間に	-10.4915
滋賀県	-10.4916
閉鎖	-10.4917
振	-10.4918
are	-10.4923
ていない	-10.4924
深夜	-10.4925
。2009	-10.4926
箱	-10.4927
リズム	-10.4927
鋼	-10.4932
申	-10.4933
岡田	-10.4934
film	-10.4934
月より	-10.4934
編著	-10.4936
長官	-10.4936
140	-10.4937
の一種	-10.4943
配置	-10.4944
ポルトガル	-10.4947
show	-10.4948
今日	-10.4949
をはじめ	-10.4952
5%	-10.4953
億	-10.4964
1912	-10.4965
小倉	-10.4972
大島	-10.4974
}}	-10.4976
ity	-10.4977
feat	-10.4977
読	-10.4981
横浜市	-10.4984
pan	-10.4987
甘	-10.4988
北東	-10.4991
新たな	-10.4995
л	-10.5001
除	-10.5005
埼玉	-10.5012
底	-10.5012
о	-10.5013
人は	-10.5014
琴	-10.5017
ッタ	-10.5018
gov	-10.502
ice	-10.5026
習	-10.5027
は日本の	-10.5034
隻	-10.5035
メジャー	-10.504
しゅう	-10.5043
青春	-10.5044
大韓民国	-10.5045
となっていた	-10.5047
厳	-10.5048
数学	-10.5051
過去	-10.5056
っており	-10.5056
北西	-10.5057
ufc	-10.5059
アウト	-10.5059
卵	-10.506
結合	-10.5061
集落	-10.5063
ot	-10.5076
集英社	-10.5077
書籍	-10.5079
青木	-10.5079
背	-10.5081
上位	-10.5081
、1983	-10.5087
ei	-10.5088
年頃	-10.509
ö	-10.5095
ウクライナ	-10.5097
束	-10.5097
高知県	-10.5097
辰	-10.5098
多数	-10.5105
年現在	-10.5108
特殊	-10.5109
っと	-10.5111
吹	-10.5111
伴	-10.5118
北区	-10.5119
巣	-10.5121
に入る	-10.5123
130	-10.5126
january	-10.5126
教員	-10.5133
比較	-10.5136
した後	-10.5142
マリー	-10.5144
じん	-10.5146
算	-10.5152
グレ	-10.5152
cre	-10.5156
判定	-10.5159
いく	-10.5161
ジャズ	-10.5164
。2008	-10.5164
に入団	-10.5167
新人	-10.517
@	-10.5172
韓	-10.5172
北陸	-10.5172
ケル	-10.5174
江戸時代	-10.5182
楊	-10.5186
トーナメント	-10.519
е	-10.5192
現在では	-10.5194
陰	-10.5197
露	-10.5197
形成	-10.5198
附属	-10.5199
戻	-10.5204
香川県	-10.5207
伝統	-10.5208
前後	-10.5209
通過	-10.5214
傘下	-10.5215
航空機	-10.5218
番目の	-10.5218
heart	-10.522
四郎	-10.522
ven	-10.5222
dis	-10.5223
レル	-10.5224
(+	-10.5227
豆	-10.5228
一族	-10.523
特集	-10.5231
会津	-10.5234
階級	-10.5239
庁舎	-10.5242
規模	-10.5244
get	-10.5257
同様	-10.526
ステーション	-10.5261
鎌倉	-10.5266
制御	-10.5274
1915	-10.5274
ard	-10.5275
勢力	-10.5283
下部	-10.5285
画像	-10.5285
庫	-10.5289
91	-10.5289
二丁目	-10.5289
中間	-10.5294
王者	-10.5297
トルコ	-10.5298
アレンジ	-10.53
競馬場	-10.5301
セー	-10.5306
はら	-10.5311
奏者	-10.5312
改良	-10.5313
に所属	-10.5313
減少	-10.5316
。2007	-10.532
album	-10.5331
ung	-10.5332
~	-10.5334
襲	-10.5334
佐賀	-10.5336
共に	-10.5336
ob	-10.534
激	-10.5344
非常に	-10.5349
上記	-10.5352
の名前	-10.5358
black	-10.536
因	-10.5362
振興	-10.5362
ワイド	-10.5362
を有する	-10.5363
詩人	-10.5363
ニング	-10.5365
ae	-10.5367
自治	-10.5368
リーダー	-10.5368
祥	-10.5373
豪	-10.5377
クラシック	-10.5384
side	-10.5385
岡崎	-10.5386
航	-10.5388
(1997	-10.5389
ギリシャ	-10.5397
ねん	-10.54
ノルウェー	-10.5404
継承	-10.5405
会計	-10.5406
pt	-10.5411
cr	-10.5411
川村	-10.5412
ron	-10.5414
定義	-10.5415
艦隊	-10.5418
デンマーク	-10.5418
したり	-10.5425
一時	-10.5427
自分の	-10.5429
件	-10.5432
松平	-10.5433
咲	-10.5434
1911	-10.5434
がない	-10.5439
代藩主	-10.5445
子ども	-10.5446
と同時に	-10.5447
小松	-10.5455
聴	-10.5458
ウィーン	-10.546
奉	-10.5461
サウンド	-10.5461
胸	-10.5463
憲法	-10.5464
それを	-10.5466
協議会	-10.5468
ary	-10.5469
に近い	-10.547
シアター	-10.5473
わずか	-10.5477
父は	-10.5478
let	-10.5478
gr	-10.5479
sport	-10.549
tur	-10.5491
1917	-10.5492
原因	-10.5493
衆議院議員	-10.5493
じゅう	-10.5495
加工	-10.5498
フィルム	-10.5499
天使	-10.55
邑	-10.5502
意味	-10.5503
民間	-10.551
地点	-10.551
ニック	-10.5511
将棋	-10.5512
ジェイ	-10.5512
継	-10.5513
崇	-10.5513
三菱	-10.5514
blog	-10.5516
パワー	-10.5517
採用	-10.5517
日より	-10.5519
シーズンは	-10.5519
ä	-10.5525
以降は	-10.5527
勤務	-10.553
プレー	-10.5532
tsu	-10.5536
不動産	-10.5536
磯	-10.5538
自転車	-10.5543
材料	-10.5544
山城	-10.5546
ip	-10.555
重量	-10.5555
著作	-10.5555
検索	-10.5561
創刊	-10.5562
ホワイト	-10.5571
運輸	-10.5571
曹	-10.5572
管轄	-10.5574
post	-10.5575
ペア	-10.5575
研究者	-10.5577
、1985	-10.5577
証	-10.5578
ig	-10.5579
以前は	-10.558
さま	-10.5586
武田	-10.5588
178	-10.5588
我	-10.559
167	-10.5593
アム	-10.5595
山脈	-10.5596
きゅう	-10.56
league	-10.5602
町村	-10.5604
かけ	-10.5604
1908	-10.5606
強化	-10.5607
らず	-10.5611
ウッド	-10.5617
南東	-10.5619
動画	-10.5619
ワー	-10.5625
待	-10.5627
dream	-10.5632
しばしば	-10.5634
このため	-10.5638
ium	-10.5638
渋谷	-10.5639
左衛門	-10.564
りょう	-10.5641
アニメーション	-10.5643
東側	-10.5646
屋敷	-10.5646
制限	-10.565
宋	-10.565
ファッション	-10.5651
宇都宮	-10.5651
ずつ	-10.5652
ストラ	-10.5652
阪神	-10.5653
の名称	-10.5654
もので	-10.5655
1910	-10.5656
復	-10.5656
1907	-10.5661
購入	-10.5663
係	-10.5663
銀河	-10.5664
笹	-10.5664
レストラン	-10.5665
ロケット	-10.5666
儀	-10.567
ドラム	-10.5676
森林	-10.5676
古典	-10.5677
禁止	-10.5678
やす	-10.568
卓	-10.5683
ナル	-10.5683
ムー	-10.5684
may	-10.5687
と結婚	-10.5688
時は	-10.5689
を表す	-10.569
進行	-10.5695
祭り	-10.5698
祝	-10.5702
グランド	-10.5703
出す	-10.5708
nba	-10.5709
メー	-10.5714
灯	-10.5714
北側	-10.5716
資	-10.5717
碑	-10.5719
獣	-10.5719
禁	-10.5719
れば	-10.572
は約	-10.5721
向上	-10.5725
濃	-10.5729
ran	-10.5738
札	-10.5742
友人	-10.5743
和歌山	-10.5744
light	-10.5744
フィンランド	-10.5747
ラウ	-10.5752
印刷	-10.5753
1906	-10.5757
エリ	-10.5764
メント	-10.5766
抗	-10.577
のメンバー	-10.5771
bio	-10.5773
フェル	-10.5776
ころ	-10.5777
国際空港	-10.5778
研修	-10.578
毎日新聞	-10.5783
周年	-10.5792
導	-10.5793
名前	-10.5798
ltd	-10.5798
嵐	-10.5799
大学で	-10.58
、2018	-10.5806
曖昧さ回避	-10.5807
マッチ	-10.5807
を開設	-10.5808
消	-10.5809
いない	-10.581
批判	-10.5816
ヤー	-10.5821
次は	-10.5821
打ち	-10.5822
迫	-10.5822
ショップ	-10.5825
ロウ	-10.5827
顕	-10.5829
天保	-10.5829
ボクシング	-10.5831
を始め	-10.5833
青森	-10.5834
要素	-10.5834
文化財	-10.5835
として活動	-10.5835
国土交通省	-10.5835
翔	-10.5837
処	-10.5837
飯田	-10.5847
琉球	-10.5847
活	-10.585
ok	-10.5852
ヶ月	-10.5852
ゴールド	-10.5855
インターナショナル	-10.5864
財	-10.5865
年代に	-10.5866
島根県	-10.5867
貝	-10.5871
秘密	-10.5871
az	-10.5871
1913	-10.5873
替え	-10.5892
cu	-10.5893
隠	-10.5898
必要	-10.5899
それまで	-10.59
幹	-10.5901
いわゆる	-10.5905
チュー	-10.5915
刺	-10.5915
協	-10.5917
通常盤	-10.592
hy	-10.592
。2012	-10.5921
コーラス	-10.5928
律	-10.5939
radio	-10.5943
your	-10.5945
von	-10.5945
サイズ	-10.5948
トゥー	-10.5948
しき	-10.5949
古墳	-10.595
白い	-10.5954
問	-10.5955
movie	-10.5957
電車	-10.596
ぞ	-10.5965
犯罪	-10.5966
酸化	-10.5966
茎	-10.5968
はじめ	-10.597
om	-10.5971
と対戦し	-10.5972
公共	-10.5975
los	-10.5975
中で	-10.5976
人である	-10.5983
菅	-10.5986
が行われ	-10.5986
フェリー	-10.5989
袋	-10.599
フィン	-10.5993
コム	-10.5995
ウン	-10.6
〔	-10.6
ヘン	-10.6002
hol	-10.6007
広域	-10.6014
アルゼンチン	-10.6018
han	-10.6019
地帯	-10.602
歳以上	-10.6021
句	-10.6022
線が	-10.6035
垣	-10.6044
世帯	-10.6045
在位	-10.6051
ヌス	-10.6053
二郎	-10.6054
毒	-10.6063
代表取締役社長	-10.6063
それら	-10.6064
イスラエル	-10.6068
4-8	-10.6068
新書	-10.6073
マスター	-10.6079
レオ	-10.608
窓	-10.6082
東京都出身	-10.6085
zu	-10.6089
ence	-10.6089
複数	-10.6089
分け	-10.6094
school	-10.6097
唄	-10.61
がん	-10.6105
生命	-10.6105
圭	-10.6109
司会	-10.6111
鳥取県	-10.6113
歴	-10.6114
act	-10.6116
ning	-10.6117
搭載	-10.6121
オリコン	-10.6122
史料	-10.6124
あん	-10.6128
栽培	-10.6128
嶺	-10.6131
。2006	-10.6132
民主	-10.6135
著書	-10.6136
ーニ	-10.6137
ッター	-10.6139
潜水艦	-10.6139
コス	-10.6144
生涯	-10.6144
返	-10.6144
単行本	-10.6146
取引	-10.6147
多い	-10.6147
繁	-10.6147
えん	-10.6149
にし	-10.6151
再開	-10.6157
載	-10.6158
エジプト	-10.6159
捜査	-10.6162
相撲	-10.6163
。2011	-10.6166
イス	-10.6168
900	-10.6168
業界	-10.617
pl	-10.6172
架	-10.6176
保健	-10.6179
sal	-10.6181
中央区	-10.6181
東京大学	-10.6182
をした	-10.6184
復活	-10.6188
machine	-10.619
振り	-10.6191
彰	-10.6191
qu	-10.6193
なが	-10.6194
一つ	-10.6199
の政治家	-10.6201
瑞	-10.6203
レベル	-10.6203
追加	-10.6203
bbc	-10.6209
ーゼ	-10.621
ino	-10.6213
となっており	-10.6213
(1996	-10.6213
project	-10.6214
成田	-10.6214
空軍	-10.6218
めた	-10.622
んでいる	-10.6221
郵便番号	-10.6222
各地	-10.6224
仮	-10.6228
小山	-10.6229
space	-10.623
現地	-10.6233
坂本	-10.6236
その後も	-10.6238
まれ	-10.6241
旅客	-10.6243
pu	-10.6245
ティス	-10.6246
去	-10.6246
入口	-10.6247
ヌー	-10.6251
ごろ	-10.6255
ようになる	-10.6257
複数の	-10.6264
states	-10.6266
ことは	-10.6269
レコーディング	-10.6269
市町村	-10.6277
団地	-10.6279
範	-10.6279
趙	-10.6283
モノ	-10.6286
幕府	-10.6289
猿	-10.6296
楽器	-10.6301
を得た	-10.6302
しく	-10.6302
会館	-10.6304
windows	-10.6304
total	-10.6305
映画監督	-10.6306
写	-10.6307
あまり	-10.6307
在住	-10.6307
ite	-10.6308
たま	-10.631
守護	-10.6311
固	-10.6312
を獲得した	-10.6314
てい	-10.6315
合計	-10.6321
girl	-10.6321
計算	-10.6321
ナビ	-10.6321
調整	-10.6322
ology	-10.6323
最優秀	-10.6329
の登場人物	-10.6331
故	-10.6332
進出	-10.6333
ルイス	-10.6337
プレス	-10.6338
息	-10.6342
作り	-10.6345
することで	-10.6345
家臣	-10.6348
消滅	-10.6349
power	-10.635
警備	-10.6352
策	-10.6353
ときに	-10.6355
膜	-10.6356
1-1	-10.6363
央	-10.6363
ふく	-10.6363
ヴィー	-10.6369
河原	-10.637
南側	-10.637
35.	-10.6371
リード	-10.6372
ローズ	-10.6374
臨時	-10.6376
emi	-10.6376
――	-10.6377
帳	-10.6379
いている	-10.6382
してきた	-10.6385
選択	-10.6385
りゅう	-10.6388
りん	-10.6388
kin	-10.6389
大谷	-10.639
忍	-10.6393
芸能	-10.6394
十二	-10.6395
財団法人	-10.6397
自動	-10.6397
デザイナー	-10.6398
(1)	-10.6402
三浦	-10.6411
オーバー	-10.6411
system	-10.6412
という意味	-10.6413
association	-10.6414
ヘイ	-10.6416
david	-10.6418
詞	-10.6418
宮崎県	-10.6418
出力	-10.6421
リチャード	-10.6422
淵	-10.6425
神話	-10.6428
になると	-10.6431
げん	-10.6432
(1991	-10.6435
世代	-10.6437
ロール	-10.644
入団	-10.6448
らが	-10.6452
急行	-10.6453
現在も	-10.6453
更に	-10.6455
ツェ	-10.6456
日間	-10.6456
綾	-10.6457
cup	-10.6459
ct	-10.6461
mf	-10.6463
伊達	-10.6465
装備	-10.6472
村が発足	-10.6472
風景	-10.6475
集合	-10.6475
ーム	-10.6477
チェコ	-10.6483
を実施	-10.6484
1897	-10.6484
open	-10.6491
採	-10.6494
初回限定盤	-10.6495
嗣	-10.6497
停止	-10.6499
フラン	-10.6501
宅	-10.6502
燃料	-10.6506
上げ	-10.6507
靖	-10.6508
ドラフト	-10.6512
を開催	-10.6514
ah	-10.6518
パーソナリティ	-10.6518
home	-10.6518
付属	-10.6519
キャリア	-10.6519
楽章	-10.652
みや	-10.6521
ツール	-10.6523
正月	-10.6524
教育委員会	-10.6525
最新	-10.6526
音声	-10.6528
被害	-10.6529
ра	-10.6532
ez	-10.6533
するも	-10.6534
項目	-10.6535
連合会	-10.6536
に出演	-10.6536
status	-10.6536
話題	-10.6537
みつ	-10.6543
ルーム	-10.6544
吉川弘文館	-10.6546
宣言	-10.6548
ü	-10.6549
ハム	-10.655
形状	-10.6556
免許	-10.6556
ネイ	-10.6557
しながら	-10.6558
フジ	-10.6564
現象	-10.6568
gt	-10.6569
uss	-10.657
生き	-10.6578
カット	-10.6579
ルール	-10.658
じゃ	-10.6581
ピーター	-10.6584
日本で	-10.6584
諏訪	-10.6584
財政	-10.6587
えい	-10.6589
潤	-10.6591
ニュージーランド	-10.6591
1909	-10.6593
に所属していた	-10.6593
サブ	-10.6595
1896	-10.6595
合い	-10.6598
と言う	-10.66
ものは	-10.6601
を果たす	-10.6603
育	-10.6605
乾	-10.6606
pop	-10.6607
robert	-10.6607
af	-10.661
自身	-10.661
なども	-10.6613
又	-10.6613
流通	-10.6615
park	-10.6616
エフ	-10.6617
1905	-10.6619
sl	-10.6621
ヴィル	-10.6622
指揮者	-10.6623
毎日	-10.6625
シカゴ	-10.6629
役割	-10.663
年ぶり	-10.6631
範囲	-10.6631
paul	-10.6635
bre	-10.6635
1916	-10.6638
残り	-10.6638
tt	-10.6639
ごと	-10.6642
のほか	-10.6643
図鑑	-10.6643
ste	-10.6648
耕	-10.6651
年齢	-10.6652
薫	-10.6652
パイ	-10.6654
ホールディングス	-10.6655
コンクール	-10.6657
首都	-10.6663
記者	-10.6663
澄	-10.6665
きん	-10.6666
乗り	-10.6666
ano	-10.6668
模様	-10.667
ード	-10.6673
大宮	-10.6675
全米	-10.6676
思い	-10.6679
プラザ	-10.6679
海洋	-10.668
安定	-10.6682
gra	-10.6682
看護	-10.6686
group	-10.6688
掛	-10.6693
マラソン	-10.6693
橘	-10.6693
皇后	-10.6696
bel	-10.6699
ツー	-10.6699
経由	-10.67
ジェームズ	-10.6704
区別	-10.6704
177	-10.6704
ゼン	-10.6707
を通じて	-10.6716
三井	-10.6719
午後	-10.672
(2019	-10.6723
special	-10.6723
。2013	-10.6724
藤井	-10.6727
押	-10.6729
cs	-10.6731
カレッジ	-10.6732
文献	-10.6738
5000	-10.6747
ach	-10.675
プロレス	-10.6752
ドール	-10.6753
珠	-10.6757
state	-10.6758
song	-10.6759
dance	-10.6759
三重	-10.676
アマチュア	-10.676
house	-10.6761
校区	-10.6762
校長	-10.6762
og	-10.6762
らない	-10.6763
ようになり	-10.6764
充	-10.6765
タクシー	-10.6765
改造	-10.6765
邸	-10.6767
久保	-10.6769
」、『	-10.677
規則	-10.677
佐野	-10.6775
影響	-10.6775
キム	-10.6778
休止	-10.6779
dia	-10.6788
れん	-10.6791
カラオケ	-10.6791
タス	-10.6793
ーラ	-10.6797
授業	-10.6798
暗	-10.6799
ase	-10.6799
佐賀県	-10.6799
に至る	-10.6801
big	-10.6801
在籍	-10.6801
スキ	-10.6801
ari	-10.6803
mil	-10.6804
ジム	-10.6804
われ	-10.6806
依	-10.6808
ちゅうがっこう	-10.6808
東宝	-10.6809
沈	-10.6811
sea	-10.6813
乙	-10.6813
ルト	-10.6814
1901	-10.6818
鑑	-10.682
第二次世界大戦	-10.6821
チェン	-10.6824
いん	-10.6825
ミング	-10.6826
庵	-10.6827
フィリピン	-10.6828
プラス	-10.683
だん	-10.6834
通行	-10.684
恋人	-10.6846
ユナイテッド	-10.6846
cat	-10.6848
先端	-10.6849
ur	-10.6849
貿易	-10.6854
狂	-10.6855
バーン	-10.6856
)”	-10.6857
〜』	-10.6864
学名	-10.6866
謙	-10.6871
ート	-10.6874
署	-10.6878
悟	-10.6879
南区	-10.688
ソル	-10.6889
譜	-10.6891
倒	-10.6894
出張所	-10.6897
に関するカテゴリ	-10.6899
ここ	-10.6901
爆	-10.6901
丈	-10.6902
ケース	-10.6906
閣	-10.6907
トヨタ	-10.6909
アニ	-10.6913
berg	-10.6914
information	-10.6915
箇所	-10.6915
死亡	-10.6918
信号	-10.692
ポスト	-10.6921
恋愛	-10.6924
坪	-10.6928
our	-10.6929
(1988	-10.6929
放送された	-10.6929
制定	-10.693
low	-10.6932
サンタ	-10.6934
(1995	-10.6936
mark	-10.6939
図書	-10.6942
メダル	-10.6942
ud	-10.6946
することができる	-10.6951
シオ	-10.6951
裂	-10.6951
tom	-10.6952
場合もある	-10.6955
封	-10.6956
判	-10.6957
1903	-10.696
、1970	-10.6962
にとって	-10.6963
135	-10.6963
アクセス	-10.6965
間に	-10.6969
度目の	-10.697
ストリート	-10.6974
加盟	-10.6976
すけ	-10.6977
でき	-10.6983
、1979	-10.6984
リエ	-10.6985
作用	-10.6987
戦車	-10.699
藤田	-10.6991
斎藤	-10.6991
第四	-10.6992
スカイ	-10.6993
告示第	-10.6993
東日本旅客鉄道	-10.6994
勲章	-10.6995
拡張	-10.6996
規格	-10.6999
169	-10.6999
に出場	-10.6999
専門は	-10.7001
豊田	-10.7002
シンガポール	-10.7003
伊豆	-10.7006
df	-10.7008
東西	-10.701
エース	-10.7011
聖書	-10.7013
近藤	-10.7014
中国語版	-10.7014
私立	-10.7016
桑	-10.7018
衛生	-10.7019
労	-10.7024
ky	-10.7027
火山	-10.7027
dan	-10.7027
禅	-10.7028
たけ	-10.703
線の駅	-10.7031
委員長	-10.7032
神奈川	-10.7042
込む	-10.7047
がい	-10.705
ディング	-10.7059
吉野	-10.7061
ひら	-10.7061
絵画	-10.7061
リリースされた	-10.7061
扱い	-10.7061
more	-10.7063
反対	-10.7064
ティング	-10.7064
remix	-10.7065
ディズニー	-10.7065
tre	-10.7066
資源	-10.7069
山岳	-10.7071
鼻	-10.7073
3000	-10.7076
欠	-10.7077
ガラス	-10.708
福田	-10.7082
〜(	-10.7083
再建	-10.7087
ひと	-10.7091
昼	-10.7091
多摩	-10.7091
消防署	-10.7093
施行	-10.7093
解放	-10.7094
vocal	-10.7095
参戦	-10.7097
kan	-10.71
いくつかの	-10.7102
重複	-10.7103
許可	-10.7104
試	-10.7105
ミュージカル	-10.7107
出した	-10.7109
大学名誉教授	-10.7111
キュー	-10.7111
176	-10.7111
日発行	-10.7116
í	-10.7118
ier	-10.7123
彼ら	-10.7127
ヨー	-10.713
free	-10.713
ヴァイオリン	-10.713
イラン	-10.713
謎	-10.7131
心理学	-10.7132
でデビュー	-10.7134
希望	-10.7136
beat	-10.7137
審	-10.7138
審査	-10.7139
瀬戸	-10.7139
新設	-10.7144
災害	-10.7147
投資	-10.7149
インドネシア	-10.7152
重要	-10.7153
可能な	-10.7154
に就任した	-10.7156
合同	-10.7164
アシスタント	-10.7166
field	-10.7169
鈴	-10.7171
くら	-10.7176
くる	-10.7177
告	-10.7178
gh	-10.7179
日に発売された	-10.7181
記号	-10.7181
課程	-10.7181
hot	-10.7189
アクション	-10.7189
財団	-10.7191
とされ	-10.7195
qui	-10.7198
班	-10.7198
)※	-10.7199
信仰	-10.7205
幼	-10.721
概要	-10.7211
軍人	-10.7212
卿	-10.7217
ホン	-10.7219
周囲	-10.7225
report	-10.723
bon	-10.723
not	-10.7234
C	-10.7235
訓	-10.7238
かり	-10.7239
籍	-10.724
威	-10.7241
abc	-10.7245
2-1	-10.7247
サッカー部	-10.7247
痛	-10.7248
停留所	-10.725
観音	-10.725
のことである	-10.7252
いろ	-10.7253
泊	-10.7254
民国	-10.7256
統治	-10.7257
統	-10.7259
ティン	-10.7261
沿岸	-10.7264
ヤマ	-10.7267
yama	-10.7269
モル	-10.7269
大津	-10.7271
長谷川	-10.7274
三丁目	-10.7275
洗	-10.7276
に存在した	-10.7276
ちゃ	-10.7279
マックス	-10.728
裁判	-10.728
boy	-10.7282
宝塚	-10.7284
女王	-10.7286
大手	-10.7286
支社	-10.7286
6,	-10.7286
len	-10.729
発達	-10.7291
168	-10.7294
阿部	-10.7295
ロング	-10.7299
才	-10.7301
官僚	-10.7304
society	-10.7305
照明	-10.7312
モード	-10.7314
大隊	-10.7316
涙	-10.7317
成功	-10.7321
ix	-10.7325
斗	-10.733
キロ	-10.7331
一度	-10.7332
液	-10.7333
佐伯	-10.7333
本名は	-10.7333
原画	-10.7335
しゅ	-10.7336
にした	-10.7339
価格	-10.7339
増加	-10.7341
ローカル	-10.7341
つ前は	-10.7342
mus	-10.7344
末期	-10.7345
化した	-10.7347
à	-10.7347
その他の	-10.735
disc	-10.735
station	-10.7351
。2014	-10.7351
ы	-10.7355
band	-10.7357
岬	-10.7358
ビス	-10.7359
bb	-10.736
公式ホームページ	-10.7361
堅	-10.7361
テー	-10.7362
当たり	-10.7362
築	-10.7362
混	-10.7364
ゴールデン	-10.7367
bor	-10.7373
ヘンリー	-10.7374
任務	-10.7375
の意味	-10.7375
カム	-10.7377
グラン	-10.7378
寝	-10.7383
芦	-10.7385
漫画家	-10.7386
ベルト	-10.7388
野町	-10.7391
山下	-10.7391
。2005	-10.7395
であるため	-10.7398
資金	-10.7399
コミュニティ	-10.7402
大塚	-10.7402
1904	-10.7404
今井	-10.7406
近年	-10.7408
毎	-10.7414
lie	-10.7417
読売新聞	-10.7418
麗	-10.7422
まい	-10.7433
オーケストラ	-10.7434
バーグ	-10.7435
伏	-10.7435
起源	-10.7442
チー	-10.7445
飛び	-10.7445
溝	-10.7446
涼	-10.7446
ラク	-10.7449
mann	-10.745
run	-10.7453
郷土	-10.7453
恭	-10.7453
カフェ	-10.7455
resident	-10.7455
武蔵	-10.7457
川口	-10.7457
をリリース	-10.7457
詳細	-10.7458
破壊	-10.746
とされた	-10.7462
狭	-10.7463
込	-10.7466
復興	-10.7466
good	-10.7468
スコットランド	-10.7468
この時	-10.7469
チャールズ	-10.7482
かれ	-10.7483
したこと	-10.7486
概念	-10.7488
ale	-10.749
175	-10.7494
london	-10.7494
オフィシャルサイト	-10.7498
現役	-10.75
ッカ	-10.7501
粉	-10.7501
まだ	-10.7503
木造	-10.7503
野田	-10.7507
西村	-10.7514
awards	-10.7517
long	-10.7517
名で	-10.752
皆	-10.7523
フェン	-10.7531
所蔵	-10.7533
単独	-10.7536
回り	-10.7536
票	-10.754
バリ	-10.7544
biography	-10.7548
ring	-10.755
人形	-10.7552
で放送された	-10.7552
裁	-10.7553
多く	-10.7555
開催された	-10.7558
率いる	-10.7558
に参加した	-10.756
出入口	-10.7563
挙	-10.7563
市立小	-10.7565
ベラ	-10.7565
平日	-10.7568
近世	-10.7568
できた	-10.7569
来た	-10.7571
od	-10.7572
支所	-10.7574
笑	-10.7577
ちゅう	-10.7579
後半	-10.7579
土佐	-10.758
セリエ	-10.7582
rt	-10.7584
に加入	-10.7584
ファースト	-10.7585
、1978	-10.7587
新潮社	-10.7589
ギー	-10.7589
危機	-10.759
好き	-10.7591
ジェット	-10.7592
都道府県	-10.7592
ヴァイ	-10.7595
まず	-10.7596
つか	-10.7598
max	-10.7601
かた	-10.7603
一般に	-10.7609
本店	-10.7612
サッカー選手	-10.7614
を描いた	-10.7615
ミサイル	-10.7615
虹	-10.7615
母は	-10.7616
156	-10.7616
崩壊	-10.7627
応用	-10.7629
閉	-10.7629
ゲー	-10.7629
日経	-10.7635
ひとり	-10.7635
出身のサッカー選手	-10.764
線交点	-10.7641
ウェブサイト	-10.7642
1-2	-10.7642
を開始した	-10.7644
iz	-10.7645
hel	-10.765
製薬	-10.765
ナンバー	-10.765
拓	-10.7651
キャンパス	-10.7652
球場	-10.7656
これら	-10.766
東映	-10.7661
がく	-10.7664
cer	-10.7666
ホル	-10.7669
種目	-10.7672
処分	-10.7672
編纂	-10.7672
first	-10.7673
不詳	-10.7676
nk	-10.7679
作目	-10.768
story	-10.7684
然	-10.7686
が行われる	-10.7687
始め	-10.7687
ーク	-10.7687
魏	-10.7688
田川	-10.7688
イェ	-10.7693
フォル	-10.7694
archived	-10.7696
ソビエト連邦	-10.7696
ッティ	-10.7697
ワイン	-10.7698
results	-10.7698
ける	-10.7701
加賀	-10.7702
かく	-10.7707
ベルク	-10.7709
駐	-10.7711
衆議院	-10.7713
popolazione	-10.7715
倶楽部	-10.7715
字は	-10.7717
春日	-10.7717
公認	-10.772
バレー	-10.772
ive	-10.7721
ゲイ	-10.7722
悠	-10.7722
ロマン	-10.7727
を得る	-10.7729
から約	-10.7729
マラ	-10.7732
usa	-10.7734
学区	-10.7734
民主党	-10.7737
落ち	-10.7742
最多	-10.7742
west	-10.7744
確	-10.7744
ドリーム	-10.7747
本塁打	-10.7748
ぼう	-10.7749
年以降	-10.7752
(1994	-10.7753
慎	-10.7755
ネン	-10.7755
岩手	-10.7756
講	-10.7757
担	-10.7757
セブン	-10.7763
ブルース	-10.7764
いき	-10.7765
ロサンゼルス	-10.7768
タワー	-10.7769
(1987	-10.777
を用いて	-10.7772
惑星	-10.7773
summer	-10.7774
提案	-10.7775
テロ	-10.7776
郵便	-10.7778
さか	-10.778
胡	-10.7781
ram	-10.7786
comunale	-10.7787
球団	-10.7788
ごとに	-10.7788
緒	-10.7793
territoriale	-10.7797
アール	-10.7797
聡	-10.7803
を廃止	-10.7803
log	-10.7804
反乱	-10.7805
臨床	-10.7809
(1986	-10.781
年版	-10.7811
が可能	-10.7811
滑	-10.7811
ism	-10.7811
para	-10.7813
刻	-10.7816
下に	-10.7816
征	-10.7817
黒田	-10.7817
ling	-10.7818
エム	-10.7819
ディスク	-10.7822
superficie	-10.7822
として知られる	-10.7824
褐色	-10.7826
時計	-10.7829
人口約	-10.783
ナレーション	-10.7834
リアン	-10.7838
表彰	-10.7838
sub	-10.7838
key	-10.7841
プラン	-10.7844
ラウンド	-10.7844
戦い	-10.7845
フリードリヒ	-10.785
沿革	-10.7851
責任	-10.7851
注目	-10.7852
象	-10.7859
労働者	-10.7862
モリ	-10.7863
157	-10.7864
port	-10.7864
science	-10.7868
海上	-10.7868
えた	-10.7871
予	-10.7871
大学大学院	-10.7873
みち	-10.7874
に所在する	-10.7875
負け	-10.7885
寛永	-10.7889
最初に	-10.7891
発音	-10.7892
岡本	-10.7896
えて	-10.7896
を卒業	-10.7899
小学校一覧	-10.79
が必要	-10.7901
南海	-10.7904
メス	-10.7906
1.5	-10.7906
last	-10.7907
準備	-10.7908
駐在所	-10.7908
実践	-10.7909
view	-10.7914
英雄	-10.7914
オープニング	-10.7916
シェル	-10.7916
まん	-10.7918
神田	-10.7919
実現	-10.7921
撃	-10.7923
染	-10.7925
記憶	-10.7926
比較的	-10.793
にわたって	-10.793
挑戦	-10.7933
、1976	-10.7935
れい	-10.7935
駅間	-10.7935
real	-10.7936
葬	-10.7936
コート	-10.7938
hr	-10.794
ッサ	-10.7941
有名な	-10.7941
完	-10.7942
日本の鉄道駅一覧	-10.7942
頃から	-10.7942
あら	-10.7944
決	-10.7945
柴	-10.7946
ax	-10.7946
連携	-10.7947
加茂	-10.7947
を始める	-10.7948
交番	-10.7949
石田	-10.795
化された	-10.7951
スティ	-10.7951
fo	-10.7955
鹿島	-10.7957
篤	-10.7958
ó	-10.7959
文明	-10.7959
免	-10.7961
-17	-10.7962
対戦	-10.7963
east	-10.7967
外国人	-10.797
たん	-10.797
スリー	-10.798
hall	-10.7982
供給	-10.7982
リーグ戦	-10.7985
犯	-10.7985
初め	-10.7986
fer	-10.7988
押し	-10.7988
を用いた	-10.7989
〜」	-10.7991
操作	-10.7992
モンゴル	-10.7993
包	-10.7993
蘇	-10.7999
失敗	-10.7999
されていたが	-10.8001
羊	-10.8001
たもの	-10.8002
スミス	-10.8003
under	-10.8003
監	-10.8007
オープニングテーマ	-10.8009
磨	-10.801
が収録されている	-10.801
と同	-10.8011
・・・	-10.8013
コトバンク	-10.8015
函館	-10.8016
play	-10.8019
物理学	-10.8019
後藤	-10.8019
ルド	-10.8021
名称は	-10.8021
元禄	-10.8022
pg	-10.8025
ナス	-10.8027
sd	-10.8028
ここで	-10.8028
よい	-10.8028
証券	-10.8029
微	-10.8041
ビア	-10.8045
田辺	-10.8045
分布	-10.805
大学校	-10.8051
県立	-10.8051
residente	-10.8052
普通科	-10.8053
期待	-10.8056
探偵	-10.8056
らい	-10.8056
吉川	-10.8056
スパイ	-10.8058
アウ	-10.8059
mag	-10.8063
クイズ	-10.8065
側に	-10.8065
アリス	-10.8066
和泉	-10.8071
人と	-10.8072
ワシントン	-10.8072
支持	-10.8078
ポル	-10.8078
こく	-10.8079
金曜日	-10.808
鳳	-10.8081
廣	-10.8082
国王	-10.8085
に所属する	-10.8085
コンビ	-10.8086
take	-10.8086
近鉄	-10.8089
の基礎自治体	-10.8092
arital	-10.8094
後も	-10.8096
楠	-10.81
寮	-10.8101
桐	-10.8101
堤	-10.8102
川水系	-10.8106
kmq	-10.8107
158	-10.8107
葛	-10.8119
パート	-10.8122
固定	-10.8124
159	-10.8127
相談	-10.8131
1902	-10.8133
ロイ	-10.8134
ぶり	-10.8135
号交点	-10.8135
チャート	-10.814
分割	-10.814
に入学	-10.8141
肥	-10.8148
。2016	-10.8154
中隊	-10.8156
ビール	-10.8158
土木	-10.8159
負傷	-10.8161
エール	-10.8162
刑	-10.8164
学科卒業	-10.8166
随	-10.8166
人事	-10.8169
。2004	-10.8171
オート	-10.8173
しなかった	-10.8175
再編	-10.8176
モア	-10.8177
脱退	-10.8178
低い	-10.818
本来	-10.8183
輸入	-10.8186
キル	-10.8188
ほん	-10.8191
朝日放送	-10.8193
hiro	-10.8196
標	-10.8199
。2000	-10.8201
oc	-10.8203
アレ	-10.8203
近畿	-10.8208
cas	-10.8208
堺	-10.8211
業者	-10.8212
郭	-10.8214
山頂	-10.8216
3-0	-10.8218
日本経済新聞	-10.8219
ラスト	-10.822
ティア	-10.822
コンテスト	-10.8222
内科	-10.8222
ボーイ	-10.8223
を得て	-10.8228
1890	-10.8228
kr	-10.8231
止め	-10.8232
ビュー	-10.8233
(1992	-10.8235
壇	-10.8236
フィリップ	-10.8237
これにより	-10.8238
三木	-10.824
を受賞	-10.8243
チョウ	-10.8243
北条	-10.8244
途	-10.8247
lp	-10.8248
mg	-10.8249
継続	-10.8251
西区	-10.8252
日曜日	-10.8257
を取得	-10.8259
順位	-10.826
出雲	-10.8264
性能	-10.8265
バウ	-10.8265
bitate	-10.8268
とり	-10.8274
効	-10.8275
美濃	-10.8275
整	-10.8277
に編入	-10.8278
(1993	-10.8278
sign	-10.8285
ディン	-10.8286
mb	-10.829
を中心とした	-10.8291
ance	-10.8295
、1977	-10.8295
ふるさと	-10.8296
トイレ	-10.8296
国境	-10.83
市街地	-10.8301
占領	-10.8303
アーカイブ	-10.8304
-01	-10.8304
ユニ	-10.8305
わか	-10.831
逃げ	-10.8311
盗	-10.8311
尋常小学校	-10.8314
募集	-10.8315
との間に	-10.8318
アド	-10.8318
前期	-10.8318
ヴェン	-10.8319
薄	-10.832
水戸	-10.832
日本郵便	-10.8321
燕	-10.8322
検定	-10.8324
長く	-10.8325
に当たる	-10.8326
北海道道	-10.8328
山地	-10.8329
さと	-10.833
北方	-10.833
ーノ	-10.8331
揚	-10.8331
長女	-10.8335
と同様に	-10.8336
附	-10.8337
音源	-10.8339
ブックス	-10.834
cf	-10.8341
原田	-10.8342
奉行	-10.8343
を最後に	-10.8345
目標	-10.8346
クリス	-10.8346
ek	-10.8346
あさ	-10.8348
シャル	-10.835
!?	-10.8352
edition	-10.8355
マシン	-10.8356
に相当する	-10.8358
大坂	-10.8359
せる	-10.8361
ori	-10.8364
指名	-10.8365
に選ばれた	-10.8367
赤い	-10.8368
の影響	-10.8371
で知られる	-10.8372
dd	-10.8372
の下で	-10.8374
ヒト	-10.8377
pen	-10.8379
横山	-10.838
分岐	-10.838
学院大学	-10.838
へ移籍	-10.8381
า	-10.8382
マイル	-10.8384
出口	-10.8384
ウー	-10.8389
アカ	-10.8396
オフィシャルブログ	-10.8397
現場	-10.8399
。2015	-10.84
承認	-10.8401
議長	-10.8402
鷲	-10.8402
両親	-10.8406
テレビ番組	-10.8407
歩兵	-10.8407
bal	-10.8407
ビット	-10.8408
の際に	-10.8409
ドア	-10.8409
やり	-10.8411
られていた	-10.8411
nes	-10.8412
を結成	-10.8412
性格	-10.8413
大阪市立	-10.8413
漢字	-10.8415
向き	-10.8417
right	-10.8417
鳥取	-10.8418
浜田	-10.8421
柴田	-10.8421
日に行われた	-10.8422
のみで	-10.8422
三男	-10.8422
勲	-10.8428
信濃	-10.8428
松原	-10.8429
gal	-10.8434
境内	-10.8434
-18	-10.8442
his	-10.8443
往復	-10.8445
維持	-10.8445
ヨハン	-10.8446
弓	-10.8449
-20	-10.8449
全線	-10.845
、1975	-10.8452
つけ	-10.8454
好きな	-10.8458
幕末	-10.8458
外交	-10.8461
ペイ	-10.8461
暮らし	-10.8465
月末	-10.8468
持つ	-10.847
行われ	-10.8472
moon	-10.8472
ムス	-10.8473
午前	-10.8474
いま	-10.8477
たり	-10.8479
一定	-10.8481
月現在	-10.8482
ヒュー	-10.8484
マグ	-10.8485
神宮	-10.8486
意識	-10.8488
ことになる	-10.8489
だけでなく	-10.8491
ルン	-10.8492
è	-10.8492
天体	-10.8494
1873	-10.8494
規制	-10.8499
ショウ	-10.8499
すぎ	-10.85
贈	-10.8502
」(『	-10.8504
collection	-10.8505
ゼル	-10.8507
選挙区	-10.8509
カナ	-10.8509
菊池	-10.8512
フランク	-10.8515
仲間	-10.8515
cos	-10.8515
庭園	-10.8517
認可	-10.8521
に昇格	-10.8522
享保	-10.853
呼称	-10.853
住所	-10.8533
働き	-10.8536
巡	-10.854
キス	-10.8542
有効	-10.8545
外務省	-10.8547
酵素	-10.8551
mal	-10.8551
body	-10.8553
cia	-10.8555
リウス	-10.8557
使われている	-10.8558
又は	-10.856
ev	-10.856
億円	-10.8561
命名	-10.8562
は中華人民共和国	-10.8569
モール	-10.8572
ノール	-10.8572
殺人	-10.8574
イチ	-10.8582
執	-10.8583
縦	-10.8586
の場合	-10.8587
捕	-10.8589
ティック	-10.8589
村が合併し	-10.8591
ヘッド	-10.8592
ルス	-10.8598
銭	-10.86
東方	-10.8603
var	-10.8603
まつり	-10.8604
キーボード	-10.8604
メッセージ	-10.8606
町大字	-10.8606
多数の	-10.8611
創造	-10.8614
焼き	-10.8616
これに	-10.8616
松浦	-10.8617
ペット	-10.8619
イタリア共和国	-10.8619
彼女は	-10.8619
las	-10.8619
対立	-10.862
価値	-10.8623
review	-10.8623
湊	-10.8624
シュー	-10.863
古い	-10.863
と呼ばれた	-10.863
ash	-10.8631
一帯	-10.8631
栃木	-10.8635
代表取締役	-10.8638
イト	-10.8639
もん	-10.8639
136	-10.864
green	-10.8641
運航	-10.8644
似	-10.8646
は以下の通りである	-10.8646
方言	-10.8647
スポンサー	-10.8647
110	-10.8647
表題曲	-10.865
昔	-10.8652
行う	-10.8653
権利	-10.8654
英文	-10.8656
全ての	-10.8657
ウィル	-10.8657
г	-10.8659
ノース	-10.866
ベリー	-10.8661
を記録した	-10.867
人を	-10.8673
ā	-10.8674
人で	-10.8675
鎌倉時代	-10.8679
取材	-10.8681
美しい	-10.8682
あと	-10.8682
肩	-10.8684
木曜	-10.8686
社員	-10.8689
ブルク	-10.8689
みず	-10.8691
酒井	-10.8691
諸国	-10.8693
が完成	-10.8694
[3	-10.8694
可能性	-10.8694
1898	-10.8694
幻	-10.8695
学級	-10.8697
ゼロ	-10.8698
shin	-10.8703
final	-10.8705
依頼	-10.8706
外国	-10.8707
mor	-10.8709
五輪	-10.871
徳川	-10.8712
手法	-10.8714
ガールズ	-10.8719
road	-10.872
社会学	-10.872
についても	-10.8723
キャラ	-10.8724
rie	-10.873
無線	-10.873
ことに	-10.8731
日立	-10.8732
敦	-10.8732
事情	-10.8733
横須賀	-10.8739
郡区	-10.874
実業家	-10.8741
ベースボール	-10.8744
眠	-10.8745
ビーチ	-10.8745
リャ	-10.8746
城主	-10.8749
ski	-10.875
1875	-10.8751
端末	-10.8752
グレイ	-10.8753
左右	-10.8759
1899	-10.8762
買	-10.8763
正式	-10.8763
定期	-10.8771
時点	-10.8774
ふじ	-10.8779
高度	-10.8779
で初めて	-10.878
ゾン	-10.8783
猪	-10.8787
筒	-10.8788
岐	-10.8789
に入	-10.8789
エク	-10.879
有限会社	-10.8792
建立	-10.8793
前身	-10.8794
来日	-10.8798
1868	-10.88
年シーズン	-10.88
アッ	-10.8801
西洋	-10.8801
ぞう	-10.8801
管区	-10.8802
対抗	-10.8804
を獲得	-10.8804
だけで	-10.8805
電波	-10.8807
詰	-10.881
るが	-10.8815
境界	-10.8817
の妻	-10.8818
ソウ	-10.8819
推薦	-10.8819
ダウン	-10.882
に伴う	-10.882
ユリウス暦	-10.8823
松田	-10.8823
大人	-10.8824
この曲	-10.8825
nie	-10.8825
文社	-10.8829
込んだ	-10.8831
解決	-10.8831
プー	-10.8831
専	-10.8832
陸上	-10.8834
伯爵	-10.8834
リポーター	-10.8837
うえ	-10.8849
開局	-10.8853
nt	-10.8853
ブルガリア	-10.8853
郵便番号は	-10.8854
沿い	-10.8858
釜	-10.8858
fl	-10.8858
一宮	-10.8861
tin	-10.8862
大輔	-10.8862
適用	-10.8864
即	-10.8865
注意	-10.8867
about	-10.8868
しているが	-10.8869
jct	-10.887
やすい	-10.8872
冒険	-10.8876
早く	-10.8876
鍋	-10.8876
ウォー	-10.8877
浦和	-10.8877
テス	-10.8878
魔法	-10.8878
やがて	-10.8879
大山	-10.8881
ルーマニア	-10.8884
コフ	-10.8884
やや	-10.8884
ни	-10.8885
だと	-10.8885
松竹	-10.8885
フライ	-10.8887
フィル	-10.8887
bin	-10.8892
紋	-10.8894
バイオ	-10.8895
複合	-10.8896
王朝	-10.8898
偽	-10.8899
ものが	-10.8901
大きさ	-10.8901
事務局	-10.8902
angel	-10.8902
退職	-10.8903
に指定されている	-10.8905
籠	-10.8906
愛知県名古屋市	-10.8915
ース	-10.8915
ハワイ	-10.8919
ディス	-10.8921
熟	-10.8922
においても	-10.8923
ものを	-10.8925
シング	-10.8926
をもつ	-10.8926
lia	-10.8927
ria	-10.8928
ld	-10.8928
:50	-10.8932
騎	-10.8933
who	-10.8934
水素	-10.8934
ブラウン	-10.8935
適	-10.8938
ターミナル	-10.8938
と呼ばれ	-10.8939
kiss	-10.8939
ていく	-10.8942
水道	-10.8944
ぽ	-10.8946
一方で	-10.8947
動き	-10.8948
滅	-10.8949
に基づく	-10.8949
166	-10.8949
公式ブログ	-10.895
正式に	-10.8953
人に	-10.8954
天文台	-10.8956
にある公立小学校	-10.8956
熊野	-10.8958
バッハ	-10.8959
に加え	-10.8959
趣味	-10.8962
これまで	-10.8963
淡	-10.8963
改善	-10.8969
蛇	-10.8971
クリスマス	-10.8973
桜井	-10.8973
らん	-10.8974
grand	-10.8974
を使って	-10.8974
悪魔	-10.8975
囲碁	-10.8976
中には	-10.8976
タカ	-10.8976
扇	-10.8977
地に	-10.8979
表面	-10.898
でん	-10.898
高野	-10.8983
、1973	-10.8984
下記	-10.8984
",	-10.8985
童	-10.8986
温度	-10.8988
孔	-10.8989
いつ	-10.8989
sound	-10.8993
uni	-10.8994
michael	-10.8995
も多い	-10.8995
ライター	-10.8997
、1972	-10.8999
white	-10.8999
tar	-10.9001
朝鮮語	-10.9003
ara	-10.9003
留学	-10.9005
南北	-10.9008
敗退	-10.901
棒	-10.901
いわ	-10.901
伝承	-10.9014
初期の	-10.9017
を始めた	-10.9018
原子	-10.902
立場	-10.9021
建築家	-10.9023
すなわち	-10.9026
命令	-10.9027
に生まれた	-10.9029
様式	-10.903
ファミリー	-10.9033
のまま	-10.9034
studio	-10.9034
救急	-10.9036
長期	-10.9037
モス	-10.9045
gy	-10.9045
スターズ	-10.9047
武士	-10.9048
高木	-10.905
鴨	-10.9051
様子	-10.9051
札幌市	-10.9052
このような	-10.9058
(1985	-10.9058
していく	-10.9062
国防	-10.9062
抱	-10.9065
行った	-10.9066
上流	-10.9066
大名	-10.9067
俣	-10.9068
が発足	-10.9069
独自の	-10.9076
鐘	-10.9076
みんな	-10.9077
誤	-10.9077
患者	-10.9077
小説家	-10.9079
交渉	-10.908
、1974	-10.9081
掛け	-10.9083
billboard	-10.9086
gs	-10.9087
htm	-10.9088
center	-10.909
リル	-10.909
ッパー	-10.9091
こともあり	-10.9093
親王	-10.9094
競走馬	-10.9098
馬場	-10.9099
はなく	-10.9099
京都市	-10.91
あたり	-10.9101
代理	-10.9101
game	-10.9104
バード	-10.9105
大久保	-10.911
神戸市	-10.911
なくなった	-10.9115
事実上	-10.9117
ヴェー	-10.9117
ff	-10.9119
media	-10.912
遠藤	-10.9121
フェスティバル	-10.9122
発射	-10.9122
yahoo	-10.9124
日野	-10.9125
ator	-10.9126
155	-10.9126
見る	-10.9129
要求	-10.913
上杉	-10.9132
に存在する	-10.9135
と同様	-10.9137
トーマス	-10.9139
烏	-10.914
物理	-10.9142
移	-10.9142
公社	-10.9143
開幕	-10.9145
鉱物	-10.9145
小島	-10.9148
she	-10.9149
プレイヤー	-10.9149
主題	-10.9151
fun	-10.9154
info	-10.9154
ラテン語	-10.9155
ノス	-10.9155
rc	-10.9156
改修	-10.9157
を担当した	-10.9157
代わりに	-10.9158
弦	-10.9159
すれば	-10.9165
".	-10.9166
腸	-10.9169
mel	-10.917
松井	-10.9171
およそ	-10.9172
研究科	-10.9175
土曜日	-10.9178
ball	-10.9184
少し	-10.9184
ue	-10.9185
療法	-10.9185
トレーニング	-10.9186
ロフ	-10.9187
aki	-10.9191
english	-10.9192
が丘	-10.9194
短い	-10.9197
中心部	-10.9201
探	-10.9203
氏は	-10.9205
と同じく	-10.9206
guitar	-10.9206
ks	-10.9206
(#1)	-10.9209
線の駅である	-10.9209
際には	-10.921
島田	-10.9212
ぜん	-10.9212
類似	-10.9214
town	-10.9216
退団	-10.9217
tko	-10.922
165	-10.9221
プロモーション	-10.9223
中華民国	-10.9224
含まれ	-10.9227
ros	-10.9227
引き続き	-10.9228
上下	-10.9228
をしていた	-10.9229
ita	-10.9229
討	-10.923
ハラ	-10.9233
軌	-10.9234
アラン	-10.9235
テック	-10.9235
黄金	-10.9236
ロイヤル	-10.9237
down	-10.9238
主任	-10.9238
⇒	-10.9242
モーター	-10.9244
俗	-10.9247
森田	-10.9247
アキ	-10.9248
і	-10.9252
ка	-10.9253
建造	-10.9254
水野	-10.9254
に入った	-10.9256
即位	-10.9257
以前	-10.9258
各国	-10.9261
宜	-10.9261
鉱	-10.9263
宮城	-10.9263
ばん	-10.9264
北朝鮮	-10.9264
バトル	-10.9269
sam	-10.9269
-03	-10.9269
ウェスト	-10.9271
に師事	-10.9272
ゴル	-10.9273
修道院	-10.9274
甲斐	-10.9274
合唱	-10.9275
期限付き移籍	-10.9277
主体	-10.9277
追い	-10.9277
当主	-10.928
深い	-10.9282
ジャーナル	-10.9282
キャン	-10.9288
ニャ	-10.929
停留場	-10.9294
的には	-10.9296
安藤	-10.9297
銘	-10.9297
ide	-10.9297
勤	-10.9301
pra	-10.9302
天然	-10.9303
old	-10.9304
線路	-10.9305
ies	-10.9306
company	-10.9314
を作る	-10.9316
事業者	-10.9318
マンガ	-10.9318
が設置されている	-10.932
ウェブ	-10.932
携帯電話	-10.9322
xx	-10.9324
なっている	-10.9326
で優勝	-10.9331
塁	-10.9337
0.0	-10.9337
といわれる	-10.934
101	-10.9343
〕	-10.9346
越前	-10.9348
パソコン	-10.9348
海峡	-10.9352
芽	-10.9353
平安時代	-10.9354
菓子	-10.9359
考	-10.9359
長岡	-10.936
-02	-10.9362
同時	-10.9362
興行	-10.9362
チームが	-10.9363
みどり	-10.9365
夫婦	-10.9365
桁	-10.9366
バンク	-10.9367
熊谷	-10.9369
開発された	-10.9369
ました	-10.937
磁	-10.937
エンディング	-10.9373
委託	-10.9375
ting	-10.9377
実行	-10.9379
外科	-10.9383
全曲	-10.9388
司法	-10.9389
ко	-10.939
wayback	-10.9391
105	-10.9396
賞を受賞した	-10.9402
慶應義塾大学	-10.9404
することを	-10.9405
パートナー	-10.9405
杏	-10.9406
ヴィチ	-10.9408
猛	-10.9409
soul	-10.9409
賛	-10.9409
ナショナル	-10.941
相続	-10.941
著者	-10.9411
しげ	-10.9411
めい	-10.9412
勤め	-10.9413
阿波	-10.9415
条例	-10.9415
岩崎	-10.9416
(1990	-10.9419
兵器	-10.9419
摩	-10.9421
んでいた	-10.9422
ドロ	-10.9423
循環	-10.9423
細川	-10.9424
ジャーナリスト	-10.9425
さまざまな	-10.9426
ik	-10.9428
ボックス	-10.9429
住吉	-10.943
james	-10.9432
cg	-10.9434
名鉄	-10.9437
と考えられる	-10.9441
斉藤	-10.9441
ble	-10.9442
カリフォルニア州	-10.9443
貸	-10.9444
ヶ丘	-10.9444
シップ	-10.9445
理解	-10.9446
白石	-10.945
ひとつ	-10.9451
フロ	-10.9456
afc	-10.9457
趣味は	-10.9458
執行	-10.9458
mt	-10.9459
発表された	-10.9461
いし	-10.9462
火災	-10.9462
作者	-10.9464
ichi	-10.9465
注釈	-10.9468
曲目	-10.947
大量	-10.9474
nh	-10.9474
評論家	-10.9474
μ	-10.9475
があるが	-10.9476
警	-10.9479
sy	-10.948
実際に	-10.9481
われた	-10.9484
硬	-10.9486
set	-10.9486
東芝	-10.9487
後継	-10.9487
カンパニー	-10.9492
を学ぶ	-10.9493
高岡	-10.9494
くり	-10.9496
コンセプト	-10.9498
クレジット	-10.9502
戸田	-10.9503
吸	-10.9505
売り	-10.9509
レッ	-10.951
アマ	-10.9511
粟	-10.9512
cur	-10.9515
戦隊	-10.9521
応援	-10.9521
帆	-10.9521
収集	-10.9522
病気	-10.9524
発売元は	-10.9525
西川	-10.9528
グー	-10.9529
正室	-10.9529
プレミアリーグ	-10.953
県にある	-10.953
、1971	-10.9532
ドラゴン	-10.9535
日報	-10.9538
規	-10.9538
するという	-10.9542
コミュニケーション	-10.9544
研究センター	-10.9545
mit	-10.9545
観察	-10.9546
直径	-10.9548
euro	-10.9549
ウォ	-10.9549
ura	-10.955
上場	-10.9553
もともと	-10.9554
head	-10.9558
0-1	-10.956
確保	-10.9561
non	-10.9563
マイク	-10.9565
日本国有鉄道	-10.9567
されると	-10.957
xi	-10.957
検討	-10.9575
島町	-10.9577
エンド	-10.9577
ا	-10.9578
ウイルス	-10.9578
戦線	-10.958
hl	-10.958
を用いる	-10.958
旨	-10.9582
旅団	-10.9583
mas	-10.9583
年表	-10.9585
糖	-10.9589
vin	-10.959
とある	-10.9591
retrieved	-10.9592
化合物	-10.9593
マネジメント	-10.9594
三田	-10.9597
系図	-10.9598
カトリック	-10.96
の場合は	-10.96
ドライバー	-10.96
手紙	-10.9602
高等学校卒業	-10.9603
機体	-10.9604
社名	-10.9605
萩	-10.9606
frac	-10.9608
138	-10.9609
氏が	-10.9613
巨	-10.9614
アリーナ	-10.9615
更	-10.9617
良い	-10.9618
ノート	-10.962
ハード	-10.962
っていない	-10.9623
次男	-10.9624
fan	-10.9624
幌	-10.963
ug	-10.963
近江	-10.9632
修了	-10.9636
山梨	-10.9637
映画祭	-10.9643
int	-10.965
を務めている	-10.965
関数	-10.965
宮本	-10.9653
安田	-10.9655
からも	-10.9658
自宅	-10.9661
小さい	-10.9662
電気鉄道	-10.9666
水泳	-10.9667
強く	-10.9669
おく	-10.967
キャスト	-10.9671
will	-10.9673
最後	-10.9674
簡易	-10.9675
モンテ	-10.9677
less	-10.9677
ハーフ	-10.9678
世紀の	-10.9679
ミッション	-10.9679
陸上競技	-10.968
津軽	-10.968
徒	-10.9682
(1981	-10.9687
二十	-10.9688
ナム	-10.9689
cle	-10.969
車体	-10.9691
社会主義	-10.9692
4-1	-10.9693
シネマ	-10.9693
年の第	-10.9693
ou	-10.9694
上記の	-10.9696
-08	-10.9697
料金	-10.9699
まえ	-10.97
ous	-10.9701
歌う	-10.9705
と思われる	-10.9706
little	-10.9714
朝日新聞社	-10.9714
しろ	-10.9715
松尾	-10.9715
港湾	-10.9716
回衆議院議員総選挙	-10.9717
付けられた	-10.9718
縮	-10.9719
解体	-10.972
荒川	-10.9722
面積は	-10.9724
測定	-10.9724
ショート	-10.9725
舞鶴	-10.9728
同士	-10.9735
年史	-10.9738
ぜ	-10.9738
空気	-10.9739
町内	-10.974
ダービー	-10.9742
come	-10.9746
眞	-10.9746
干	-10.9749
千代	-10.9751
連覇	-10.9751
歴史的	-10.9752
cast	-10.9752
ミュ	-10.9754
山町	-10.9755
金子	-10.9758
山村	-10.9759
say	-10.9761
部品	-10.9761
pat	-10.9761
エロ	-10.9762
のプロフィール	-10.9762
リーナ	-10.9763
type	-10.9763
映	-10.9764
活動を	-10.9765
台風	-10.9765
転換	-10.9766
胤	-10.9766
供	-10.9767
市外局番の一覧	-10.9767
中学校一覧	-10.9769
らと	-10.9769
rum	-10.9769
ao	-10.977
昆虫	-10.9772
兵庫	-10.9776
従来の	-10.9777
uck	-10.9778
大部分	-10.9779
シナ	-10.9781
将来	-10.9782
plus	-10.9782
リーガ	-10.9782
マレーシア	-10.9783
天神	-10.9785
慶応	-10.9785
伊東	-10.9785
求	-10.9787
п	-10.9792
使用する	-10.9792
川上	-10.9793
意見	-10.9794
るため	-10.9798
ré	-10.9799
hd	-10.9801
、1960	-10.9802
三島	-10.9803
jan	-10.9807
個体	-10.9807
職業	-10.9809
島津	-10.9809
練	-10.981
pri	-10.9811
ea	-10.9814
ガード	-10.9815
所有	-10.9816
らしい	-10.9819
安芸	-10.9821
世は	-10.9822
з	-10.9822
days	-10.9824
飼育	-10.9825
1892	-10.9827
知られる	-10.9828
クロー	-10.9829
東京都立	-10.9831
授与	-10.9832
オーディション	-10.9833
司令官	-10.9833
str	-10.9833
構築	-10.9839
1895	-10.9839
完了	-10.9844
ストン	-10.9844
が成立	-10.9844
index	-10.9845
竹内	-10.9846
ร	-10.9847
近い	-10.9848
居住	-10.9848
離婚	-10.985
爆発	-10.9854
ius	-10.9855
屋根	-10.9855
ライヴ	-10.986
ラジオ番組	-10.9861
と契約	-10.9862
リトアニア	-10.9866
気象	-10.9867
隣接するコムーネは以下の通り	-10.9867
1886	-10.9872
新幹線	-10.9873
卓球	-10.9873
したという	-10.988
ミステリー	-10.9882
ぶん	-10.9883
己	-10.9883
経歴	-10.9888
ドーム	-10.9889
添	-10.9889
の弟	-10.9892
文政	-10.9893
であること	-10.9893
で最も	-10.9898
高級	-10.99
作品は	-10.99
近隣	-10.9904
ee	-10.9904
妖怪	-10.9906
ウム	-10.9908
bell	-10.9911
つな	-10.9914
クロアチア	-10.9914
2.5	-10.9915
序	-10.9915
回復	-10.9916
選定	-10.9919
世界遺産	-10.9919
(2)	-10.9923
yl	-10.9923
chu	-10.9924
well	-10.9927
従五位下	-10.9927
辞任	-10.993
sing	-10.993
season	-10.9932
が特徴	-10.9934
さわ	-10.9934
われる	-10.9934
朋	-10.9935
関係者	-10.9936
潜	-10.9936
名義で	-10.9937
放送開始	-10.9938
主宰	-10.9939
変換	-10.9939
sho	-10.994
棚	-10.9941
逸	-10.9941
もあった	-10.9944
ウイ	-10.9944
時代は	-10.9951
ボート	-10.9952
コマ	-10.9957
遅れ	-10.996
に収録されている	-10.9961
長に就任	-10.9964
が高い	-10.9966
主要な	-10.9969
ぷ	-10.9969
1893	-10.9972
東京大学出版会	-10.9972
述	-10.9974
決勝で	-10.9974
track	-10.9975
黄色	-10.9976
トリー	-10.9976
東区	-10.9977
徒歩約	-10.9977
血液型	-10.9981
cross	-10.9981
するまで	-10.9981
ban	-10.9984
として活躍	-10.9984
β	-10.9985
脚本家	-10.9987
高校生	-10.9987
知られている	-10.9987
cn	-10.9987
害	-10.999
旧制	-10.999
賜	-10.9991
(1982	-10.9993
向けの	-10.9994
合併により	-10.9995
チャレンジ	-10.9997
霧	-10.9999
宣伝	-10.9999
福寺	-10.9999
guide	-11
解析	-11.0001
役員	-11.0004
イースト	-11.0004
小田	-11.0009
を行っていた	-11.0011
貢献	-11.0019
を学び	-11.002
コウ	-11.0024
を目指す	-11.0024
ギャ	-11.0025
博多	-11.0028
働	-11.0029
受験	-11.003
7%	-11.0032
に貢献した	-11.0032
ish	-11.0033
信用金庫	-11.0033
アメリカ海軍	-11.0035
別冊	-11.0037
カタ	-11.0037
ted	-11.0037
service	-11.0038
綿	-11.0039
ris	-11.0042
(1984	-11.0045
山陽	-11.0045
チア	-11.0046
ごく	-11.0046
歯科	-11.0048
立て	-11.0048
みな	-11.0048
ハリ	-11.005
}}}	-11.0054
6%	-11.0054
に改名	-11.0059
群馬	-11.006
甲府	-11.0063
村と合併し	-11.0063
ばかり	-11.0063
wave	-11.0065
生没年不詳	-11.0066
ランプ	-11.0068
中央部	-11.0069
sin	-11.0073
qua	-11.0073
福山	-11.0075
ちなみに	-11.0079
セルビア	-11.008
ゆく	-11.0081
新潟市	-11.0083
nan	-11.0087
駅より	-11.0087
gun	-11.009
られて	-11.0093
同一	-11.0095
に参加し	-11.0095
ama	-11.0097
大将	-11.0097
五十	-11.0098
(1989	-11.01
秘書	-11.01
上映	-11.01
ダイヤモンド	-11.0102
。2003	-11.0102
藤沢	-11.0105
灘	-11.0107
藍	-11.0107
mad	-11.0108
炭	-11.0114
978-	-11.0115
メガ	-11.0116
代当主	-11.0117
william	-11.012
初版	-11.0121
に出	-11.0122
たため	-11.0124
特急	-11.0126
條	-11.0127
チリ	-11.0127
てる	-11.0128
street	-11.0129
kw	-11.0131
回大会	-11.0132
下げ	-11.0133
西武	-11.0133
の武将	-11.0134
特許	-11.0135
継ぎ	-11.0135
せき	-11.0141
てしまう	-11.0142
ラント	-11.0142
力を	-11.0142
クライ	-11.0143
功績	-11.0143
の町名	-11.0147
号は	-11.015
針	-11.015
若い	-11.015
を通して	-11.015
衝突	-11.0157
悲	-11.0158
漁	-11.0164
を超える	-11.0164
オレ	-11.0166
平方マイル	-11.017
kai	-11.0172
すぐに	-11.0174
ニス	-11.0174
で放送されていた	-11.0174
駆逐艦	-11.0175
辛	-11.0175
gold	-11.0177
エフエム	-11.0177
隣接	-11.0178
ママ	-11.018
背景	-11.0181
nor	-11.0182
リゾート	-11.0183
内田	-11.0183
aaa	-11.0183
歌謡	-11.0186
自身が	-11.019
始めた	-11.0192
慈	-11.0192
、1968	-11.0195
予選敗退	-11.0196
飾	-11.0199
に勤務	-11.0199
進学	-11.0201
越後	-11.0201
道場	-11.0202
鄭	-11.0203
離れた	-11.0203
つつ	-11.0204
する事	-11.0204
歳の時に	-11.0204
ノフ	-11.0205
同市	-11.0205
出資	-11.0208
銀座	-11.0209
みなみ	-11.021
ネタ	-11.021
富田	-11.0211
活用	-11.0212
two	-11.0212
たる	-11.0213
かに	-11.0214
武器	-11.0216
ンド	-11.0219
tal	-11.022
総延長	-11.0226
協定	-11.0226
chem	-11.023
トランス	-11.0231
栄養	-11.0231
過ごし	-11.0232
場合がある	-11.0232
椎	-11.0233
同期	-11.0234
3%	-11.0234
ことにより	-11.0234
保安	-11.0235
君主	-11.0237
集中	-11.0237
なった	-11.0239
公国	-11.024
を構成する	-11.0243
愛知県道	-11.0246
(1983	-11.0249
人名	-11.0249
国会	-11.0251
girls	-11.0251
大会で	-11.0254
暴	-11.0254
1%	-11.0255
リレー	-11.0256
の戦いで	-11.0256
8%	-11.0258
男爵	-11.0258
ガーデン	-11.0259
エドワード	-11.0261
課題	-11.0261
づくり	-11.0265
にほん	-11.0265
させて	-11.0266
を収録	-11.0267
それは	-11.0272
三河	-11.0273
ブス	-11.0279
直線	-11.0283
を務めていた	-11.0289
ダブル	-11.029
徐	-11.029
繁殖	-11.0292
ani	-11.0295
ي	-11.0296
部に	-11.0297
ポリス	-11.0297
ali	-11.0297
発表した	-11.0298
闇	-11.0298
争い	-11.0301
[2]	-11.0301
山中	-11.0302
郡にあった村	-11.0306
献	-11.0307
スペ	-11.0312
1872	-11.0312
歌唱	-11.0313
近郊	-11.0313
守備	-11.0314
language	-11.0315
行事	-11.0317
脈	-11.0317
に移管	-11.0318
oricon	-11.0319
じょ	-11.032
流域	-11.0322
サッカーリーグ	-11.0326
出馬	-11.0328
name	-11.0329
阪急	-11.033
カップリング曲	-11.0332
暁	-11.0336
懐	-11.034
公表	-11.0343
こん	-11.0343
養成	-11.0343
ボディ	-11.0344
ins	-11.0349
ンス	-11.0352
紗	-11.0354
race	-11.0355
侵攻	-11.0355
までに	-11.0356
109	-11.0357
ピエール	-11.0359
ov	-11.036
ポップ	-11.0362
生成	-11.0363
125	-11.0363
に関しては	-11.0364
秩父	-11.0365
イラク	-11.0365
診断	-11.0367
ツィ	-11.0368
わら	-11.0369
暗殺	-11.037
致	-11.0372
スー	-11.0375
ぐん	-11.0376
機種	-11.0376
トス	-11.0378
黒い	-11.038
腰	-11.0381
軍団	-11.0382
幾	-11.0382
河口	-11.0382
peter	-11.0382
うら	-11.0385
陶	-11.0385
スパ	-11.0385
西暦	-11.0386
副会長	-11.0386
フロント	-11.039
eo	-11.0393
ジャンル	-11.0394
広島市	-11.0398
主力	-11.0401
還	-11.0402
ado	-11.0403
荷	-11.0406
1891	-11.0407
拳	-11.0407
グラフ	-11.0408
簡	-11.0409
日本映画	-11.0412
廃止された	-11.0413
不足	-11.0414
テク	-11.0416
直後	-11.0419
articles	-11.0419
戒	-11.0422
船舶	-11.0423
文学部	-11.0423
ばら	-11.0425
流行	-11.0425
party	-11.0426
山内	-11.0429
商店街	-11.0429
一家	-11.0433
1500	-11.0435
大井	-11.0435
本郷	-11.0436
そば	-11.0438
ジオ	-11.0438
ギャラリー	-11.0439
四丁目	-11.0439
年連続	-11.044
fire	-11.044
ニコ	-11.044
エンタテインメント	-11.0442
かなり	-11.0442
共編著	-11.0445
翌日	-11.0446
かす	-11.0447
グラウンド	-11.0449
。2002	-11.0449
3-1	-11.045
ガラ	-11.045
収録されている	-11.045
町田	-11.0452
国語	-11.0454
拝	-11.0456
フォーク	-11.0457
プライ	-11.0458
癌	-11.0459
1887	-11.0459
中学生	-11.0459
フェア	-11.0459
川越	-11.046
ともいう	-11.046
大きい	-11.0462
業績	-11.0463
ре	-11.0466
開館	-11.0468
段階	-11.0469
を通る	-11.047
合う	-11.0474
小笠原	-11.0477
数字	-11.0477
dar	-11.048
丸山	-11.048
旗本	-11.0481
を代表する	-11.0482
も多く	-11.0482
(1980	-11.0484
ッラ	-11.0484
じま	-11.0485
ロボット	-11.0486
ことも	-11.049
ell	-11.0491
107	-11.0491
1871	-11.0492
フリ	-11.0497
たく	-11.0498
遠征	-11.0498
朝刊	-11.0499
叔父	-11.0499
コア	-11.05
世紀に	-11.05
用途	-11.0503
エクス	-11.0503
丹波	-11.0505
mat	-11.0508
tz	-11.0509
珍	-11.0509
女神	-11.051
浜松	-11.0513
偏	-11.0515
併	-11.0515
ow	-11.0516
水産	-11.0523
地元の	-11.0525
レール	-11.0525
スン	-11.0525
テイ	-11.0527
instagram	-11.0527
mont	-11.0528
京都大学	-11.053
こども	-11.0531
武蔵野	-11.0532
オレンジ	-11.0535
合戦	-11.0536
商店	-11.0536
エド	-11.0537
交代	-11.0538
毛利	-11.054
の長男	-11.054
ラジ	-11.054
サンデー	-11.0543
ゾーン	-11.0543
用いられる	-11.0545
、1969	-11.0547
ブレイ	-11.0549
以	-11.0551
薬品	-11.0552
通じ	-11.0557
収容	-11.0559
故郷	-11.056
があります	-11.0565
single	-11.0566
是	-11.0566
辞	-11.0567
ヒーロー	-11.0569
ネコ	-11.0573
ドライブ	-11.0576
覆	-11.0579
結成された	-11.0581
頂	-11.0581
賞金	-11.0583
議席	-11.0583
キューバ	-11.0585
ベリ	-11.0586
県内	-11.0587
嫌	-11.0587
作品を	-11.059
なぜ	-11.059
日々	-11.0591
町名	-11.0591
ata	-11.0593
わかる	-11.0593
合わせ	-11.0594
取扱	-11.0594
ye	-11.0596
下り	-11.0598
となったが	-11.0598
結局	-11.0598
テレビジョン	-11.0599
日放送	-11.06
曽	-11.0601
木下	-11.0602
ボード	-11.0604
ケーブル	-11.0608
隠居	-11.0608
高島	-11.061
いずれ	-11.061
アプリ	-11.0615
遼	-11.0615
institute	-11.0619
季節	-11.062
地形	-11.0621
室町時代	-11.0625
抜け	-11.0625
成分	-11.0625
くま	-11.0632
創建	-11.0636
保守	-11.0637
投げ	-11.0642
app	-11.0644
研究員	-11.0646
6-2	-11.0647
char	-11.065
たちが	-11.065
区分	-11.0652
身体	-11.0653
を使用する	-11.0653
合わせて	-11.0653
笛	-11.0655
アンナ	-11.0656
asia	-11.0657
資料館	-11.0658
苑	-11.066
伊予	-11.066
帰国	-11.066
use	-11.0661
毅	-11.0664
コロンビア	-11.0665
実績	-11.0666
判決	-11.0667
1885	-11.0667
田原	-11.0672
ブリー	-11.0673
デモ	-11.0674
津市	-11.0675
ро	-11.0675
烈	-11.068
エディ	-11.0685
amp	-11.0688
誰	-11.0688
招待	-11.0689
の乱	-11.069
sweet	-11.069
内には	-11.069
側の	-11.0692
編纂委員会	-11.0694
ぴ	-11.0695
すでに	-11.0697
エコ	-11.0697
の次男	-11.0698
住友	-11.0699
行われている	-11.0699
月曜日	-11.0703
組み	-11.0704
立川	-11.0704
幡	-11.0705
相互	-11.0706
年までは	-11.0708
輸出	-11.071
分解	-11.0713
ボストン	-11.0717
編集部	-11.0718
9%	-11.0719
れない	-11.0719
gue	-11.0719
公開された	-11.0719
存在する	-11.072
緊急	-11.072
三角	-11.0722
麦	-11.0724
ミュー	-11.0724
ができる	-11.0726
家老	-11.0727
存	-11.0727
ele	-11.0728
迷	-11.0729
っこ	-11.0729
原町	-11.073
ノル	-11.0732
戦闘機	-11.0733
逢	-11.0733
足利	-11.0735
ダニエル	-11.0737
に移籍した	-11.0738
隣接する	-11.0742
の間で	-11.0744
via	-11.0745
構想	-11.0746
いか	-11.0748
響	-11.0752
オリンピックでの成績	-11.0754
スピード	-11.0755
番組である	-11.0756
を設け	-11.0757
介護	-11.0757
たら	-11.0757
バイオグラフィーと	-11.0757
ロゴ	-11.0759
レク	-11.0761
で生まれた	-11.0761
に基づき	-11.0762
ль	-11.0764
鞍	-11.0764
交響楽団	-11.0765
メジャーデビュー	-11.0765
アナログ	-11.0765
と合併し	-11.0766
終了した	-11.0766
品種	-11.0767
ガリ	-11.0767
フォト	-11.0769
鶏	-11.0769
南方	-11.0769
大佐	-11.077
絵本	-11.077
release	-11.0774
退任	-11.0777
煙	-11.0779
甥	-11.0779
共産党	-11.0781
町字	-11.0781
認識	-11.0781
工芸	-11.0782
ファイナル	-11.0783
茨城	-11.0783
日向	-11.0784
db	-11.0784
準決勝	-11.0787
エピソード	-11.0789
]。	-11.079
最上	-11.0791
hal	-11.0791
アブ	-11.0792
lar	-11.0792
船橋	-11.0792
多くは	-11.0794
通称は	-11.0794
バート	-11.0795
4-0	-11.0798
授	-11.08
1884	-11.08
が運営する	-11.0801
ッキー	-11.0803
血液型は	-11.0804
抵抗	-11.0804
サマー	-11.0806
に移り	-11.0809
ボス	-11.081
camp	-11.081
dc	-11.0811
トウ	-11.0814
発明	-11.0814
軍は	-11.0815
戦国時代	-11.0817
方針	-11.0817
baby	-11.0818
行われる	-11.082
子が	-11.0822
137	-11.0825
マキ	-11.0825
伊賀	-11.0826
っち	-11.0831
立国会図書館デジタルコレクション	-11.0832
すい	-11.0834
いたが	-11.0835
性質	-11.0836
大使館	-11.0836
ェ	-11.0837
スポット	-11.0839
回目の	-11.084
愛媛	-11.0842
ミュンヘン	-11.0844
に出場した	-11.0845
位で	-11.0848
學	-11.0848
防止	-11.0849
zz	-11.085
this	-11.0852
されること	-11.0852
学研究科	-11.0853
レディ	-11.0853
と言われている	-11.0854
stra	-11.0855
書記	-11.0857
nis	-11.0858
代表として	-11.0859
広瀬	-11.0859
資本	-11.0862
108	-11.0863
寛政	-11.0863
落語	-11.0865
津田	-11.0865
の中に	-11.0866
ami	-11.0869
は以下の通り	-11.0873
古川	-11.0877
nasa	-11.088
そこ	-11.0881
青い	-11.0882
ロイド	-11.0884
、1967	-11.0887
に用いられる	-11.0888
トラン	-11.0888
時から	-11.0888
1894	-11.0889
far	-11.0892
締結	-11.0893
ゲート	-11.0897
リトル	-11.0897
-04	-11.09
年の音楽	-11.0902
クルー	-11.0903
750	-11.0904
八木	-11.0906
忘れ	-11.091
頃に	-11.0912
マップ	-11.0913
kh	-11.0913
彼女の	-11.0913
ファル	-11.0913
ジョーンズ	-11.0913
。2001	-11.0915
日高	-11.0915
近衛	-11.0918
姫路	-11.0918
恒星	-11.0921
三条	-11.0921
ves	-11.0922
元気	-11.0923
メタル	-11.0923
恵子	-11.0924
水曜	-11.0924
太子	-11.0926
盛り	-11.0927
あゆみ	-11.0932
ジア	-11.0933
ヲ	-11.0934
人工	-11.0936
武装	-11.0938
mv	-11.094
敷地	-11.0941
発言	-11.0941
aa	-11.0946
bank	-11.0947
kt	-11.0948
第一次世界大戦	-11.0949
を記録	-11.0952
そんな	-11.0953
心理	-11.0953
cra	-11.0956
東京堂出版	-11.0956
anti	-11.0956
爾	-11.0957
ヴィルヘルム	-11.0963
跡地	-11.0963
106	-11.0963
人材	-11.0965
出来る	-11.0966
8,	-11.0966
使用される	-11.0967
一般的な	-11.0968
模	-11.0968
杜	-11.097
譲渡	-11.097
南町	-11.0976
wood	-11.0978
衡	-11.0979
taka	-11.0981
ニュ	-11.0984
巻第	-11.0984
ソース	-11.0988
4%	-11.0988
講義	-11.0989
が行われている	-11.099
に属し	-11.099
あや	-11.0991
有機	-11.0992
終了後	-11.0993
わが	-11.0994
ann	-11.0995
浄	-11.0996
区にある	-11.0996
このとき	-11.0998
耐	-11.1
鉱山	-11.1001
pon	-11.1002
م	-11.1003
国立公園	-11.1004
ワーク	-11.1006
year	-11.1006
上昇	-11.1007
ラヴ	-11.1007
パイロット	-11.1011
によっては	-11.1014
抄	-11.1016
で初	-11.1017
生きる	-11.1017
ness	-11.1019
中退	-11.102
で約	-11.102
タール	-11.1023
ウォーター	-11.1024
数が	-11.1024
主張	-11.1025
コーン	-11.1025
初回	-11.1027
スコット	-11.1027
芸人	-11.1027
演技	-11.1028
コンテンツ	-11.1028
チョン	-11.1028
次元	-11.1029
刈	-11.103
を描く	-11.1031
道具	-11.1031
museum	-11.1032
実況	-11.1034
潟	-11.1035
レーション	-11.1036
spi	-11.1037
登山	-11.1038
gk	-11.1039
マール	-11.1039
バッ	-11.1041
lee	-11.1041
径	-11.1042
こうとうがっこう	-11.1042
走行	-11.1048
負	-11.1048
自殺	-11.1049
stan	-11.105
ise	-11.105
行く	-11.1051
royal	-11.1052
第五	-11.1052
に復帰	-11.1055
ライセンス	-11.1056
sco	-11.1057
初演	-11.1059
アラビア語	-11.1061
バレエ	-11.1062
ora	-11.1062
во	-11.1066
目に	-11.1068
-19	-11.1068
議会議員	-11.107
pol	-11.1074
白山	-11.1075
法学	-11.1077
張り	-11.1079
trans	-11.1079
尺	-11.108
配給	-11.108
愛称	-11.1083
1878	-11.1084
nec	-11.1085
は主に	-11.1085
墨	-11.1085
george	-11.1087
那覇	-11.109
gon	-11.1093
始まり	-11.1093
史跡	-11.1094
新井	-11.1095
研究室	-11.1096
ラーメン	-11.1097
ベストアルバム	-11.1098
位となった	-11.1099
渕	-11.11
north	-11.1101
1874	-11.1108
シート	-11.1109
グッド	-11.111
中将	-11.1112
疾患	-11.1114
することが	-11.1118
列伝第	-11.1118
小路	-11.1119
が見られる	-11.112
植民地	-11.1121
披露	-11.1122
唱	-11.1122
わない	-11.1124
what	-11.1124
キャンペーン	-11.1124
sel	-11.1127
平田	-11.113
tes	-11.113
games	-11.113
col	-11.1131
after	-11.1132
先行	-11.1133
旭川	-11.1134
参考	-11.1135
常に	-11.1138
歳没	-11.1141
シングル曲	-11.1141
ニッ	-11.1141
再放送	-11.1142
ナウ	-11.1147
得意	-11.1151
が異なる	-11.1152
舌	-11.1154
保育園	-11.1155
ini	-11.1156
村山	-11.1156
パッ	-11.116
人事興信録	-11.116
義務	-11.116
普	-11.1161
期生	-11.1163
ドイツ語版	-11.1164
日本の元	-11.1165
裁判所	-11.1167
を発表した	-11.1168
幹部	-11.1168
hard	-11.1169
パッケージ	-11.1169
登板	-11.117
ハイム	-11.117
jst	-11.1171
したものである	-11.1176
百合	-11.1176
に進出	-11.1177
禄	-11.1178
中期	-11.1179
新規	-11.1182
瞳	-11.1182
レポート	-11.1184
ポルトガル語	-11.1185
戦国	-11.1187
でもあった	-11.1192
果実	-11.1193
遷	-11.1198
農業協同組合	-11.1198
トニー	-11.1199
するための	-11.1201
ical	-11.1202
law	-11.1203
救	-11.1203
と改名	-11.1207
に移行	-11.1209
ギン	-11.1212
ライダー	-11.1213
婚	-11.1215
リミックス	-11.1218
詩集	-11.122
松江	-11.122
狼	-11.1221
津町	-11.1221
藩士	-11.1225
受信	-11.1228
セントラル	-11.1229
bri	-11.123
по	-11.1237
伊那	-11.1241
チェーン	-11.1243
釣り	-11.1245
チームは	-11.1246
殺害	-11.1248
体系	-11.1249
を持っている	-11.1249
大学卒業後	-11.125
二代目	-11.1251
ヴィア	-11.1251
売却	-11.1252
作品である	-11.1255
fw	-11.1255
八戸	-11.1257
full	-11.1259
“「	-11.1259
立地	-11.1259
-05	-11.126
勅	-11.126
happy	-11.1261
bur	-11.1262
書かれた	-11.1264
されなかった	-11.1264
楼	-11.1265
毎日放送	-11.1265
不定期	-11.1266
過程	-11.1269
停車	-11.1269
kar	-11.1269
rat	-11.1275
傾向	-11.1276
:54	-11.1278
発電	-11.1279
マンション	-11.1279
巻き	-11.128
rio	-11.1283
繋	-11.1284
ship	-11.1284
完全に	-11.1284
既に	-11.1286
オオ	-11.1288
ストロ	-11.1288
の略称	-11.1291
引退した	-11.1292
の死後	-11.1293
rec	-11.1294
spec	-11.1295
萬	-11.1296
言う	-11.1296
ペー	-11.1297
わず	-11.1297
テレビ放送	-11.1301
ピアニスト	-11.1302
郡山	-11.1304
八代	-11.1304
状の	-11.1308
ドゥー	-11.131
違	-11.131
fin	-11.1312
落成	-11.1312
ada	-11.1313
4-5	-11.1314
ple	-11.1317
ella	-11.1319
roll	-11.132
イラ	-11.1322
miss	-11.1324
geo	-11.1324
中原	-11.1324
メチル	-11.1324
墓地	-11.1325
最初	-11.1328
唯一	-11.1329
島村	-11.1337
が決定	-11.1339
ストーン	-11.1341
arm	-11.1342
はる	-11.1343
記念館	-11.1343
詳細は	-11.1344
水上	-11.1347
開拓	-11.1347
global	-11.1349
公益財団法人	-11.1349
号機	-11.1351
総選挙	-11.1354
女子大学	-11.1358
使われ	-11.1358
py	-11.1359
両方	-11.1359
itz	-11.1359
its	-11.1361
cher	-11.1362
カッ	-11.1364
ーレ	-11.1365
新編	-11.1366
寄り	-11.1369
に関して	-11.1369
当て	-11.1369
(1979	-11.1369
先発	-11.1369
放映	-11.1371
名前は	-11.1372
パフォーマンス	-11.1372
三好	-11.1376
、1966	-11.1376
宮殿	-11.1376
約束	-11.1377
冬季	-11.1378
囲	-11.1379
но	-11.138
ユーザー	-11.1383
弘前	-11.1383
nas	-11.1384
大森	-11.1384
ドコモ	-11.1385
トップチーム	-11.1385
dai	-11.1386
那須	-11.1391
oli	-11.1394
盛岡	-11.1394
の中では	-11.1395
選手団	-11.1397
ever	-11.1397
衣装	-11.1399
日外アソシエーツ	-11.1399
申請	-11.1403
せた	-11.1403
出土	-11.1404
小学	-11.1404
nc	-11.1404
場合には	-11.1406
若手	-11.1407
34.	-11.1408
シニア	-11.1408
magazine	-11.141
の基礎	-11.141
ь	-11.1413
ラップ	-11.1414
制覇	-11.1416
横断	-11.1418
乙女	-11.1418
嫁	-11.1418
、1965	-11.1419
地獄	-11.142
一般社団法人	-11.142
award	-11.1421
ミラー	-11.1421
ニール	-11.1422
科学技術	-11.1422
はアメリカ合衆国	-11.1423
master	-11.1423
少将	-11.1424
促進	-11.1424
base	-11.1425
1879	-11.1427
明治時代	-11.1428
郊外	-11.1429
south	-11.143
mes	-11.1432
ネオ	-11.1433
しも	-11.1435
コーポレーション	-11.1439
明石	-11.144
世が	-11.1443
橋梁	-11.1443
ということ	-11.1444
商事	-11.1446
窪	-11.1448
先に	-11.1449
公式戦	-11.1449
“【	-11.145
bus	-11.1451
メリ	-11.1453
オロ	-11.1454
蒼	-11.1456
上部	-11.1456
佑	-11.1459
ゆかり	-11.1459
すべての	-11.1459
晩	-11.1462
ls	-11.1462
ova	-11.1463
japanese	-11.1463
十字	-11.1465
野球部	-11.1466
スケ	-11.1466
提唱	-11.1467
高崎	-11.1467
eg	-11.1468
同上	-11.1468
。1999	-11.1469
インチ	-11.1469
安政	-11.1469
ターン	-11.1473
定着	-11.1474
ν	-11.148
ボーナス	-11.1483
ハンドボール	-11.1483
sr	-11.1486
map	-11.1488
であったため	-11.149
食べ	-11.149
当該	-11.1497
創作	-11.1497
大阪府大阪市	-11.1498
ong	-11.15
ヶ谷	-11.15
新築	-11.1501
lg	-11.1501
main	-11.1502
ピンク	-11.1502
学部教授	-11.1502
の愛称	-11.1503
自社	-11.1505
ミラノ	-11.1505
rain	-11.1505
手術	-11.1506
に所属し	-11.1508
撤退	-11.1511
ef	-11.1514
color	-11.1516
有斐閣	-11.1516
開業した	-11.1516
町役場	-11.1518
med	-11.152
内容は	-11.1529
ボウ	-11.1534
河野	-11.1535
すみ	-11.1536
zen	-11.1538
廃駅	-11.1539
進化	-11.1539
インディーズ	-11.154
世帯数	-11.154
代表作	-11.1541
閉校	-11.1542
era	-11.1543
λ	-11.1546
修理	-11.1549
べき	-11.155
総督	-11.1551
ゼー	-11.1559
に含まれる	-11.156
医薬品	-11.1564
グローバル	-11.1564
コーヒー	-11.1565
瓦	-11.1566
ルズ	-11.1566
か月	-11.1566
相模	-11.1567
初当選	-11.1569
ough	-11.1569
罰	-11.1571
解釈	-11.1574
アナウンス	-11.1576
帖	-11.1579
por	-11.1587
売上	-11.1587
を作り	-11.159
明日	-11.1591
1888	-11.1591
360	-11.1592
資産	-11.1593
now	-11.1594
永禄	-11.1595
名簿	-11.1595
、1964	-11.1596
法政大学	-11.1596
巨人	-11.1597
ることができる	-11.1597
accessed	-11.1598
^{	-11.1601
スケート	-11.1603
anna	-11.1603
б	-11.1603
製作所	-11.1606
開店	-11.1607
ギュ	-11.1608
ene	-11.161
離脱	-11.161
彫刻	-11.1614
鮮	-11.1614
本拠地	-11.1616
チル	-11.1618
小田原	-11.1619
ダンサー	-11.1622
1-0	-11.1624
浅草	-11.1624
赤坂	-11.1626
ひさ	-11.1627
抜き	-11.1627
プス	-11.1632
planet	-11.1633
を学んだ	-11.1633
航海	-11.1636
1-3	-11.1636
尾崎	-11.1636
pal	-11.1637
使われた	-11.1639
訪問	-11.1642
斜	-11.1642
韻	-11.1645
本堂	-11.1647
初勝利	-11.1647
技能	-11.1648
それが	-11.1654
ブライアン	-11.1655
espn	-11.1656
鋭	-11.1657
婦人	-11.1658
改築	-11.1658
系譜	-11.1661
装飾	-11.1663
etc	-11.1664
了	-11.1667
疑	-11.1667
トール	-11.1668
と考え	-11.1669
時間帯	-11.167
相当	-11.167
暫定	-11.1671
准教授	-11.1671
大公	-11.1672
学位	-11.1673
ッソ	-11.1674
水路	-11.1674
タケ	-11.1674
福岡市	-11.1675
ひがし	-11.1675
同名の	-11.1676
cla	-11.1679
使い	-11.1679
能登	-11.168
リニューアル	-11.1681
設立された	-11.1682
新町	-11.1682
中田	-11.1682
個の	-11.1686
絶対	-11.1691
イズ	-11.1693
当地	-11.1696
定員	-11.1698
ال	-11.1698
リバー	-11.1702
できなかった	-11.1702
人たち	-11.1702
ホンダ	-11.1703
大田	-11.1704
と呼ばれている	-11.1704
entertainment	-11.1705
欄	-11.1705
に向かって	-11.1706
扉	-11.1707
に参戦	-11.1708
援助	-11.1708
カップリング	-11.1709
セラ	-11.1709
門下	-11.171
rei	-11.171
尉	-11.1712
透	-11.1717
163	-11.1718
アダム	-11.1719
結晶	-11.1719
単に	-11.172
ブン	-11.1721
主要地方道	-11.1722
that	-11.1722
設	-11.1726
長編	-11.1727
で行われる	-11.1728
半分	-11.1729
1876	-11.1731
おき	-11.1734
状に	-11.1735
健一	-11.1735
喜多	-11.1738
隅	-11.174
ст	-11.174
6-1	-11.1741
朝倉	-11.1741
石原	-11.1742
下野	-11.1747
ローン	-11.1747
怪	-11.1747
1880	-11.1747
深く	-11.1748
画面	-11.1748
炭素	-11.175
ри	-11.1751
伸び	-11.1751
等で	-11.1754
音響	-11.1755
ハウ	-11.1755
people	-11.1756
徳川家	-11.1756
see	-11.1756
スポ	-11.1756
research	-11.1756
レジ	-11.1757
ens	-11.1758
ロックバンド	-11.1761
存続	-11.1762
老人	-11.1764
年後の	-11.1765
監視	-11.1766
全員	-11.1766
関西テレビ	-11.1767
に従事	-11.1768
中学校に通う場合	-11.1768
に設置された	-11.177
ans	-11.1772
ade	-11.1773
の略	-11.1773
こそ	-11.1778
使用されている	-11.1778
選書	-11.1779
退官	-11.1779
大規模な	-11.1784
用いられた	-11.1784
を引き	-11.1786
フロー	-11.1787
マリン	-11.1788
財務	-11.1789
350	-11.1789
を歴任	-11.179
bro	-11.1791
創業者	-11.1791
プロレスラー	-11.1791
に生まれ	-11.1794
cul	-11.1794
に取り	-11.1798
general	-11.1798
ジル	-11.1802
action	-11.1805
村が	-11.1811
ニエ	-11.1812
よりアーカイブ	-11.1812
ものと	-11.1812
bay	-11.1814
魯	-11.1814
σ	-11.1819
レオン	-11.1819
続いて	-11.182
bass	-11.182
mini	-11.1821
へい	-11.1822
合意	-11.1824
コパ	-11.1826
学問	-11.1828
蝶	-11.1828
篠	-11.1829
きっかけ	-11.1829
壮	-11.1829
(2005)	-11.1831
園芸	-11.1832
ure	-11.1833
まき	-11.1834
タキ	-11.1834
播磨	-11.1834
を新設	-11.1838
ウラ	-11.1838
ford	-11.1839
東京帝国大学	-11.184
ative	-11.1843
駐屯地	-11.1846
野菜	-11.1847
逃れ	-11.1848
いで	-11.1848
雀	-11.1848
誕生した	-11.1849
わり	-11.1849
出発	-11.185
♪	-11.1851
じゅん	-11.1852
cap	-11.1854
gan	-11.1854
に進学	-11.1854
chen	-11.1855
軟	-11.1855
環状線	-11.1856
cin	-11.1856
小泉	-11.1859
こちら	-11.1859
バイエルン	-11.186
イド	-11.186
マツ	-11.1861
永遠	-11.1861
します	-11.1861
elle	-11.1862
落選	-11.1863
マイクロ	-11.1864
network	-11.1864
に出場し	-11.1864
チェル	-11.1866
ドキュメンタリー	-11.1868
中区	-11.1868
日現在の世帯数と人口	-11.1869
sil	-11.1871
他にも	-11.1873
苗	-11.1873
下流	-11.1874
がいた	-11.1875
richard	-11.1876
シナリオ	-11.1877
train	-11.1879
ッパ	-11.1879
感じ	-11.188
景観	-11.1881
金メダル	-11.1882
わる	-11.1883
っか	-11.1884
払	-11.1886
動作	-11.1887
用に	-11.189
」”.	-11.1891
同様に	-11.1891
グラフィック	-11.1892
出演している	-11.1894
証明	-11.1896
ラック	-11.1896
149	-11.1896
clip	-11.1897
限り	-11.1898
角川	-11.19
マジック	-11.19
発掘	-11.1901
初優勝	-11.1902
タンク	-11.1903
大日本	-11.1904
と言われる	-11.1907
ハッ	-11.1908
ユニオン	-11.191
ρ	-11.1911
トリオ	-11.1912
ш	-11.1912
神奈川県横浜市	-11.1913
164	-11.1914
巴	-11.1915
charts	-11.1917
別府	-11.1918
高等学校一覧	-11.1919
bad	-11.192
sn	-11.1921
遊び	-11.1922
くろ	-11.1922
所長	-11.1923
踊り	-11.1923
事業所	-11.1924
渡り	-11.1926
kbs	-11.1928
投稿	-11.193
3.5	-11.1932
dictionary	-11.1934
東山	-11.1934
歌舞伎	-11.1934
気筒	-11.1935
領主	-11.1935
ゆり	-11.1936
はん	-11.1937
特別支援学校	-11.1937
サウス	-11.1938
に戻り	-11.1939
創設された	-11.1939
を認め	-11.1942
佐世保	-11.1942
でない	-11.1943
過去に	-11.1947
遺伝子	-11.1948
sv	-11.1948
hat	-11.1949
plan	-11.1949
なみ	-11.1949
で第	-11.1951
浅野	-11.1954
上げた	-11.1956
はほとんど	-11.1957
に終わった	-11.1957
日時点のオリジナル	-11.1958
前橋	-11.1958
のサッカー選手	-11.1959
確定	-11.1961
虚	-11.1961
曲が	-11.1961
ave	-11.1963
大原	-11.1964
站	-11.1965
獄	-11.1966
セス	-11.1968
174	-11.1969
十三	-11.1972
久留米	-11.1973
装甲	-11.1976
hill	-11.1977
司令部	-11.1977
つまり	-11.1978
次第に	-11.198
合流	-11.1981
ケア	-11.1981
sm	-11.1983
ва	-11.1983
村田	-11.1984
かし	-11.1984
ロッ	-11.1985
に向けて	-11.1986
グラス	-11.1987
ばし	-11.1987
河合	-11.1988
県都	-11.1991
現在でも	-11.1991
棋士	-11.1992
ミニアルバム	-11.1992
降格	-11.1994
白川	-11.1994
質量	-11.1995
王立	-11.1996
日本海	-11.1996
学長	-11.1997
新曲	-11.1998
郁	-11.1998
oo	-11.1999
martin	-11.2
分裂	-11.2
死亡した	-11.2002
丘陵	-11.2007
止	-11.2008
すべき	-11.2009
大内	-11.201
encyclopedia	-11.201
わった	-11.2012
めん	-11.2013
ヒロ	-11.2014
コメント	-11.2015
障害者	-11.2015
相模原	-11.2019
効率	-11.202
兵士	-11.202
軍が	-11.2022
地理	-11.2023
もっとも	-11.2023
久米	-11.2024
大蔵	-11.2025
どこ	-11.2025
放射	-11.2028
するもの	-11.2029
流れる	-11.2032
kl	-11.2032
は不明	-11.2034
競輪	-11.2036
生放送	-11.2037
牧野	-11.2037
緑色	-11.2039
ein	-11.2039
以前の	-11.204
cro	-11.2041
夜間	-11.2041
捨て	-11.2044
溶	-11.2047
thomas	-11.2047
灰	-11.2047
生息	-11.2048
過ぎ	-11.2051
愛称は	-11.2052
均	-11.2055
、1963	-11.2055
星野	-11.2056
の中から	-11.2057
2.0	-11.2058
0.5	-11.2059
しばらく	-11.2059
ml	-11.2061
写真集	-11.2061
キャンプ	-11.2066
wan	-11.2066
などから	-11.2066
上がり	-11.2067
とみ	-11.2068
買い	-11.207
シャルル	-11.207
機会	-11.2071
調理	-11.2072
牧場	-11.2073
谷村	-11.2074
変遷	-11.2075
自転車競技	-11.2077
たちは	-11.2078
ぱ	-11.2078
医療機関	-11.2079
は全て	-11.2079
枚目のアルバム	-11.2083
で活躍	-11.2083
マニ	-11.2083
俳句	-11.2083
曽根	-11.2084
force	-11.2084
リク	-11.2087
とく	-11.2087
包囲	-11.2092
指摘	-11.2096
names	-11.2098
rus	-11.2099
亡くなった	-11.2102
bit	-11.2102
小屋	-11.2103
くに	-11.2104
able	-11.2104
本作は	-11.2107
の意	-11.2109
直前	-11.211
帰還	-11.2111
日産	-11.2112
乾燥	-11.2115
を卒業後	-11.2118
略称は	-11.2119
ロードレース	-11.212
尼	-11.212
iucn	-11.2123
作画	-11.2123
航路	-11.2124
ざわ	-11.2124
が合併し	-11.2128
切れ	-11.2129
を導入	-11.2129
町長	-11.213
予備	-11.2132
ement	-11.2132
買収	-11.2134
がなく	-11.2135
neo	-11.2135
権を	-11.2137
朴	-11.2139
原子力	-11.2139
ミリ	-11.2141
ぎょう	-11.2141
優れた	-11.2144
プリンス	-11.2145
ルカ	-11.2145
垂	-11.2145
の前身	-11.2146
とよ	-11.2151
น	-11.2151
出走	-11.2151
感染	-11.2152
鳩	-11.2157
リウム	-11.2157
町域	-11.2157
クレー	-11.2159
稿	-11.216
exp	-11.216
比例	-11.2161
ケット	-11.2162
攻め	-11.2162
ギタリスト	-11.2164
2%	-11.2165
祝日	-11.2166
技術者	-11.217
ツォ	-11.2171
内にある	-11.2173
倉庫	-11.2173
ファイ	-11.2174
川島	-11.2175
香川	-11.2179
編入	-11.2182
元々	-11.2183
小学校と改称	-11.2184
日光	-11.2184
シロ	-11.2187
再現	-11.2187
遺産	-11.2188
を受賞した	-11.2188
表紙	-11.2189
ッコ	-11.219
側面	-11.219
鑑賞	-11.2192
ミズ	-11.2193
を重ね	-11.2193
エラ	-11.2193
に入って	-11.2195
ッキング	-11.2196
エリザベス	-11.2197
甲子園	-11.2198
事を	-11.2199
牧師	-11.2202
防災	-11.2209
マーケティング	-11.2212
ニューヨーク州	-11.2213
next	-11.2215
ボブ	-11.2217
柿	-11.2221
円形	-11.2223
種子	-11.2223
、1950	-11.2223
オフィシャル	-11.2224
時代には	-11.2227
bird	-11.2227
海老	-11.2227
試み	-11.2229
find	-11.2232
ヴォーカル	-11.2233
気候	-11.2233
ギル	-11.2235
富士見	-11.2235
ón	-11.2235
物を	-11.2236
子は	-11.2238
んじ	-11.2239
訴訟	-11.2239
ι	-11.2239
タム	-11.2239
を持った	-11.2241
リアル	-11.2242
was	-11.2242
それに	-11.2243
小学生	-11.2243
殺人事件	-11.2244
スラ	-11.2247
農民	-11.2249
npo	-11.2249
言い	-11.2254
アントニオ	-11.2256
良く	-11.2257
プレミアム	-11.2257
river	-11.2258
頭部	-11.2262
スキー場	-11.2263
つくば	-11.2264
ムシ	-11.2268
生物学	-11.2269
服部	-11.227
応募	-11.227
編集長	-11.2273
日本の政治家	-11.2273
アイス	-11.2274
進む	-11.2274
歌人	-11.2275
筑波大学	-11.2275
宝塚歌劇団	-11.2276
(1976	-11.2278
解除	-11.2279
complete	-11.2279
š	-11.2281
やく	-11.2281
日号	-11.2282
アイランド	-11.2284
音楽院	-11.2285
整理	-11.2286
クール	-11.2288
欧州選手権	-11.2289
ッグ	-11.2289
統括	-11.2291
グレー	-11.2292
されない	-11.2295
104	-11.2296
引用	-11.2297
wind	-11.2298
永井	-11.2298
文化庁	-11.2299
いだ	-11.23
を得	-11.23
になっていた	-11.2302
フラワー	-11.2303
北九州	-11.2306
隔	-11.2307
間で	-11.2308
現実	-11.2309
oka	-11.2309
不参加	-11.2309
ر	-11.2311
都市計画	-11.2311
大石	-11.2314
burg	-11.2315
務め	-11.2315
call	-11.2321
と結婚した	-11.2321
くなる	-11.2322
損	-11.2322
明治大学	-11.2325
火曜	-11.2326
met	-11.2327
リカ	-11.233
mos	-11.233
望遠鏡	-11.233
ハナ	-11.2331
製の	-11.2334
セックス	-11.2335
just	-11.2335
1,000	-11.2335
判断	-11.234
モト	-11.2342
室内	-11.2343
工藤	-11.2344
ベック	-11.2345
実際には	-11.2345
ola	-11.2345
ウィキメディア	-11.2345
北西部	-11.2347
製作された	-11.2348
mai	-11.2348
コミューン	-11.2349
郡は	-11.2354
tai	-11.2354
停	-11.2354
かる	-11.2355
、1962	-11.2356
オンライン整数列大辞典の数列	-11.2356
できず	-11.2357
ラリー	-11.2357
eri	-11.2358
都市圏	-11.2359
-21	-11.2359
織田	-11.2361
に際して	-11.2362
vis	-11.2362
国籍	-11.2364
武帝	-11.2365
補佐	-11.2366
ことになった	-11.2367
リリースした	-11.2368
記述する	-11.2368
皇子	-11.2368
美人	-11.237
ワル	-11.237
アルコール	-11.2372
教区	-11.2375
聞き	-11.2376
バカ	-11.2376
終わり	-11.2378
合格	-11.2378
婦	-11.238
稀	-11.238
労働組合	-11.238
を使う	-11.238
停車場	-11.2381
マルチ	-11.2383
タク	-11.2383
ли	-11.2383
れて	-11.2383
誘導	-11.2384
公式プロフィール	-11.2385
本田	-11.2386
レート	-11.2387
医科大学	-11.2387
結び	-11.2388
町となる	-11.2389
の地位	-11.2393
成果	-11.2393
選手として	-11.2395
換	-11.2395
を下	-11.2396
酒造	-11.2399
の軍人	-11.24
レイン	-11.2402
ウォン	-11.2402
»	-11.2403
4000	-11.2404
八王子	-11.2404
sai	-11.2406
paris	-11.2408
メトロ	-11.2409
十郎	-11.2409
蕭	-11.241
ヒロイン	-11.2412
はな	-11.2412
に位置している	-11.2412
に転	-11.2412
イア	-11.2413
期に	-11.2416
4-7	-11.242
増刊	-11.242
、1959	-11.2424
総会	-11.2425
stein	-11.2425
美容	-11.2425
ロケ	-11.2426
村廃止	-11.2427
を使った	-11.2428
代表的な	-11.2429
code	-11.243
カリフォルニア	-11.2433
iss	-11.2433
001	-11.2434
隋	-11.2434
もち	-11.2435
以外	-11.2435
峯	-11.2436
ska	-11.2437
ヴォル	-11.2438
登場する	-11.2441
リップ	-11.2442
レスリング	-11.2442
供用開始	-11.2442
コメディ	-11.2442
提携	-11.2445
ブリッジ	-11.2445
国立国会図書館	-11.2445
hand	-11.2448
麻雀	-11.2451
かない	-11.2451
若者	-11.2452
工作	-11.2455
伏見	-11.2456
隊長	-11.2457
年以上	-11.2457
スカウト	-11.2459
融	-11.2464
権力	-11.2467
隈	-11.2469
岡村	-11.247
拠	-11.2471
ゃ	-11.2473
に基づいて	-11.2473
みん	-11.2474
)、『	-11.2476
wer	-11.2477
洪	-11.248
北村	-11.2481
なければ	-11.2482
エンジェル	-11.2482
二重	-11.2484
宇治	-11.2484
テクノ	-11.2486
147	-11.2487
チェロ	-11.2487
機動	-11.2487
基盤	-11.2487
х	-11.2489
野口	-11.2491
任意	-11.2491
串	-11.2496
線と	-11.2496
年代から	-11.2496
内藤	-11.2497
技師	-11.2498
年代後半	-11.2499
セカンド	-11.2501
まとめ	-11.2501
zy	-11.2502
work	-11.2502
公民館	-11.2502
モント	-11.2503
三宅	-11.2505
警視庁	-11.2505
外部	-11.2506
瓶	-11.2508
some	-11.251
この地	-11.2511
少ない	-11.2512
関与	-11.2512
bert	-11.2513
叙	-11.2514
写真家	-11.2515
出版部	-11.2516
ものであった	-11.252
を起こし	-11.252
リヤ	-11.2521
態	-11.2521
コレ	-11.2522
素材	-11.2523
。1990	-11.2523
齢	-11.2523
時代から	-11.2524
sti	-11.2525
平成元年	-11.2526
差し	-11.2528
ц	-11.2528
到着	-11.2529
フード	-11.2529
break	-11.2531
late	-11.2532
(1977	-11.2536
を開発	-11.2536
米子	-11.2536
ある日	-11.2538
改称	-11.2538
町村制の施行により	-11.254
photo	-11.2545
巳	-11.2546
atm	-11.255
fish	-11.255
ε	-11.2551
施	-11.2551
自民党	-11.2552
1882	-11.2552
代行	-11.2553
お笑い	-11.2557
タリ	-11.2558
高校時代	-11.2559
貢	-11.2559
日にかけて	-11.2559
有力	-11.2559
テープ	-11.256
micro	-11.2562
裸	-11.2562
てつ	-11.2562
ペルー	-11.2564
タラ	-11.2564
ジロ	-11.2565
ふれあい	-11.2565
こい	-11.2565
寛文	-11.2565
異動	-11.2567
現役引退	-11.2568
引退後は	-11.2569
考古学	-11.2569
ドラムス	-11.2573
が発表された	-11.2574
自主	-11.2577
を採用	-11.2579
1869	-11.258
ラート	-11.2581
共有	-11.2583
回数	-11.2583
拒否	-11.2587
メタ	-11.2587
発売した	-11.2589
def	-11.2589
曲を	-11.2591
おい	-11.2593
いけ	-11.2594
bla	-11.2596
組み合わせ	-11.2599
椿	-11.2599
(1975	-11.2599
国際映画祭	-11.2599
降り	-11.2605
この地域	-11.2606
補助	-11.2606
class	-11.2607
じんじゃ	-11.2607
前半	-11.2607
ノイ	-11.2608
和名	-11.2609
されたもの	-11.2609
飼	-11.2611
天国	-11.2612
4-6	-11.2613
麓	-11.2614
追放	-11.2614
に選出された	-11.2615
哀	-11.2618
込んで	-11.2619
屈	-11.262
上越	-11.2625
によるもの	-11.2625
ギリシア	-11.2625
野球場	-11.2626
王妃	-11.2627
ジョンソン	-11.2627
チベット	-11.2627
出された	-11.2629
トゥル	-11.2629
ヒー	-11.2633
ータ	-11.2634
、1961	-11.2636
(1978	-11.2636
ディオ	-11.2637
京阪	-11.2637
シマ	-11.2638
、1958	-11.2638
charles	-11.2641
まった	-11.2643
付近に	-11.2645
(2003)	-11.2645
ブロン	-11.2645
スプ	-11.2651
名鑑	-11.2651
低下	-11.2654
戦士	-11.2655
広い	-11.2656
ユダヤ人	-11.2658
library	-11.2659
してしまう	-11.2661
ローラ	-11.2663
uri	-11.2665
cent	-11.2667
ジェン	-11.2668
の首都	-11.2668
数々の	-11.2668
タイトルは	-11.2668
一致	-11.2672
ira	-11.2672
ぼく	-11.2673
に再	-11.2673
着工	-11.2674
ys	-11.2675
高く	-11.2675
始める	-11.2676
逆に	-11.2678
名古屋鉄道	-11.2679
134	-11.268
つる	-11.2681
コモンズに	-11.2681
願い	-11.2682
を担当する	-11.2686
所属事務所	-11.2686
ニル	-11.2688
らく	-11.269
現存	-11.2691
nia	-11.2693
ations	-11.2695
ペリ	-11.2695
の一部が	-11.2698
測	-11.27
マルコ	-11.2702
magic	-11.2703
千歳	-11.2705
日本の漫画家	-11.2705
cam	-11.2709
日条	-11.2711
ドッグ	-11.2711
π	-11.2711
性を	-11.2712
に渡り	-11.2713
zero	-11.2718
参謀	-11.2719
sion	-11.2721
日本の実業家	-11.2721
ダス	-11.2723
北米	-11.2723
飛騨	-11.2724
19:00	-11.2726
festival	-11.2727
快速	-11.2727
yan	-11.2729
廃校	-11.273
者に	-11.2731
を収録した	-11.2732
為に	-11.2733
sw	-11.2733
を利用して	-11.2737
but	-11.2738
itt	-11.2738
達成	-11.274
?」	-11.274
卒業生	-11.274
ibm	-11.2741
チャンピオンシップ	-11.2741
東京都港区	-11.2743
毎日新聞社	-11.2744
事業部	-11.2744
語り	-11.2746
下で	-11.2747
領土	-11.2748
再度	-11.2751
キア	-11.2753
レンズ	-11.2754
しお	-11.2757
者を	-11.2757
ながらも	-11.2757
eng	-11.2757
women	-11.2758
改訂版	-11.2759
向けに	-11.2761
爆弾	-11.2761
gui	-11.2761
lon	-11.2762
年の映画	-11.2762
届	-11.2762
瀧	-11.2763
design	-11.2765
スロー	-11.2766
128	-11.2767
南西部	-11.2769
国旗	-11.2769
慶應義塾	-11.2769
信州	-11.2772
があったが	-11.2772
操	-11.2773
文章	-11.2777
年鑑	-11.2779
観光協会	-11.2781
ムーン	-11.2781
石橋	-11.2782
リン酸	-11.2783
紛争	-11.2784
shu	-11.2786
有馬	-11.2788
kk	-11.279
肝	-11.279
くれ	-11.2794
会社である	-11.2795
ヴォー	-11.2796
しても	-11.2798
代替	-11.2799
ついた	-11.2801
シリア	-11.2801
討ち	-11.2802
china	-11.2808
(2007)	-11.2808
lis	-11.2811
時代の同級生	-11.2811
わたし	-11.2812
stone	-11.2814
ブラッド	-11.2815
content	-11.2817
寄せ	-11.2819
違う	-11.2819
ないため	-11.282
落合	-11.282
みる	-11.282
arc	-11.2821
用いられている	-11.2821
アンダー	-11.2822
ライオン	-11.2825
エリック	-11.2828
俺	-11.2832
に次ぐ	-11.2833
ーネ	-11.2834
休日	-11.2834
young	-11.2837
本多	-11.2837
しら	-11.2837
上陸	-11.2838
リコ	-11.2841
っぱ	-11.2844
見られる	-11.2844
シンガーソングライター	-11.2845
楽譜	-11.2846
を挙げた	-11.2848
series	-11.2848
社会人	-11.2849
家は	-11.2851
事実	-11.2851
モーニング	-11.2853
勘	-11.2854
を主	-11.2856
一橋大学	-11.2858
と呼ばれていた	-11.286
徐々に	-11.2861
した際に	-11.2861
幸せ	-11.2862
消費	-11.2863
先輩	-11.2864
交通局	-11.2865
飲	-11.2867
なかったため	-11.2869
込まれ	-11.2869
チェス	-11.2869
に分類される	-11.2872
三国	-11.2873
豊岡	-11.2875
箱根	-11.2876
バイク	-11.2876
21:00	-11.2878
両者	-11.2878
日目	-11.2879
突	-11.2879
但し	-11.288
谷口	-11.2881
大学医学部	-11.2883
[5	-11.2883
パック	-11.2884
ひろし	-11.2885
リスク	-11.2885
逮捕	-11.2888
に住む	-11.2888
プリンセス	-11.2888
社団法人	-11.2889
2-0	-11.2889
ビリー	-11.289
一切	-11.2891
建築物	-11.2892
事が	-11.2892
倫	-11.2895
白色	-11.2896
役所	-11.2898
nz	-11.2899
等を	-11.29
タッチ	-11.29
文化放送	-11.29
ジャクソン	-11.2901
地蔵	-11.2901
異常	-11.2901
カウ	-11.2906
せつ	-11.2908
anniversary	-11.2909
uc	-11.291
定数	-11.291
鈴鹿	-11.291
工房	-11.2911
public	-11.2914
、1956	-11.2914
優勝した	-11.2917
大村	-11.2917
kon	-11.2918
original	-11.2919
重賞	-11.2919
修道	-11.292
に留学	-11.292
観客	-11.2923
階段	-11.2923
実業	-11.2924
北東部	-11.2924
出身の元プロ野球選手	-11.2924
樺太	-11.2924
めて	-11.2926
カルロス	-11.2927
0-3	-11.2927
列伝	-11.2927
勝負	-11.2928
防御率	-11.2932
キャプテン	-11.2938
釧路	-11.2938
sum	-11.294
シエ	-11.2941
サッカークラブ	-11.2941
103	-11.2942
1883	-11.2944
τ	-11.2945
キリ	-11.2946
相馬	-11.2946
レフ	-11.2951
教諭	-11.2952
数多く	-11.2953
volume	-11.2954
jam	-11.2955
ぐる	-11.2956
粒子	-11.2957
付けた	-11.2958
さない	-11.2959
を果たし	-11.296
立候補	-11.2961
タイムズ	-11.2963
tech	-11.2964
nl	-11.2966
大沢	-11.2966
通常の	-11.2967
詰め	-11.2967
に仕え	-11.2968
顎	-11.2972
摂	-11.2972
法務	-11.2972
レーシング	-11.2973
サーチ	-11.2974
改編	-11.2976
競	-11.2976
短編	-11.2976
降伏	-11.2976
従来	-11.2977
湿	-11.2978
最終的に	-11.2978
works	-11.2979
キシ	-11.2979
にいた	-11.2979
ァ	-11.298
南米	-11.298
kawa	-11.2981
睦	-11.2981
叙任及辞令	-11.2982
夏季	-11.2982
楚	-11.2986
予想	-11.2987
中華	-11.2987
が参加	-11.2988
how	-11.299
ひょう	-11.299
rose	-11.299
尿	-11.2991
発売された	-11.2992
mx	-11.2992
rich	-11.2993
ima	-11.2996
汁	-11.2997
ノキ	-11.2997
入れる	-11.2998
に沿って	-11.2999
フト	-11.2999
マドリード	-11.3001
古くから	-11.3001
葵	-11.3003
邪	-11.3003
イカ	-11.3005
august	-11.3007
東日本大震災	-11.3009
rom	-11.3009
捕手	-11.3011
繊維	-11.3011
語で	-11.3016
も存在する	-11.3016
毎月	-11.302
講演	-11.3024
経緯	-11.3024
و	-11.3026
ics	-11.3026
位に	-11.3027
最近	-11.3028
オイ	-11.3028
great	-11.303
おん	-11.303
ウェア	-11.3031
光寺	-11.3031
複	-11.3031
aj	-11.3033
国際大会	-11.3034
全作詞	-11.3034
改めて	-11.3035
不動	-11.3035
jun	-11.3037
出品	-11.3037
インディ	-11.3038
に昇進	-11.3041
生命保険	-11.3042
原理	-11.3042
イスラム	-11.3044
競技場	-11.3045
rail	-11.3046
メイク	-11.3047
イラストレーター	-11.3049
動力	-11.3049
146	-11.305
振興局	-11.3051
人類	-11.3052
。1998	-11.3052
ランク	-11.3052
フランツ	-11.3052
吸収	-11.3054
商人	-11.3056
舘	-11.3057
国土	-11.3057
ici	-11.3058
緩	-11.3058
西田	-11.3058
?)	-11.3059
原村	-11.3059
record	-11.306
町駅	-11.3061
突然	-11.3061
jean	-11.3062
たつ	-11.3062
そこに	-11.3062
修正	-11.3064
にあたり	-11.3064
部は	-11.3064
もない	-11.3065
せて	-11.3066
敗北	-11.3067
species	-11.3068
today	-11.3069
、1949	-11.307
府中	-11.307
内務	-11.3071
大事典	-11.3073
大崎	-11.3074
デヴィッド	-11.3076
教養	-11.3077
ブロー	-11.3078
西日本旅客鉄道	-11.3078
カワ	-11.308
コミ	-11.3081
兆	-11.3082
体操	-11.3084
彼が	-11.3085
多目的	-11.3085
歌集	-11.3086
年駐	-11.3087
兵庫県道	-11.3088
出版された	-11.3091
乗車	-11.3092
サークル	-11.3093
欲	-11.3093
列島	-11.3097
一本	-11.3097
東大	-11.3098
陸上競技選手	-11.3099
危険	-11.3099
番目の数である	-11.3099
設置された	-11.31
0000	-11.3102
lock	-11.3102
business	-11.3102
谷川	-11.3103
大川	-11.3105
プレート	-11.3105
auto	-11.3106
打点	-11.3107
することになった	-11.311
マーティン	-11.3111
運河	-11.3113
«	-11.3115
プレーオフ	-11.3116
連勝	-11.3116
岡崎市	-11.3118
stars	-11.3118
0.1	-11.3118
1.0	-11.3119
マリオ	-11.312
北上	-11.3121
ステップ	-11.3121
で活動	-11.3121
人権	-11.3122
サイン	-11.3124
来る	-11.3125
要請	-11.3126
東京府	-11.3127
日本大学	-11.3128
この間	-11.3129
zone	-11.313
傍ら	-11.3131
テーマソング	-11.3131
渓谷	-11.3131
殻	-11.3133
攻	-11.3135
が開通	-11.3136
rin	-11.314
延伸	-11.3143
ゴリ	-11.3144
、1943	-11.3145
陽子	-11.3145
らし	-11.3147
軍に	-11.3147
飛鳥	-11.3148
(1973	-11.315
gene	-11.3152
坂井	-11.3155
クイーン	-11.3156
大学法学部	-11.3158
ベール	-11.3159
スコア	-11.3159
アラブ	-11.3162
新人賞	-11.3162
方向に	-11.3163
イング	-11.3169
出演者	-11.317
哲也	-11.3171
4-3	-11.3171
アプリケーション	-11.3172
向かい	-11.3172
”,	-11.3172
エンジニア	-11.3174
兼任	-11.3174
サンダー	-11.3176
州市	-11.3176
斑	-11.3177
サイエンス	-11.3177
ゴス	-11.3178
......	-11.3178
sol	-11.3179
6-3	-11.3179
大夫	-11.3183
日本海軍	-11.3184
殺し	-11.3185
サンド	-11.3185
御所	-11.3186
日本語版	-11.3187
レンジャー	-11.3187
ated	-11.3189
を使用した	-11.3189
1,2	-11.3189
棲	-11.319
ギア	-11.319
を変更	-11.3191
国連	-11.3193
独立した	-11.3194
平安	-11.3195
用水	-11.3196
acid	-11.3196
sar	-11.3197
高麗	-11.32
尾張	-11.32
怪我	-11.3201
命名された	-11.3202
aus	-11.3202
ナレーター	-11.3202
bat	-11.3203
釈	-11.3207
元々は	-11.3207
死刑	-11.3208
internet	-11.3209
上げる	-11.321
佐久	-11.3211
かね	-11.3212
サイクル	-11.3212
ても	-11.3213
総裁	-11.3216
年春	-11.3217
ホット	-11.3217
、1948	-11.322
に帰	-11.3221
大地	-11.3223
hara	-11.3224
ひで	-11.3226
氏族	-11.3227
化する	-11.3228
(2001)	-11.323
ラッ	-11.3232
秋山	-11.3234
尼崎	-11.3234
ique	-11.3234
ファイト	-11.3235
江戸時代の	-11.3236
order	-11.3236
サウ	-11.3237
仮面ライダー	-11.3237
そのうち	-11.3238
に変更された	-11.3238
懸	-11.3239
収入	-11.3241
松岡	-11.3242
覧	-11.3242
故障	-11.3242
ひこ	-11.3243
の存在	-11.3244
外野手	-11.3245
撰	-11.3247
を搭載	-11.3248
リーズ	-11.3253
死去した	-11.3253
gm	-11.3254
レンタル	-11.3255
デラ	-11.3255
宝暦	-11.3255
自由民主党	-11.3256
ле	-11.3257
rick	-11.3259
燃	-11.3259
counties	-11.326
仙台市	-11.3263
肺	-11.3263
鎖	-11.3267
奪	-11.3267
国体	-11.3268
0-8	-11.3271
interview	-11.3272
ベア	-11.3272
認証	-11.3273
sg	-11.3273
の一つで	-11.3274
霞	-11.3274
でプレー	-11.3276
に貢献	-11.3277
の間の	-11.3277
(2004)	-11.3279
クレイ	-11.3279
したい	-11.3281
ギリ	-11.3282
予約	-11.3282
戦前	-11.3283
mic	-11.3283
."	-11.3284
短歌	-11.3284
にわたり	-11.3285
го	-11.3286
部分は	-11.3287
発電所	-11.3288
実施された	-11.3288
炉	-11.3288
家に	-11.3289
1870	-11.329
ウェイバックマシン	-11.3295
ヨーロッパ選手権	-11.3296
混合	-11.3297
全く	-11.3297
公爵	-11.3297
なき	-11.3304
印象	-11.3305
宮古	-11.3306
競技大会	-11.3307
入力	-11.3307
ミナ	-11.3308
カレー	-11.3309
らせ	-11.331
ズム	-11.3311
アンドレ	-11.3312
133	-11.3313
ane	-11.3313
の高い	-11.3314
歳から	-11.3314
原料	-11.3314
改め	-11.3314
1877	-11.3317
補給	-11.3319
立つ	-11.3321
瀬川	-11.3322
宮廷	-11.3326
ポンド	-11.3327
島式ホーム	-11.3327
若松	-11.3328
編集者	-11.3329
1881	-11.3329
詠	-11.3331
町に	-11.3332
ジョイ	-11.3333
者たち	-11.3333
続き	-11.3335
飛行機	-11.3336
に転じ	-11.3336
住宅地	-11.3336
place	-11.3337
名古屋市立	-11.3338
wing	-11.3339
退役	-11.3341
王位	-11.3345
台北	-11.3345
者として	-11.3346
シード	-11.3347
face	-11.3349
毎回	-11.3349
大学文学部	-11.335
外交官	-11.3352
るために	-11.3353
使う	-11.3355
学士	-11.3356
ich	-11.3356
見え	-11.3357
チャートで	-11.3358
の影響で	-11.3359
訴え	-11.3361
vers	-11.3362
ドリー	-11.3362
search	-11.3363
産経新聞	-11.3365
イロ	-11.3365
予防	-11.3365
新人物往来社	-11.3366
交点	-11.3367
した際	-11.3367
訴	-11.3367
、1947	-11.3367
テッド	-11.3369
ロマ	-11.337
rey	-11.337
ヶ所	-11.3373
に従って	-11.3374
ill	-11.3375
させること	-11.3376
続編	-11.3378
晶	-11.3378
water	-11.3379
極めて	-11.3379
制作された	-11.338
本種	-11.3381
ワード	-11.3382
菩薩	-11.3382
厚生	-11.3383
aya	-11.3384
dead	-11.3384
白井	-11.3384
ハルト	-11.3385
提	-11.3387
出身の元	-11.3388
table	-11.3389
戦では	-11.339
ウエスト	-11.339
ボイ	-11.3391
送信	-11.3392
夷	-11.3396
pos	-11.3396
has	-11.3398
現在に至る	-11.3398
限りで	-11.3398
に成功	-11.3399
拍子	-11.34
マネージャー	-11.3403
優秀	-11.3404
亡命	-11.3405
司馬	-11.3405
いつも	-11.3406
るなど	-11.3406
コピー	-11.3407
所領	-11.3407
予算	-11.3408
液体	-11.3408
にする	-11.3411
夕方	-11.3412
リッチ	-11.3412
騎乗	-11.3412
泳	-11.3414
ジング	-11.3417
電池	-11.3417
奇跡	-11.3417
academy	-11.3417
メイド	-11.3419
アンリ	-11.3419
工業高等学校	-11.342
いていた	-11.342
ミックス	-11.3422
バルセロナ	-11.3424
ホセ	-11.3425
酸素	-11.3427
議論	-11.343
ハッピー	-11.3431
稲葉	-11.3431
灯台	-11.3431
打率	-11.3432
者である	-11.3432
以下は	-11.3434
america	-11.3435
実際の	-11.3435
状態で	-11.3436
評論	-11.3438
gg	-11.3438
スは	-11.3439
協同組合	-11.344
ミュージアム	-11.3441
符	-11.3442
化石	-11.3443
万ドル	-11.3443
太夫	-11.3444
鳥居	-11.3446
白鳥	-11.3447
校名	-11.3448
グラム	-11.3448
sto	-11.3448
ざん	-11.3448
旅館	-11.3448
なす	-11.3449
挿入歌	-11.345
回戦で	-11.3451
を卒業し	-11.3453
mura	-11.3457
最低	-11.346
nfl	-11.3463
レーダー	-11.3463
少佐	-11.3464
駿	-11.3466
宮内	-11.3467
源氏	-11.3467
ings	-11.3469
バリー	-11.347
oxford	-11.347
墳	-11.3471
一般的に	-11.3473
養老	-11.3479
model	-11.3481
往	-11.3484
帰国後	-11.3484
全面	-11.3484
困難	-11.3485
を元に	-11.3486
モバイル	-11.3488
ニッポン放送	-11.3488
する場合	-11.3488
とおり	-11.3488
ire	-11.3489
シュート	-11.349
時台	-11.3492
進水	-11.3492
スピ	-11.3493
無い	-11.3493
ib	-11.3494
上り	-11.3495
廻	-11.3496
死後	-11.3497
高校卒業後	-11.3498
供用	-11.3499
elli	-11.3501
日付で	-11.3503
dra	-11.3503
この作品	-11.3505
利益	-11.3505
現れる	-11.3506
山号は	-11.3506
運命	-11.3507
漁業	-11.3507
dog	-11.3508
太平洋戦争	-11.3509
:10.10	-11.351
修行	-11.3511
gate	-11.3512
グラー	-11.3514
杉山	-11.3517
騎士	-11.3517
上級	-11.3517
ウリ	-11.3517
川内	-11.3518
ニカ	-11.3518
奴	-11.3518
ero	-11.3521
サウンドトラック	-11.3523
ものであり	-11.3524
(1974	-11.3524
ラフ	-11.3526
謝	-11.3529
まれた	-11.3529
建国	-11.353
在学中	-11.3534
作画監督	-11.3534
抜	-11.3535
祀	-11.3536
に応じて	-11.3539
護衛	-11.3539
スプリング	-11.3541
岡山県道	-11.3543
南アフリカ	-11.3544
小惑星の一覧	-11.3546
エキ	-11.3547
どん	-11.3547
1.2	-11.3547
路線バス	-11.3549
避難	-11.355
放射線	-11.3551
ザル	-11.3551
20:00	-11.3552
戦艦	-11.3552
が担当	-11.3553
を出	-11.3555
袖	-11.3557
潔	-11.3557
校歌	-11.3557
ファンタジー	-11.356
δ	-11.3561
リナ	-11.3562
ニク	-11.3563
活性化	-11.3564
攻略	-11.3565
採用された	-11.3566
一体	-11.3567
の結果	-11.3567
靴	-11.3567
を放送	-11.3567
連れ	-11.3568
漆	-11.3569
つである	-11.3569
含	-11.357
german	-11.3573
フジテレビ系	-11.3573
察	-11.3574
das	-11.3574
文藝春秋	-11.3574
island	-11.3576
農村	-11.3576
eur	-11.3576
ert	-11.3577
(1972	-11.3577
moto	-11.3579
サウルス	-11.3579
を形成する	-11.358
メロ	-11.3581
判事	-11.3581
臭	-11.3581
、1957	-11.3581
gn	-11.3582
ツイン	-11.3585
分野で	-11.3587
使用された	-11.3587
dl	-11.3587
上巻	-11.3588
州刺史	-11.3588
それぞれの	-11.3588
-09	-11.3588
arts	-11.3588
放送されていた	-11.3589
費用	-11.3589
smith	-11.3591
ο	-11.3591
を発売	-11.3592
滋賀	-11.3592
ソナタ	-11.3593
上演	-11.3595
閉店	-11.3596
ショッピングセンター	-11.3596
グア	-11.3598
就航	-11.36
ているが	-11.36
サロン	-11.3601
万石	-11.3601
アレクサンドル	-11.3603
edu	-11.3604
該当	-11.3604
ロット	-11.3606
出身で	-11.3606
利用者	-11.3607
文学者	-11.3607
なので	-11.3613
種牡馬	-11.3613
るも	-11.3614
zer	-11.3615
西方	-11.3617
千里	-11.3618
ハリー	-11.3619
皮膚	-11.3619
ドス	-11.362
リム	-11.3622
峡	-11.3622
周波数	-11.3623
下巻	-11.3624
rel	-11.3625
内務省	-11.3626
特定の	-11.3627
竹田	-11.363
ものがある	-11.363
東アジア	-11.3636
オト	-11.3636
dna	-11.3637
watch	-11.3639
雇用	-11.3639
帰り	-11.364
辞職	-11.3641
rap	-11.3642
148	-11.3643
関心	-11.3643
大西洋	-11.3644
午	-11.3645
この番組	-11.3645
新校舎	-11.3645
同国	-11.3646
サク	-11.3646
蓋	-11.3647
学専攻	-11.365
č	-11.365
しさ	-11.3654
テキスト	-11.3654
保有	-11.3655
プリン	-11.3655
カタログ	-11.3655
mbs	-11.3656
大学附属	-11.3657
八郎	-11.3657
管内	-11.3657
を求める	-11.3657
-06	-11.3659
ポジション	-11.3659
放送時間は	-11.366
三代目	-11.3661
じた	-11.3661
まもなく	-11.3662
サス	-11.3663
唯	-11.3664
アーサー	-11.3666
正義	-11.3669
太鼓	-11.3669
fra	-11.367
請	-11.3671
魅力	-11.3674
打撃	-11.3676
飲料	-11.3677
wo	-11.3679
美子	-11.368
リオン	-11.3682
経営者	-11.3682
wbc	-11.3683
yer	-11.3685
いな	-11.3686
金山	-11.3689
出現	-11.369
ก	-11.369
力士	-11.3692
chart	-11.3693
。1997	-11.3693
タンパク質	-11.3694
corporation	-11.3694
ャ	-11.3695
通貨	-11.3695
彗星	-11.3696
セミ	-11.3697
長尾	-11.3697
ダウンロード	-11.3697
step	-11.3698
ナタリー	-11.3703
」・「	-11.3707
天草	-11.3707
縄	-11.3709
配布	-11.3711
姿を	-11.3711
斬	-11.3712
5,000	-11.3712
のみである	-11.3713
ユーロ	-11.3713
剣道	-11.3713
トレー	-11.3713
パターン	-11.3713
(2002)	-11.3713
ess	-11.3714
積み	-11.3715
展望	-11.3718
roman	-11.3721
南北朝時代	-11.3722
144	-11.3722
さよなら	-11.3723
form	-11.3724
造船所	-11.3724
嘉永	-11.3727
本土	-11.3727
スロバキア	-11.3727
法則	-11.3729
がこの	-11.3729
の製造	-11.3729
ビジュアル	-11.373
ブレーキ	-11.3731
えり	-11.3734
女の子	-11.3736
パラダイス	-11.3737
145	-11.3738
であれば	-11.374
ないし	-11.3745
を率いて	-11.3746
iba	-11.3748
厩舎	-11.3748
hen	-11.3751
カメ	-11.3753
kei	-11.3754
39.	-11.3755
十五	-11.3757
ろく	-11.3757
工学科	-11.3759
ville	-11.376
の一環として	-11.376
ries	-11.3761
調べ	-11.3765
たこと	-11.3766
初回生産限定盤	-11.3766
fly	-11.3769
france	-11.3769
ボーイズ	-11.3771
農林	-11.3771
同人	-11.3776
出来事	-11.3777
子孫	-11.3777
市と	-11.3779
措置	-11.3779
別れ	-11.378
が設けられ	-11.3781
second	-11.3782
の駅となる	-11.3783
lip	-11.3785
レイク	-11.3786
にまで	-11.3786
クション	-11.3787
(1969	-11.3788
思い出	-11.3788
貯金	-11.379
艦艇	-11.3792
大江	-11.3793
olympic	-11.3795
稔	-11.3795
豊かな	-11.3795
万枚	-11.3796
を含め	-11.3798
審判	-11.3799
的研究	-11.3799
鹿児島市	-11.3801
獅子	-11.3801
human	-11.3802
北野	-11.3804
続けた	-11.3804
情報を	-11.3805
cell	-11.3805
施工	-11.3805
佐渡	-11.3806
ハリウッド	-11.3806
の仕事	-11.3808
自衛隊	-11.3809
ida	-11.3809
が大きく	-11.3812
南京	-11.3812
dx	-11.3813
十両	-11.3814
豚	-11.3814
通学	-11.3815
近くに	-11.3815
room	-11.3817
text	-11.3818
出版会	-11.3818
吉岡	-11.3818
周期	-11.3819
幼児	-11.3819
chemistry	-11.3821
(2006)	-11.3823
に接する	-11.3824
遣	-11.3825
あつ	-11.3825
は現在	-11.3825
十一	-11.3828
four	-11.3828
バラエティ番組	-11.3829
cube	-11.383
寸	-11.3831
大規模	-11.3832
オラ	-11.3833
syn	-11.3836
こともあった	-11.3836
nic	-11.3837
日をもって	-11.3837
エッ	-11.3838
ナトリウム	-11.384
に任じられた	-11.3841
ネパール	-11.3842
·	-11.3846
天文学者	-11.3847
失点	-11.3848
全国大会	-11.3849
真実	-11.3849
表記は	-11.3849
送り	-11.3851
力学	-11.3852
直樹	-11.3853
資本金	-11.3854
地理学	-11.3855
事業を	-11.3855
場面	-11.3856
ふたり	-11.3857
バク	-11.3858
のみが	-11.3858
矢野	-11.3859
コント	-11.386
回日本	-11.386
を展開	-11.3861
ものもある	-11.3862
コラム	-11.3863
會	-11.3864
消滅した	-11.3865
常磐	-11.3865
。1980	-11.3865
バット	-11.3867
hei	-11.3868
国務	-11.3868
視点	-11.3868
泥	-11.3869
2-3	-11.3869
推定	-11.387
ンダー	-11.387
原案	-11.3871
事例	-11.3871
煮	-11.3872
を機に	-11.3873
に生息する	-11.3874
大阪府立	-11.3875
bol	-11.3875
駅下車	-11.3876
ities	-11.3878
劣	-11.3879
レアル	-11.3879
順に	-11.3879
美少女	-11.3879
ラグ	-11.388
百貨店	-11.3882
、1955	-11.3883
то	-11.3883
で死去	-11.3884
lt	-11.3885
ロシア連邦	-11.3885
د	-11.3886
cus	-11.3887
タマ	-11.3888
の際	-11.3889
comic	-11.3891
ose	-11.3892
pur	-11.3893
soccerway	-11.3894
キッズ	-11.3896
症状	-11.3897
エウ	-11.3899
レア	-11.3901
の中でも	-11.3902
の一部を	-11.3905
作った	-11.3907
並びに	-11.3908
european	-11.391
mis	-11.3911
伊丹	-11.3914
強制	-11.3915
歩道	-11.3918
バース	-11.3918
dal	-11.3919
るようになった	-11.3919
総務	-11.3921
認知	-11.3922
昇進	-11.3922
flu	-11.3923
財産	-11.3924
駿河	-11.3926
ox	-11.3926
を知る	-11.3927
最後に	-11.3929
point	-11.393
án	-11.3931
2-2	-11.3932
ワール	-11.3934
small	-11.3936
指示	-11.3938
じて	-11.3939
二つの	-11.394
une	-11.394
kir	-11.394
-23	-11.394
片岡	-11.3944
繰り	-11.3946
数多くの	-11.3947
変わる	-11.395
3-4	-11.395
優勝を果たした	-11.3951
用品	-11.3951
次長	-11.3951
に初	-11.3952
松島	-11.3953
として参加	-11.3953
騒動	-11.3956
教科書	-11.3956
前述の	-11.3957
が設置された	-11.3958
mol	-11.3958
fall	-11.3958
市教育委員会	-11.3958
州都	-11.3959
住居	-11.3961
遥	-11.3962
さいたま市	-11.3962
ぐち	-11.3962
日時点によるアーカイブ	-11.3963
造船	-11.3964
亀山	-11.3965
おこ	-11.3967
結城	-11.3969
ボーン	-11.3969
屋町	-11.3971
使われる	-11.3971
索	-11.3972
設立され	-11.3975
されているが	-11.3976
アイスランド	-11.3976
試合で	-11.3976
stage	-11.3977
積極的に	-11.3979
ole	-11.3985
立花	-11.3988
いう	-11.3988
工科大学	-11.3989
づけ	-11.399
してから	-11.3991
́	-11.3991
鳥羽	-11.3991
ки	-11.3992
熱帯	-11.3992
キャラクターデザイン	-11.3994
夫妻	-11.3994
36.	-11.3995
要塞	-11.3995
幻想	-11.3996
青葉	-11.3997
ノア	-11.3998
racing	-11.3999
した場合	-11.4
こうした	-11.4001
起き	-11.4001
暮	-11.4002
が中心	-11.4004
出場した	-11.4005
daily	-11.4005
山川	-11.4005
番目	-11.4005
パブリッシング	-11.4007
every	-11.4007
珍しい	-11.4009
さく	-11.4009
は無い	-11.401
ウェン	-11.4012
旧暦	-11.4012
砲兵	-11.4014
ding	-11.4015
フランソワ	-11.4015
ws	-11.4015
を感じ	-11.4018
にもかかわらず	-11.4018
明和	-11.4018
神学	-11.4019
手段	-11.402
uff	-11.4021
player	-11.4023
洋子	-11.4024
十六	-11.4025
タイヤ	-11.4025
参加している	-11.4026
大尉	-11.4026
牙	-11.4026
153	-11.4027
gas	-11.4029
掌	-11.4029
信越	-11.4031
競争	-11.4031
tis	-11.4032
企業である	-11.4033
を続け	-11.4034
als	-11.4034
コト	-11.4034
子に	-11.4036
1600	-11.4037
東海大学	-11.4039
満州	-11.404
和夫	-11.4042
排	-11.4042
だろう	-11.4042
naka	-11.4043
like	-11.4043
同校	-11.4043
このうち	-11.4044
埋	-11.4044
筑摩書房	-11.4044
link	-11.4045
線を	-11.4045
ッキ	-11.4046
内では	-11.4046
を達成	-11.4046
当日有権者数	-11.4049
キロメートル	-11.4051
無人駅	-11.4052
hip	-11.4052
bill	-11.4053
特技は	-11.4054
起工	-11.4056
read	-11.4056
9:00	-11.4057
建造物	-11.4057
グロー	-11.4058
改題	-11.4059
コラ	-11.406
を歴任した	-11.4061
rm	-11.4061
、1952	-11.4061
西宮	-11.4062
駆	-11.4062
出して	-11.4062
(2009)	-11.4063
。1996	-11.4063
日刊スポーツ	-11.4066
南東部	-11.4066
cou	-11.4067
yuki	-11.4068
サンフランシスコ	-11.4069
山陰	-11.407
平井	-11.4072
factfinder	-11.4074
階建て	-11.4075
ウィリアムズ	-11.4075
着用	-11.4075
改装	-11.4077
レビュー	-11.4077
国府	-11.4078
委	-11.4079
express	-11.408
を持って	-11.4081
場所に	-11.4081
四季	-11.4082
5-1	-11.4082
ナチス	-11.4084
飛行場	-11.4085
菅原	-11.4087
着陸	-11.4087
loan	-11.409
白河	-11.4092
化し	-11.4092
移民	-11.4093
test	-11.4093
刃	-11.4094
source	-11.4095
フルート	-11.4096
基金	-11.4096
に合わせて	-11.4099
終戦	-11.4099
nar	-11.4099
golden	-11.4099
mk	-11.4101
開き	-11.4103
仰	-11.4103
テラ	-11.4103
商標	-11.4104
コミュニティバス	-11.4104
ile	-11.4104
原則	-11.4104
置かれ	-11.4105
安打	-11.4105
和子	-11.4106
文部省	-11.4106
識	-11.4106
入選	-11.4107
続け	-11.4111
玉川	-11.4112
託	-11.4113
調教師	-11.4113
西山	-11.4114
淑	-11.4116
薬師	-11.4116
城を	-11.4117
されず	-11.4118
ロボ	-11.412
blu	-11.412
選考	-11.412
鎮座	-11.412
マット	-11.412
グレート	-11.4123
mari	-11.4125
cp	-11.4125
かつて存在した	-11.4126
皇族	-11.4131
読者	-11.4134
mind	-11.4134
特性	-11.4134
交付	-11.4135
ハンター	-11.4137
勉	-11.4137
夕刊	-11.4137
コンスタン	-11.4138
いった	-11.4139
打ち上げ	-11.414
insee	-11.414
ミヤ	-11.414
fact	-11.4142
にちなんで	-11.4143
キック	-11.4144
民俗	-11.4145
藤本	-11.4145
東急	-11.4146
岩波文庫	-11.4148
カ国	-11.4154
レーン	-11.4155
ボタン	-11.4156
最強	-11.4156
パナソニック	-11.4157
を見る	-11.4157
貨	-11.4157
。1994	-11.4158
混乱	-11.4158
ゴム	-11.4158
以外は	-11.4158
oni	-11.4159
耶	-11.4159
アンティ	-11.4161
絵コンテ	-11.4161
圓	-11.4162
絞	-11.4162
ところが	-11.4164
ミック	-11.4165
dor	-11.4165
金剛	-11.4166
考案	-11.4166
和歌	-11.4167
砂漠	-11.4169
amazon	-11.4169
行政区画	-11.417
wei	-11.4172
シュタイン	-11.4174
死者	-11.4174
書道	-11.4177
巡洋艦	-11.4178
ワークス	-11.418
ture	-11.4181
アーズ	-11.4181
linux	-11.4181
密度	-11.4183
100%	-11.4183
祭神	-11.4185
hey	-11.4185
voice	-11.4186
ハーン	-11.4187
才能	-11.4187
の妹	-11.4189
短縮	-11.419
動脈	-11.4191
特典	-11.4194
march	-11.4195
発着	-11.4195
ビオ	-11.4196
走り	-11.4198
スタンド	-11.42
に挑戦	-11.4201
ジェフ	-11.4201
dies	-11.4201
彫	-11.4203
貞観	-11.4203
日常	-11.4203
襲撃	-11.4207
悦	-11.4208
じゅ	-11.4209
入場	-11.4211
増田	-11.4212
ぁ	-11.4215
ドクター	-11.4215
荒木	-11.4216
リョ	-11.4217
が始まり	-11.4217
うる	-11.4221
情報番組	-11.4223
由紀	-11.4223
わい	-11.4225
number	-11.4226
銀メダル	-11.4227
騎兵	-11.4228
自身も	-11.4229
secret	-11.4229
残った	-11.4229
に設置	-11.423
修士課程修了	-11.4231
移行	-11.4232
きみ	-11.4232
筑波	-11.4233
を受けている	-11.4234
鉄道駅	-11.4234
曾	-11.4235
嫡男	-11.4235
ムラ	-11.4237
ふる	-11.4237
(2008)	-11.4239
乗員	-11.4239
公卿	-11.4241
ヨシ	-11.4241
町が発足	-11.4242
なもの	-11.4243
関節	-11.4244
麻生	-11.4247
易	-11.4247
ラッシュ	-11.4248
union	-11.4249
称号	-11.4249
kn	-11.425
ざき	-11.425
惣	-11.425
検事	-11.425
sim	-11.4251
モンスター	-11.4255
ヴィッチ	-11.4256
detail	-11.4258
ライバル	-11.4259
neu	-11.4262
土岐	-11.4262
を集め	-11.4266
日本における	-11.4267
あま	-11.4267
控え	-11.4267
ensis	-11.4269
tm	-11.427
他出演	-11.4276
local	-11.4277
カレ	-11.4277
ú	-11.4278
胆	-11.4279
クリスチャン	-11.428
小さく	-11.4283
シドニー	-11.4285
年国勢調査	-11.4286
廟	-11.4287
駆け	-11.4287
アリー	-11.4287
marc	-11.4288
という名称	-11.4289
空襲	-11.429
非常勤講師	-11.429
萩原	-11.4291
register	-11.4291
モチーフ	-11.4292
閏	-11.4293
漁港	-11.4296
、1940	-11.4297
高槻	-11.4297
走る	-11.4297
花園	-11.43
於	-11.43
北見	-11.4301
其	-11.4302
あか	-11.4304
キリスト	-11.4307
かれた	-11.4307
負担	-11.4308
プロイセン	-11.4308
番目に	-11.431
wall	-11.431
同社の	-11.4313
年度版	-11.4314
gl	-11.4316
を利用した	-11.4316
でプレーした	-11.4317
ハンド	-11.432
準々決勝	-11.4321
として設立	-11.4322
新潟県道	-11.4324
ミネ	-11.4327
広州	-11.4328
ーブ	-11.4328
論理	-11.4331
回路	-11.4331
天明	-11.4331
に任じられ	-11.4333
触	-11.4333
入れた	-11.4335
もっと	-11.4337
召	-11.4337
学区は以下の通りとなる	-11.4337
ティル	-11.4339
トゥス	-11.4339
弟の	-11.434
rev	-11.434
変動	-11.434
に向かう	-11.434
携帯	-11.4341
されるが	-11.4342
トヨタ自動車	-11.4342
機関車	-11.4343
恐怖	-11.4344
リサーチ	-11.4345
の子孫	-11.4345
新川	-11.4345
空中	-11.4346
空手	-11.4347
湘南	-11.4347
フスキー	-11.4349
jack	-11.435
早稲田	-11.4351
bureau	-11.4352
独立行政法人	-11.4353
テキサス州	-11.4354
彼らは	-11.4354
ม	-11.4355
埼玉県道	-11.4356
4-4	-11.4358
アメ	-11.4359
fla	-11.4359
アース	-11.436
本山	-11.4361
市街	-11.4361
蒲	-11.4362
司教	-11.4364
勉強	-11.4364
フォーラム	-11.4368
を与える	-11.4368
technology	-11.4371
ぃ	-11.4372
うん	-11.4372
蒸気	-11.4372
flo	-11.4373
ざい	-11.4373
lum	-11.4374
ч	-11.4374
などと	-11.4375
西尾	-11.4375
絡	-11.4375
メラ	-11.4377
受賞者	-11.4378
経路	-11.4378
物流	-11.4378
publishing	-11.4379
を目指し	-11.4379
に伴って	-11.4383
ful	-11.4385
tim	-11.4387
総長	-11.4388
を中心とする	-11.4388
フットサル	-11.4389
やかな	-11.439
イエス	-11.439
マニア	-11.439
hit	-11.439
航空会社	-11.4391
を製造	-11.4392
支線	-11.4392
圧縮	-11.4393
ここに	-11.4395
吐	-11.4396
差別	-11.4396
が出	-11.4399
安倍	-11.4404
三次	-11.4405
を利用する	-11.4407
藻	-11.4407
artist	-11.4407
年秋	-11.4409
が設置され	-11.4409
てしまった	-11.441
ace	-11.441
環状	-11.441
パパ	-11.4412
車で	-11.4412
がそれぞれ	-11.4413
定める	-11.4414
滞在	-11.4414
浅井	-11.4415
薩摩	-11.4416
答え	-11.4416
jpl	-11.4417
files	-11.4418
陸上自衛隊	-11.4419
バナ	-11.4422
コイ	-11.4422
を出す	-11.4424
フォース	-11.4424
年ぶりに	-11.4424
sei	-11.4425
震	-11.4426
fs	-11.4427
ンダ	-11.4428
魔女	-11.4434
発見された	-11.4435
激しい	-11.4436
3-2	-11.4437
(1971	-11.4439
磐	-11.4439
1-4	-11.444
脱出	-11.444
ビュ	-11.444
本社を	-11.4441
nad	-11.4442
トリア	-11.4445
与えられる	-11.4445
ずに	-11.4445
ハマ	-11.4445
受章	-11.4446
1860	-11.4446
度線	-11.4447
に収録された	-11.4448
匹	-11.4449
あきら	-11.445
ボク	-11.4452
接触	-11.4453
大聖堂	-11.4454
も行っている	-11.4457
事態	-11.4459
春日井	-11.4461
nico	-11.4461
ве	-11.4461
例として	-11.4462
。1992	-11.4463
茅	-11.4464
の墓	-11.4467
司令	-11.4467
ナイター	-11.4468
●	-11.447
看板	-11.447
british	-11.4471
大学経済学部	-11.4471
片山	-11.4471
wr	-11.4472
wild	-11.4472
光文社	-11.4472
idae	-11.4474
ビジョン	-11.4475
岩田	-11.4476
がその	-11.4478
電機	-11.4478
日本テレビ系	-11.4478
トレード	-11.4479
出て	-11.448
さが	-11.448
光学	-11.4481
‘	-11.4482
ことが出来る	-11.4482
没後	-11.4482
クリー	-11.4483
国際連合	-11.4485
そのもの	-11.4485
bil	-11.4486
コロン	-11.4486
เ	-11.4487
刷	-11.4487
芝居	-11.4488
の位置	-11.4489
めぐみ	-11.4491
姿勢	-11.4491
エッセイ	-11.4492
ute	-11.4492
駅番号は	-11.4492
名所	-11.4492
ではあるが	-11.4495
吹き	-11.4495
すこと	-11.4497
バスケットボール選手	-11.4497
ウェールズ	-11.4498
著名な	-11.4498
も務めた	-11.45
の総称	-11.4501
狩	-11.4506
況	-11.4506
量は	-11.4508
その名	-11.4508
tori	-11.4509
河出書房新社	-11.4509
(4)	-11.451
(1997)	-11.4513
ひめ	-11.4515
カート	-11.4516
garden	-11.4519
カロ	-11.4519
品質	-11.4519
人目	-11.452
ла	-11.4521
双子	-11.4522
三原	-11.4523
singles	-11.4523
6-4	-11.4524
目録	-11.4526
tc	-11.4527
逃亡	-11.453
市道	-11.453
ラグビー部	-11.4531
を理由に	-11.4531
日本国内	-11.4532
boys	-11.4534
正教会	-11.4534
ってきた	-11.4535
通常は	-11.4536
怒	-11.4537
に就任し	-11.4537
徳島市	-11.4538
サーキット	-11.454
天津	-11.454
オーナー	-11.4542
ムン	-11.4542
語る	-11.4543
認められ	-11.4544
田島	-11.4544
絶滅	-11.4545
(2000)	-11.4546
を見て	-11.4546
弥生	-11.4546
釜山	-11.4548
もいる	-11.4549
フェイ	-11.455
ッセ	-11.4552
駅は	-11.4553
消防本部	-11.4553
ショット	-11.4556
淡路	-11.4556
有料	-11.4556
軍を	-11.4557
eli	-11.4558
cambridge	-11.4559
バスターミナル	-11.456
神道	-11.4561
時点では	-11.4563
に所属している	-11.4565
川西	-11.4568
沢村	-11.4568
マック	-11.4568
np	-11.4569
に放送された	-11.4572
久保田	-11.4574
で放送	-11.4576
擬	-11.4576
刊行会	-11.4577
新社	-11.4579
ille	-11.458
近年は	-11.4582
ニコラ	-11.4582
現存する	-11.4585
師範	-11.4586
そこから	-11.4588
ザクセン	-11.4593
必	-11.4593
出席	-11.4594
pet	-11.4594
選手データ	-11.4595
ミドル級	-11.4595
翁	-11.4596
bn	-11.4596
240	-11.4596
工程	-11.4598
るように	-11.46
博士課程	-11.4601
ф	-11.4601
college	-11.4601
hero	-11.4601
初回盤	-11.4601
数値	-11.4601
サントリー	-11.4602
god	-11.4602
クラーク	-11.4603
壊	-11.4603
に任命された	-11.4605
映画化	-11.4606
too	-11.4606
紀伊	-11.4607
岡山市	-11.4608
ベロ	-11.4608
。1995	-11.4609
正面	-11.4609
離れ	-11.4609
yoshi	-11.461
future	-11.461
3.0	-11.4613
1-5	-11.4613
くて	-11.4614
遇	-11.4614
に移住	-11.4615
レーザー	-11.4615
地方裁判所	-11.4615
側は	-11.4617
紀行	-11.4617
淀	-11.4621
hon	-11.4622
ب	-11.4623
出た	-11.4623
官位は	-11.4626
敗戦	-11.4627
背番号	-11.4627
に乗り	-11.4627
人名事典	-11.4628
はま	-11.4628
長距離	-11.4631
との関係	-11.4632
ジュン	-11.4632
stat	-11.4633
呼び	-11.4633
bun	-11.4633
blood	-11.4635
γ	-11.4636
つとめ	-11.4638
maria	-11.4639
18:00	-11.464
lit	-11.464
132	-11.4641
替	-11.4642
鍵	-11.4643
途中で	-11.4644
にある公立中学校	-11.4645
mid	-11.4647
集会	-11.4648
周辺の	-11.4649
sie	-11.4649
阿蘇	-11.465
のみならず	-11.4651
ore	-11.4651
大会では	-11.4651
ピース	-11.4651
に次いで	-11.4652
を守る	-11.4653
伝道	-11.4654
saint	-11.4654
ง	-11.4655
に関する研究	-11.4657
、1946	-11.4658
日本橋	-11.4659
高等学校を経て	-11.466
保育	-11.4661
一旦	-11.4661
父親は	-11.4661
をきっかけに	-11.4662
さいたま	-11.4665
front	-11.4667
ette	-11.4668
みた	-11.4668
が開発した	-11.4669
ウルトラマン	-11.467
過去の	-11.4671
変わり	-11.4671
西鉄	-11.4672
ボリ	-11.4673
(1970	-11.4675
ゆめ	-11.4677
天下	-11.468
、1954	-11.468
アルバムである	-11.4682
現職	-11.4682
、1941	-11.4685
bf	-11.4687
ロッテ	-11.4688
ベッ	-11.4688
催	-11.4689
ライト級	-11.4689
ious	-11.4691
最小	-11.4691
ante	-11.4691
読む	-11.4691
カヴァー	-11.4692
科卒業	-11.4696
栗原	-11.4697
を迎え	-11.4698
後ろ	-11.4702
保管	-11.4703
たろう	-11.4705
を立て	-11.4705
ロープ	-11.4705
classic	-11.4705
nik	-11.4706
フェイス	-11.4707
が挙げられる	-11.4708
十八	-11.4711
1,0	-11.4713
に在籍	-11.4714
同僚	-11.4715
を紹介	-11.4717
そん	-11.4717
アルファ	-11.4719
池袋	-11.4719
奴隷	-11.4722
goal	-11.4723
出来	-11.4723
出場機会	-11.4729
尾道	-11.4729
(1968	-11.4732
ライブラリー	-11.4732
梶	-11.4733
は以下の	-11.4734
塩化	-11.4735
これらは	-11.4736
phil	-11.4736
就職	-11.4736
野生	-11.4738
count	-11.4739
と共演	-11.4739
ign	-11.474
きり	-11.4741
磁気	-11.4741
ならびに	-11.4746
泣	-11.4747
韓国語	-11.4748
冨	-11.4749
構	-11.475
イソ	-11.4751
らと共に	-11.4751
eth	-11.4752
-07	-11.4755
ウエ	-11.4756
瑞穂	-11.4757
トライ	-11.4757
ми	-11.4757
戦場	-11.4761
後方	-11.4762
のひとつである	-11.4763
全般	-11.4763
pic	-11.4764
放出	-11.4764
ダール	-11.4765
を迎えた	-11.4766
双方	-11.4769
象徴	-11.4769
幅広い	-11.477
小牧	-11.477
motion	-11.4771
333	-11.4772
パシフィック	-11.4772
透明	-11.4773
は非常に	-11.4773
後述	-11.4774
ウォル	-11.4774
決め	-11.4775
児玉	-11.4776
山駅	-11.4776
の称号	-11.4777
やって	-11.4778
腫	-11.4779
を扱う	-11.478
津島	-11.4781
?]	-11.4782
ming	-11.4783
コモ	-11.4783
tha	-11.4784
参議院議員	-11.4785
木曜日	-11.4788
ヘー	-11.4789
出演した	-11.4789
木町	-11.4789
前駅	-11.479
北は	-11.479
確率	-11.4791
行っている	-11.4792
目的で	-11.4793
戯	-11.4793
けんりつ	-11.4793
パク	-11.4795
くじ	-11.4796
mun	-11.4796
宮川	-11.4797
あげ	-11.4797
日本の女性	-11.4797
実家	-11.4797
ワイルド	-11.4797
葉は	-11.4798
年間に	-11.4798
なかったが	-11.4799
庄内	-11.48
ターズ	-11.4801
膝	-11.4801
戦績	-11.4803
報告書	-11.4806
other	-11.4808
sor	-11.4808
仮名	-11.481
1.3	-11.4812
ムル	-11.4812
どり	-11.4814
central	-11.4814
開催されている	-11.4814
木曽	-11.4815
ザール	-11.4816
4.5	-11.4816
家督	-11.4818
gio	-11.4819
graph	-11.4819
相手に	-11.482
爪	-11.4823
腐	-11.4824
取った	-11.4825
参議院	-11.4825
浜町	-11.4826
ヤマハ	-11.4827
ハインリヒ	-11.4827
ney	-11.4828
東町	-11.4829
真言宗	-11.483
コスト	-11.4831
伝え	-11.4833
ザイ	-11.4833
コック	-11.4834
日アーカイブ分	-11.4834
日本のインターチェンジ一覧	-11.4834
兵庫県神戸市	-11.4836
パチンコ	-11.4837
、1945	-11.4839
!!!	-11.4841
事項	-11.4842
開かれた	-11.4843
ハンス	-11.4843
平塚	-11.4845
技法	-11.4845
歩兵第	-11.4847
コンクリート	-11.4847
新作	-11.4848
貨車	-11.4849
フィギュアスケート	-11.4849
ische	-11.4851
(1967	-11.4851
いずみ	-11.4851
中津	-11.4851
フリーアナウンサー	-11.4857
佐倉	-11.4857
鳥類	-11.4859
といわれている	-11.4859
打者	-11.4859
enti	-11.4861
士官	-11.4861
を求めて	-11.4861
が開始された	-11.4862
ガム	-11.4863
石垣	-11.4863
pin	-11.4866
鵜	-11.4866
所管	-11.4866
ニシ	-11.4867
ロジャー	-11.4867
ターボ	-11.4869
建設された	-11.4871
コリ	-11.4874
なくなる	-11.4876
投入	-11.4878
rh	-11.4878
あた	-11.4879
出店	-11.488
占	-11.4884
サッカー連盟	-11.4885
出羽	-11.4886
シーズンに	-11.4887
、1951	-11.4888
相対式ホーム	-11.4889
検証	-11.4892
ディビシオン	-11.4893
ヘア	-11.4895
ベス	-11.4895
診療	-11.4895
で生まれる	-11.4896
標本	-11.4896
南朝	-11.4896
楽園	-11.4897
mojo	-11.4897
恐竜	-11.4898
を置く	-11.4898
川駅	-11.4902
ref	-11.4904
anne	-11.4905
の旅	-11.4905
tw	-11.4905
療養	-11.4906
今後	-11.4906
ブレイク	-11.4907
地中海	-11.4908
district	-11.4911
自らの	-11.4912
独特の	-11.4912
みられる	-11.4913
ヘリコプター	-11.4913
決定戦	-11.4914
deep	-11.4915
派生	-11.4916
前回比	-11.4916
トランペット	-11.4916
同級生	-11.4918
プロセス	-11.4918
配備	-11.4921
北条氏	-11.4921
選手一覧	-11.4923
刑務所	-11.4925
aceae	-11.4926
dt	-11.4927
外来	-11.4928
凡	-11.4928
大介	-11.4928
逆転	-11.4929
ula	-11.493
津山	-11.4931
∞	-11.4931
ras	-11.4931
地位	-11.4932
メアリー	-11.4932
大友	-11.4934
付近で	-11.4934
フィラデルフィア	-11.4936
ジェリー	-11.4936
sony	-11.4938
を与え	-11.4938
ほく	-11.494
という名	-11.494
に仕えた	-11.494
綴	-11.4942
哲学者	-11.4943
第六	-11.4943
なな	-11.4944
ちょ	-11.4945
挿絵	-11.4945
ならない	-11.4945
大辞典	-11.4948
周り	-11.4948
村となる	-11.4949
board	-11.495
緑地	-11.495
まんが	-11.4951
亡	-11.4952
フン	-11.4953
illa	-11.4953
chan	-11.4954
(1960	-11.4955
とは別	-11.4958
刊行された	-11.4958
piano	-11.4959
百科事典	-11.4961
フォール	-11.4962
sus	-11.4963
利用可能	-11.4966
成り	-11.4967
選手が	-11.4969
されたため	-11.4969
優勝者	-11.497
nature	-11.497
任期	-11.4971
元和	-11.4972
荻	-11.4973
rob	-11.4975
jin	-11.4978
東南アジア	-11.4979
lyn	-11.498
に対応	-11.498
社会福祉	-11.498
ユリ	-11.498
定理	-11.4981
この頃	-11.4982
沼津	-11.4983
増補	-11.4984
直後に	-11.4986
銅メダル	-11.4986
五丁目	-11.4987
が高く	-11.4988
有名である	-11.4989
ケータイ	-11.4989
を挟んで	-11.4989
tive	-11.4989
科学者	-11.499
away	-11.499
に戻	-11.4992
ガリシア	-11.4993
稲荷	-11.4994
vic	-11.4994
商工	-11.4995
置いて	-11.4997
eric	-11.4998
127	-11.4998
用いられ	-11.4999
、1953	-11.4999
を多く	-11.5
talk	-11.5001
ヒン	-11.5002
トキ	-11.5003
が存在し	-11.5003
ナポリ	-11.5004
ヴァージョン	-11.5005
巌	-11.5006
dh	-11.5008
名前が	-11.5008
152	-11.5009
family	-11.5009
グン	-11.501
mass	-11.5011
タイアップ	-11.5012
이	-11.5012
978-0	-11.5013
クン	-11.5014
初出	-11.5015
られない	-11.5017
支流	-11.5022
一門	-11.5023
に転向	-11.5023
発売されている	-11.5024
第二次世界大戦中	-11.5027
グレン	-11.5028
を設立し	-11.5029
に分布する	-11.5029
するようになった	-11.5029
根本	-11.5029
細菌	-11.5031
期間は	-11.5032
ささ	-11.5035
劇場版	-11.5036
デビューした	-11.5036
になっており	-11.5036
те	-11.5036
濱	-11.5039
駅より徒歩	-11.5039
rpg	-11.504
0.2	-11.5041
hn	-11.5042
はず	-11.5045
トマス	-11.5046
麺	-11.5046
乗客	-11.5047
dos	-11.5047
中京	-11.5047
に戻る	-11.5048
子役	-11.5048
上京	-11.5049
田口	-11.505
接近	-11.5051
改訂	-11.5052
こころ	-11.5053
前方	-11.5053
為替	-11.5053
はすべて	-11.5054
外側	-11.5054
交響曲	-11.5055
悪い	-11.5055
新版	-11.5056
福島県道	-11.5056
たかし	-11.5056
モンド	-11.5056
date	-11.5057
通っている	-11.5057
碧	-11.5057
nov	-11.5058
ドライ	-11.5058
月下旬	-11.5061
make	-11.5063
fight	-11.5063
cbc	-11.5064
感謝	-11.5071
phi	-11.5072
コーラ	-11.5073
450	-11.5074
同大学	-11.5074
付ける	-11.5074
麻呂	-11.5075
出家	-11.5075
オルガン	-11.5077
case	-11.5077
で活躍した	-11.5078
ょ	-11.5078
尹	-11.5079
ヴェネツィア	-11.5079
が製造	-11.5079
リース	-11.508
für	-11.508
といい	-11.508
クリア	-11.5081
辞書	-11.5084
が開発	-11.5084
1-8	-11.5085
スロベニア	-11.5086
必ず	-11.5087
に死去した	-11.5087
tb	-11.5088
ポルノ	-11.5088
へ向かう	-11.5089
ライス	-11.509
主として	-11.5092
査	-11.5093
英語で	-11.5093
に参加する	-11.5095
茶屋	-11.5096
社が	-11.5097
大衆	-11.5098
スプリント	-11.51
に死去	-11.51
digital	-11.5101
単式ホーム	-11.5102
コンテナ	-11.5104
オートバイ	-11.5104
を付け	-11.5105
にあたって	-11.5106
シルバー	-11.5106
接続する	-11.5106
音楽家	-11.5107
の一種である	-11.5108
hor	-11.5108
含む	-11.5111
ファイター	-11.5111
借	-11.5113
責任者	-11.5113
町交差点	-11.5114
土屋	-11.5116
ブライ	-11.5116
提出	-11.5119
悪化	-11.512
後漢	-11.5122
手を	-11.5124
寺田	-11.5126
、1930	-11.5126
kat	-11.5126
信用組合	-11.5126
bis	-11.5128
伝統的な	-11.5128
存在した	-11.5129
鎌	-11.5129
開放	-11.513
31.	-11.5131
again	-11.5131
駅名	-11.5133
畠	-11.5134
村が合併して	-11.5134
としていた	-11.5134
北京オリンピック	-11.5134
赤穂	-11.5136
町と	-11.5138
点で	-11.5138
勃発	-11.5138
ウルフ	-11.5138
κ	-11.514
pot	-11.5144
タナ	-11.5145
メロディ	-11.5145
earth	-11.5146
1-6	-11.5146
マーケット	-11.5147
けた	-11.5147
パーティー	-11.5147
戦う	-11.5147
ロワ	-11.5147
村と合併して	-11.5147
気持ち	-11.5148
frank	-11.5149
チャンス	-11.5149
グラフィ	-11.515
rod	-11.5152
を破り	-11.5152
が始まる	-11.5152
南は	-11.5152
北川	-11.5157
reg	-11.5159
モラ	-11.5159
22:00	-11.516
学年	-11.516
畳	-11.5162
ません	-11.5164
爵位	-11.5165
winter	-11.5167
true	-11.5167
大平	-11.5168
想い	-11.517
学芸	-11.5171
image	-11.5172
地域で	-11.5172
しかしながら	-11.5173
を残した	-11.5174
に移動	-11.5176
評議員	-11.5176
0.3	-11.5178
西ドイツ	-11.5178
デリ	-11.5179
徳川家康	-11.518
championship	-11.5181
舞踊	-11.5181
姓は	-11.5181
dec	-11.5182
陥落	-11.5183
118	-11.5186
ヶ岳	-11.5188
として出演	-11.519
aka	-11.5191
ма	-11.5192
家政	-11.5193
室蘭	-11.5193
4-2	-11.5194
presents	-11.5195
ユニバーサル	-11.5195
007	-11.5196
へ移転	-11.5197
fk	-11.5197
水域	-11.5199
否定	-11.5199
!!」	-11.5199
オムニバス	-11.5199
を基に	-11.5204
初となる	-11.5204
役者	-11.5206
クサ	-11.5209
。1993	-11.5212
select	-11.5213
開催される	-11.5214
を創設	-11.5215
pass	-11.5216
人組	-11.5217
内側	-11.5218
(1999)	-11.5218
今治	-11.5219
アコースティック	-11.5219
維	-11.5221
テーブル	-11.5223
ピオ	-11.5224
ダラ	-11.5225
東京都道	-11.5225
左翼	-11.5226
黒川	-11.5227
math	-11.5227
iff	-11.5227
射撃	-11.5228
明るい	-11.5229
冒頭	-11.523
推	-11.523
けて	-11.523
мо	-11.5232
新日本	-11.5232
jim	-11.5232
ér	-11.5232
めぐり	-11.5232
が好き	-11.5233
請求	-11.5233
、1944	-11.5233
成人	-11.5235
ヒドロキシ	-11.5236
所収	-11.5237
ロップ	-11.5237
到達	-11.5237
小西	-11.5237
で構成される	-11.5238
インディアン	-11.5238
bee	-11.524
同名	-11.524
!』(	-11.5242
活躍した	-11.5243
国内で	-11.5243
後者	-11.5244
メリー	-11.5245
菱	-11.5245
119	-11.5245
が多数	-11.5247
之介	-11.5248
代々	-11.5251
ж	-11.5251
保持	-11.5251
医療センター	-11.5252
プロ野球選手	-11.5252
幅員	-11.5254
驚	-11.5254
砕	-11.5254
stats	-11.5254
アルト	-11.5255
キャップ	-11.5256
日本一	-11.5256
フランス語版	-11.5256
プラハ	-11.5257
sia	-11.5258
nat	-11.5258
vel	-11.5258
イヴ	-11.5259
ふみ	-11.5261
滅亡	-11.5261
はち	-11.5262
ن	-11.5263
体を	-11.5264
任命	-11.5265
日本書紀	-11.5266
dg	-11.5267
2,000	-11.5267
を参照のこと	-11.5268
をはじめとする	-11.5268
pm	-11.5268
梅田	-11.5269
ホイ	-11.5269
偉	-11.527
沼田	-11.527
ダブルス	-11.527
対決	-11.5272
若干	-11.5272
ぞく	-11.5273
ピク	-11.5273
東郷	-11.5274
方が	-11.5275
(1996)	-11.5279
樋口	-11.5281
ショッピング	-11.5282
豊橋	-11.5283
jet	-11.5284
朝廷	-11.5286
一軍	-11.5287
したのは	-11.5287
を決めた	-11.5288
散歩	-11.529
町丁	-11.529
シンボル	-11.529
エクスプレス	-11.5295
京王	-11.5295
従業員	-11.5297
を分離	-11.5299
物理学者	-11.53
南緯	-11.5302
養父	-11.5305
airport	-11.5305
mono	-11.5306
永田	-11.5307
母体	-11.5307
圧力	-11.5307
8000	-11.5308
世と	-11.5309
サント	-11.531
羽田	-11.531
朝鮮民主主義人民共和国	-11.5314
大気	-11.5314
槍	-11.5314
urs	-11.5314
米沢	-11.5314
ل	-11.5315
マレー	-11.5316
クラフト	-11.5321
衝撃	-11.5322
大同	-11.5322
が増え	-11.5323
無し	-11.5323
帯広	-11.5326
長を務めた	-11.5327
を使用	-11.533
lim	-11.533
おはよう	-11.5331
を通過	-11.5333
!!』	-11.5333
テクノロジー	-11.5333
poly	-11.5334
粒	-11.5335
窯	-11.5336
$	-11.5336
レナ	-11.5336
に指定された	-11.5337
独占	-11.5338
を持っていた	-11.5339
西は	-11.534
備前	-11.534
言及	-11.534
音楽祭	-11.5341
は当時	-11.5341
一時期	-11.5342
俵	-11.5342
bas	-11.5343
実務	-11.5345
doc	-11.5345
statistics	-11.5346
院長	-11.5346
庶	-11.5347
影響を受け	-11.5347
だいがく	-11.5348
ドナルド	-11.5349
方面へ	-11.5351
と結婚し	-11.5351
環境省	-11.5351
上原	-11.5352
野外	-11.5353
ビート	-11.5353
本体	-11.5353
産地	-11.5354
バンコク	-11.5354
車庫	-11.5356
障	-11.5359
診	-11.5359
らとともに	-11.5359
広島県道	-11.536
飯塚	-11.5361
忌	-11.5361
ティーン	-11.5361
開発した	-11.5362
に対応する	-11.5363
アンテナ	-11.5364
曲は	-11.5365
ダーク	-11.5366
に使われる	-11.5368
1.4	-11.537
巨大な	-11.537
証券取引所	-11.537
栄町	-11.5372
譚	-11.5373
助け	-11.5373
37.	-11.5374
та	-11.5376
読書	-11.5377
(3)	-11.5378
rad	-11.5379
ユーゴスラビア	-11.5379
パーキングエリア	-11.5381
ハロー	-11.5381
礁	-11.5382
ika	-11.5382
地質	-11.5382
埋め	-11.5383
富岡	-11.5385
親子	-11.5386
ならば	-11.5387
netkeiba	-11.5389
duc	-11.5389
ゲスト出演	-11.5389
sci	-11.5391
閑	-11.5393
1864	-11.5394
中央大学	-11.5395
テール	-11.5397
揚げ	-11.5397
支局	-11.5397
ense	-11.5397
握	-11.5398
マルクス	-11.5398
ませ	-11.5398
ло	-11.5398
地内	-11.5399
儒	-11.5399
ウルトラ	-11.54
mir	-11.5401
書記官	-11.5402
人員	-11.5403
battle	-11.5405
描	-11.5405
シラ	-11.5405
demo	-11.5406
届け	-11.5409
讃	-11.541
が死去	-11.5411
以前に	-11.5411
撫	-11.5414
文久	-11.5415
:10.	-11.5415
エステ	-11.5415
大学工学部	-11.5416
封入	-11.5416
gro	-11.5416
皇太子	-11.5416
eve	-11.5419
妻は	-11.5422
造形	-11.5422
に従い	-11.5423
ミール	-11.5424
チャンピオンズリーグ	-11.5424
肢	-11.5427
議会制度百年史	-11.5428
再開発	-11.5428
兼務	-11.5429
を紹介する	-11.5429
ward	-11.5429
エンターテインメント	-11.5429
取扱を開始	-11.5432
に反対	-11.5435
感覚	-11.5437
162	-11.5437
ジュー	-11.5438
card	-11.5438
港区	-11.5439
略歴	-11.5439
餅	-11.5442
を継承	-11.5444
家督を	-11.5444
収録された	-11.5445
lab	-11.5447
国分	-11.5447
自体	-11.5448
松村	-11.5449
だったため	-11.5449
ホルン	-11.545
駆動	-11.545
須賀	-11.5453
スティック	-11.5455
バルト	-11.5455
存在していた	-11.5457
無かった	-11.5458
。1991	-11.5458
til	-11.5458
信長	-11.5459
却	-11.5459
小池	-11.546
国民学校	-11.5463
解消	-11.5463
中西	-11.5464
吉村	-11.5464
vision	-11.5464
最古の	-11.5466
190	-11.5466
ott	-11.5466
匠	-11.5467
惑	-11.5469
口径	-11.547
しようと	-11.547
候	-11.5471
が入る	-11.5471
元は	-11.5474
大社	-11.5475
源氏物語	-11.5475
aq	-11.5475
バスケットボール部	-11.5477
た後	-11.5478
王女	-11.548
がみ	-11.5481
長門	-11.5482
pas	-11.5482
本校	-11.5484
歩く	-11.5484
襄	-11.5485
集配業務	-11.5485
大幅に	-11.5487
gb	-11.5487
ウィー	-11.5487
gel	-11.5488
やすく	-11.5489
マケドニア	-11.549
えない	-11.5491
を提供	-11.5491
に転じた	-11.5492
停車する	-11.5492
現行	-11.5492
盆地	-11.5492
鶴見	-11.5495
led	-11.5496
模型	-11.5496
lb	-11.5496
tus	-11.5497
理想	-11.5499
唇	-11.5499
エヌ	-11.5501
高雄	-11.5501
ウィング	-11.5501
基本的に	-11.5504
、1942	-11.5505
260	-11.5506
沿線	-11.5507
ライトノベル	-11.5507
いっ	-11.5507
}\	-11.5508
利用できる	-11.5508
ピカ	-11.5509
進み	-11.5514
上がる	-11.5515
ベネズエラ	-11.5515
著作権	-11.5516
の方が	-11.5517
ological	-11.5519
として開校	-11.5519
旬	-11.5519
ージュ	-11.5519
膳	-11.5521
ストア	-11.5521
による試合結果	-11.5523
ここでは	-11.5523
寅	-11.5524
通学区域	-11.5525
発信	-11.5527
併設	-11.5528
建設省	-11.5529
借り	-11.553
トミー	-11.5531
うちに	-11.5531
兵庫県立	-11.5531
ファーム	-11.5532
られており	-11.5533
芸術家	-11.5533
なければならない	-11.5534
零	-11.5538
ジェル	-11.5538
33.	-11.5538
コッ	-11.5539
演習	-11.5541
南極	-11.5543
アイスホッケー	-11.5543
(1998)	-11.5545
既存	-11.5545
スティーヴン	-11.5545
蒸気機関車	-11.5546
リアス	-11.5547
反射	-11.5547
示す	-11.5549
(1966	-11.555
ラボ	-11.555
七尾	-11.5551
理科	-11.5553
116	-11.5555
ret	-11.5555
kun	-11.5557
同時期に	-11.5558
考える	-11.5558
cut	-11.5559
以外に	-11.556
大西	-11.556
従四位下	-11.556
東小学校	-11.5561
年以降は	-11.5563
songs	-11.5565
ーリ	-11.5567
博覧会	-11.5571
教皇	-11.5571
新羅	-11.5571
後継者	-11.5572
flower	-11.5572
百科	-11.5573
ビック	-11.5574
utc	-11.5576
確立	-11.5576
修復	-11.5577
登場した	-11.5578
審査員	-11.5579
雌	-11.558
音楽大学	-11.5582
ポケット	-11.5582
lei	-11.5582
bd	-11.5582
。1970	-11.5584
アジア選手権	-11.5584
胃	-11.5584
安全保障	-11.5584
高等女学校	-11.5585
森山	-11.5586
をして	-11.5594
フェロー	-11.5594
維新	-11.5594
が盛ん	-11.5595
所在	-11.5595
に見られる	-11.5595
テレビ中継局	-11.5597
ツキ	-11.5598
見た	-11.5598
再発	-11.5599
人であり	-11.56
郡上	-11.5601
extra	-11.5601
公募	-11.5602
人文	-11.5605
育ち	-11.5607
色は	-11.5609
ボロ	-11.5611
咲く	-11.5612
販売されている	-11.5613
巨大	-11.5613
に迎え	-11.5614
270	-11.5616
戦死	-11.5616
直轄	-11.5616
たとえば	-11.5617
ボイス	-11.5617
mvp	-11.5617
見て	-11.5618
沿いに	-11.5618
リクエスト	-11.5619
木材	-11.5621
playstation	-11.5621
queen	-11.5621
ヤード	-11.5622
フランシス	-11.5622
初戦	-11.5624
歓	-11.5624
クタ	-11.5624
民衆	-11.5625
してしまった	-11.5626
シェア	-11.5626
符号	-11.5627
(2010)	-11.5628
トロント	-11.5628
lot	-11.563
販	-11.563
間を	-11.5631
発足した	-11.5631
に編入された	-11.5634
ぐら	-11.5634
入手	-11.5634
等級	-11.5634
002	-11.5635
jra	-11.5635
必要な	-11.5636
車種	-11.5636
出身の元サッカー選手	-11.5637
誓	-11.564
復元	-11.5642
なつ	-11.5643
制服	-11.5643
文法	-11.5644
当局	-11.5645
daniel	-11.5646
years	-11.5647
色彩	-11.5648
東亜	-11.5648
だから	-11.5649
まって	-11.5649
結ばれ	-11.5652
apple	-11.5653
浴	-11.5653
観光客	-11.5653
位置づけ	-11.5654
ミツ	-11.5654
(1):	-11.5656
枕	-11.5656
質問	-11.5656
ユン	-11.5658
に出演した	-11.5659
職人	-11.5659
tel	-11.566
刺激	-11.566
本州	-11.566
年に発表した	-11.566
を走る	-11.5661
貌	-11.5661
eye	-11.5662
try	-11.5664
standard	-11.5666
鱗	-11.5667
出生	-11.5668
129	-11.5668
lind	-11.5669
アサ	-11.5669
駄	-11.5669
倉敷	-11.5669
を加えた	-11.5671
する形で	-11.5672
およびその	-11.5673
コントロール	-11.5674
ヵ	-11.5676
砦	-11.568
食事	-11.5681
ガメ	-11.5681
宗家	-11.5684
ノミネート	-11.5684
焼失	-11.5688
漫才	-11.5688
したことで	-11.5689
1800	-11.5691
鶴岡	-11.5691
駅と	-11.5693
検出	-11.5694
八幡宮	-11.5694
文部科学省	-11.5695
かれる	-11.5698
初登場	-11.5701
ッポ	-11.5701
mission	-11.5702
ったり	-11.5704
38.	-11.5706
東武	-11.5707
ルーキー	-11.5708
tele	-11.5709
fox	-11.5711
用意	-11.5712
に大きな	-11.5712
甲板	-11.5713
をもとに	-11.5713
石を	-11.5715
筑	-11.5715
自体は	-11.5716
が発売された	-11.5716
を起こす	-11.5716
城跡	-11.5716
チーズ	-11.5717
に搭載	-11.5719
^{2}	-11.5719
高砂	-11.5719
生まれた	-11.5719
ことができた	-11.5721
その結果	-11.5722
を有し	-11.5723
1.6	-11.5724
put	-11.5724
艦長	-11.5725
スパー	-11.5725
行われていた	-11.5725
百選	-11.5725
海賊	-11.5726
倒れ	-11.5726
督	-11.5726
とら	-11.5727
leg	-11.5727
天野	-11.5728
bru	-11.5728
並木	-11.5728
可能性がある	-11.573
セミナー	-11.5731
pf	-11.5731
java	-11.5732
ç	-11.5733
住職	-11.5734
を統合	-11.5735
に敗れ	-11.5737
行列	-11.5738
オキ	-11.5739
multi	-11.5739
水曜日	-11.574
セク	-11.5741
death	-11.5743
延暦	-11.5744
ティエ	-11.5744
独自	-11.5746
試作	-11.5746
東は	-11.5747
宇部	-11.5748
業務を	-11.5749
益田	-11.5749
一色	-11.575
足利義	-11.5752
ビアン	-11.5752
を離れ	-11.5752
樫	-11.5753
と合併	-11.5753
松下	-11.5753
古墳群	-11.5754
親友	-11.5755
dark	-11.5756
経過	-11.5757
書いた	-11.5759
シベリア	-11.576
女流	-11.576
を提供する	-11.576
キッ	-11.5761
疑問	-11.5761
藤岡	-11.5762
国外	-11.5762
友達	-11.5764
回収	-11.5764
のもとで	-11.5769
ブロードウェイ	-11.5769
rise	-11.5769
務めた	-11.5769
パール	-11.577
火曜日	-11.577
ループ	-11.5771
尚書	-11.5772
城山	-11.5772
デュー	-11.5774
滋	-11.5774
は同じ	-11.5774
蜜	-11.5775
管弦楽団	-11.5776
中断	-11.5776
が登場する	-11.5777
が認められ	-11.5782
、1936	-11.5782
東海道	-11.5782
126	-11.5785
縮小	-11.5789
issn	-11.5789
島原	-11.579
aff	-11.5791
のもと	-11.5791
駅から徒歩	-11.5791
似た	-11.5792
speed	-11.5794
oid	-11.5794
louis	-11.5795
西条	-11.5796
放送されている	-11.5797
日公開	-11.5797
development	-11.5799
セキュリティ	-11.58
立った	-11.58
は不明である	-11.5801
霊場	-11.5802
小沢	-11.5803
サリ	-11.5803
単語	-11.5804
ht	-11.5806
にそれぞれ	-11.5809
べく	-11.581
慧	-11.5811
が置かれ	-11.5812
feel	-11.5812
肌	-11.5813
飾り	-11.5813
プト	-11.5813
pmc	-11.5816
づき	-11.5817
セガ	-11.5817
近年では	-11.5819
徳島県道	-11.5819
シカ	-11.5821
多賀	-11.5822
治安	-11.5823
に関わる	-11.5824
志賀	-11.5824
野川	-11.5824
が含まれる	-11.5825
から分離	-11.5826
280	-11.5826
欧米	-11.5826
日テレ	-11.5826
self	-11.5826
生地	-11.5827
bg	-11.5827
首位	-11.5828
入居	-11.5829
never	-11.5833
主導	-11.5836
東北地方	-11.5836
オウ	-11.5837
吹奏楽	-11.5837
を執筆	-11.5838
らなかった	-11.5838
ツァー	-11.5839
同期に	-11.584
平山	-11.584
アルカ	-11.5841
八重	-11.5841
路線認定	-11.5842
wiki	-11.5843
gua	-11.5843
教官	-11.5844
social	-11.5846
安永	-11.5846
hou	-11.5846
カーブ	-11.5847
胎	-11.5848
rot	-11.5848
に該当する	-11.5848
を使用している	-11.585
金田	-11.5851
も参照	-11.5851
古河	-11.5851
こととなった	-11.5851
microsoft	-11.5853
後任	-11.5853
紹	-11.5854
警部	-11.5854
首都圏	-11.5856
吾妻	-11.5856
訪れる	-11.5856
村域	-11.5857
○○	-11.5858
構内	-11.5859
チカ	-11.5859
田駅	-11.5865
署名	-11.5867
ワース	-11.5867
が強い	-11.5869
パキスタン	-11.5869
明らかに	-11.587
に所属した	-11.587
町の一部	-11.5871
range	-11.5871
プレゼント	-11.5872
ルートヴィヒ	-11.5873
育て	-11.5874
原曲	-11.5876
后	-11.5879
水源	-11.5883
に戻った	-11.5885
バス停下車	-11.5886
社会的	-11.5887
サックス	-11.5888
パネル	-11.5888
タッグ	-11.5891
厚生労働省	-11.5892
オリジナルアルバム	-11.5892
二つ	-11.5893
プラットフォーム	-11.5893
umi	-11.5895
新人公演	-11.5896
(1961	-11.5897
ボランティア	-11.5898
マルク	-11.5901
達也	-11.5902
glo	-11.5902
本庄	-11.5902
以後は	-11.5902
が多かった	-11.5903
205	-11.5904
コリン	-11.5904
出身者	-11.5905
履	-11.5906
に統合	-11.5909
gre	-11.591
招	-11.591
jazz	-11.5911
伝えられ	-11.5911
口腔	-11.5913
視聴	-11.5913
スズキ	-11.5914
アーツ	-11.5914
を考える	-11.5916
ランス	-11.5916
クロード	-11.5916
墜落	-11.5916
新庄	-11.5917
ジャパンラグビートップリーグ	-11.5918
と一緒に	-11.5918
さえ	-11.5919
悩	-11.592
kom	-11.5921
ヂ	-11.5921
認め	-11.5924
を占める	-11.5924
熊本市	-11.5926
に入ると	-11.5927
バレーボール選手	-11.5927
バレ	-11.5929
ン酸	-11.5931
働く	-11.5931
md	-11.5931
候補者	-11.5932
не	-11.5932
つける	-11.5935
股	-11.5937
thi	-11.5937
頸	-11.5937
ゾー	-11.5938
ハロ	-11.5939
数学者	-11.5939
年末	-11.5939
有限公司	-11.594
年ぶりの	-11.5942
アルバ	-11.5942
電気通信	-11.5945
さら	-11.5946
入った	-11.5947
gli	-11.5947
フットボールリーグ	-11.5947
部分が	-11.5947
temp	-11.5947
神奈川県立	-11.5948
削	-11.5949
ちん	-11.595
チェック	-11.5951
コカ	-11.5953
の各一部	-11.5954
大神	-11.5954
スリ	-11.5955
北極	-11.5956
水を	-11.5956
優先	-11.5956
勝利し	-11.5956
三省堂	-11.596
rai	-11.5961
少なく	-11.5962
蒸	-11.5963
シーズンには	-11.5963
次に	-11.5963
塗	-11.5964
トラブル	-11.5965
ノベル	-11.5966
ィー	-11.5967
として生まれた	-11.5968
日本史	-11.5968
監査	-11.5969
asian	-11.597
代将軍	-11.5971
戦った	-11.5971
dé	-11.5972
期間中	-11.5972
1・2	-11.5972
joseph	-11.5974
エンターテイメント	-11.5977
革	-11.5979
ひとみ	-11.598
ギャル	-11.5981
町一丁目	-11.5982
joe	-11.5983
改札	-11.5986
甚	-11.5986
終結	-11.5986
青梅	-11.5987
ユキ	-11.5988
慰	-11.5988
バラエティ	-11.5989
師匠	-11.599
オールスター	-11.5991
cbs	-11.5992
誉	-11.5993
不可	-11.5993
1867	-11.5994
という言葉	-11.5996
大連	-11.5997
ポロ	-11.5999
入賞	-11.6
名古屋市計画局	-11.6001
ーヌ	-11.6001
に行く	-11.6001
学部卒業	-11.6002
ラト	-11.6003
rid	-11.6003
語源	-11.6005
1863	-11.6005
していった	-11.6007
、1937	-11.6007
年目の	-11.6008
。[	-11.6008
本部長	-11.6009
キッド	-11.601
change	-11.601
有田	-11.6011
以外で	-11.6013
製作総指揮	-11.6014
を除き	-11.6014
burn	-11.6016
工業株式会社	-11.6019
化粧品	-11.6022
江戸幕府	-11.6022
下関	-11.6022
ニョ	-11.6022
描き	-11.6024
婆	-11.6024
待ち	-11.6024
赤色	-11.6026
ヨーゼフ	-11.6027
不可能	-11.6027
クリーム	-11.6027
堀川	-11.6027
大学法学部卒業	-11.6027
一日	-11.6033
rr	-11.6033
kb	-11.6035
タウ	-11.6036
ペレ	-11.6037
祖母	-11.6037
商業施設	-11.6038
osaka	-11.6038
等に	-11.6039
名称を	-11.6039
であることから	-11.6039
archives	-11.6039
を見せ	-11.604
心を	-11.604
法令	-11.6044
浮世絵	-11.6044
桐生	-11.6044
放送していた	-11.6045
中日新聞	-11.6045
集成	-11.6046
福音	-11.6046
缶	-11.6046
込め	-11.6046
推移	-11.6046
社会科学	-11.6047
アト	-11.6049
ハリス	-11.6049
母音	-11.605
種類の	-11.6051
とは異なる	-11.6053
バンタム級	-11.6057
今作	-11.6057
アレクサンダー	-11.6058
、1939	-11.6059
アダルト	-11.6059
諡	-11.6059
両国	-11.606
東京市	-11.6061
百年	-11.6061
重用	-11.6062
ロビン	-11.6065
振動	-11.6066
裕子	-11.6067
専属	-11.6068
に改組	-11.6069
奨	-11.6069
退社	-11.607
シンガー	-11.6073
県民	-11.6073
を迎える	-11.6073
信号場	-11.6074
を占め	-11.6075
排水	-11.6077
窓口	-11.6077
販売する	-11.6078
四男	-11.6078
いくつか	-11.6078
天才	-11.608
内戦	-11.608
dragon	-11.608
ui	-11.608
山県	-11.6081
家系	-11.6081
フットボール	-11.6082
偵察	-11.6084
shop	-11.6084
program	-11.6085
就役	-11.6087
証拠	-11.6087
エット	-11.6088
mars	-11.6088
庁長官	-11.6088
猟	-11.6089
一般県道	-11.609
知多	-11.609
玲	-11.6091
栖	-11.6092
あらゆる	-11.6093
等が	-11.6095
山手	-11.6095
はじめて	-11.6096
知られ	-11.6097
mur	-11.6099
犯人	-11.61
文学賞	-11.6102
mbc	-11.6103
版画	-11.6105
テッ	-11.6106
旧姓	-11.6107
試合に出場し	-11.6108
専修学校	-11.6108
知子	-11.6109
をとる	-11.6109
井戸	-11.6109
保全	-11.6109
っく	-11.611
心臓	-11.611
june	-11.6111
sec	-11.6111
1.1	-11.6113
ソフトボール	-11.6116
詳	-11.6116
brand	-11.6116
再興	-11.6116
対馬	-11.6117
gree	-11.6119
第二次	-11.612
アムステルダム	-11.612
治世	-11.6122
ニューヨーク市	-11.6122
に関する法律	-11.6123
新城	-11.6123
マネー	-11.6124
美女	-11.6125
見える	-11.6128
を実現	-11.6128
リッジ	-11.6131
可能である	-11.6131
多田	-11.6132
連結	-11.6132
natural	-11.6132
参入	-11.6133
1,3	-11.6134
老朽化	-11.6134
heaven	-11.6135
ニュータウン	-11.6136
ジーン	-11.6138
董	-11.6138
が初めて	-11.6139
北町	-11.6139
nation	-11.6139
投票率	-11.614
人数	-11.614
醸造	-11.6142
クリスタル	-11.6142
児童数	-11.6143
1861	-11.6143
鉛	-11.6144
渡し	-11.6145
制作協力	-11.6146
上村	-11.6146
5.5	-11.6148
最高位	-11.6148
ナリ	-11.6148
場合に	-11.6149
ーニャ	-11.6149
を舞台に	-11.615
牝馬	-11.6151
を出した	-11.6151
第一次	-11.6152
池上	-11.6153
中佐	-11.6154
素数	-11.6155
石炭	-11.6157
元素	-11.6157
戦時	-11.6157
被災	-11.6159
の上に	-11.616
正式な	-11.616
7-1	-11.616
が発生し	-11.6161
果て	-11.6162
株主	-11.6162
than	-11.6162
マイナー	-11.6163
干支	-11.6164
五十嵐	-11.6164
365	-11.6165
浸	-11.6165
ポルト	-11.6166
tree	-11.6167
、1934	-11.6167
fair	-11.6169
ことはなかった	-11.6169
turn	-11.6169
かも	-11.6169
難しい	-11.6169
mega	-11.617
実力	-11.6172
ことができ	-11.6173
ドルフ	-11.6174
ジョニー	-11.6174
じゃない	-11.6174
天王	-11.6175
bot	-11.6175
主役	-11.6175
謀	-11.6176
1862	-11.6179
副社長	-11.6179
その間	-11.6181
穏	-11.6182
十分	-11.6183
北魏	-11.6183
ていて	-11.6184
フラツィオーネ	-11.6185
デッド	-11.6186
allmusic	-11.6186
lost	-11.6187
登場し	-11.6187
鉢	-11.6189
築城	-11.6189
mobile	-11.619
測量	-11.619
1/2	-11.6191
とは異なり	-11.6191
西郷	-11.6192
播	-11.6192
藤枝	-11.6193
駅まで	-11.6194
1866	-11.6194
colo	-11.6194
寄付	-11.6194
前橋市	-11.6195
ery	-11.6196
部下	-11.6198
需要	-11.6198
ガンダム	-11.6199
恵那	-11.6199
っていたが	-11.6201
聖堂	-11.6203
郡内	-11.6203
方程式	-11.6204
外観	-11.6205
と考えられ	-11.6207
契約を結んだ	-11.6208
運送	-11.6208
神楽	-11.6208
方に	-11.621
野球選手	-11.6211
売り上げ	-11.6212
若狭	-11.6213
本大会	-11.6215
～」	-11.6216
佐久間	-11.6216
実装	-11.6216
専門家	-11.6217
裁判官	-11.6217
左岸	-11.6218
競艇場	-11.6218
kit	-11.6221
筆頭	-11.6221
ノヴァ	-11.6222
カシ	-11.6225
講談社学術文庫	-11.6225
かおり	-11.6225
も同様	-11.6225
吹替	-11.6227
農家	-11.623
治郎	-11.623
続けている	-11.6231
協奏曲	-11.6232
テレビ映画	-11.6233
に加盟	-11.6233
本格	-11.6233
任官	-11.6233
学研	-11.6234
カクテル	-11.6234
西南	-11.6235
盆	-11.6236
を継いだ	-11.6236
動物園	-11.6239
(1965	-11.6239
民謡	-11.624
グレゴリオ暦	-11.624
8-1	-11.6243
ョ	-11.6243
カザフスタン	-11.6244
joy	-11.6245
喬	-11.6246
スクエア	-11.6246
ric	-11.6246
につき	-11.6247
1.8	-11.6247
に続く	-11.6247
を抱え	-11.6248
巡目	-11.6248
ブーム	-11.6249
天平	-11.6249
新設された	-11.6249
責	-11.6254
宴	-11.6254
ドレ	-11.6256
を打ち	-11.6256
天理	-11.6258
されるようになった	-11.6258
食堂	-11.6259
絹	-11.6259
メト	-11.6259
ケーブルテレビ	-11.626
クリエイティブ	-11.6262
移植	-11.6262
犬種	-11.6262
小原	-11.6262
シリ	-11.6263
市営	-11.6263
への道	-11.6263
asp	-11.6264
告白	-11.6264
ストー	-11.6267
pel	-11.6267
古賀	-11.6267
あお	-11.627
の発展	-11.627
総覧	-11.6271
イギリス海軍	-11.6272
死に	-11.6276
にくい	-11.6276
%20	-11.6277
わし	-11.6277
ナポレオン	-11.6277
争	-11.6278
されてきた	-11.6279
合わせた	-11.628
ย	-11.6282
世紀末	-11.6282
選ばれ	-11.6282
ular	-11.6285
sir	-11.6285
シーズンから	-11.6287
modern	-11.6288
フェザー級	-11.6288
シャトル	-11.6289
村大字	-11.6289
長らく	-11.629
フィート	-11.6291
ドメイン	-11.6293
分間	-11.6293
誘	-11.6294
ポニーキャニオン	-11.6295
三十	-11.6296
ペドロ	-11.6296
lation	-11.6297
らは	-11.6298
長谷	-11.63
ameba	-11.6301
書かれている	-11.6302
クマ	-11.6305
クシ	-11.6306
モーツァルト	-11.6307
出会い	-11.6307
ニッポン	-11.6309
ないこと	-11.6312
狐	-11.6312
高架	-11.6313
oz	-11.6313
デール	-11.6315
十七	-11.632
と共同	-11.6321
を図る	-11.6323
かえ	-11.6324
アメリカで	-11.6324
工業大学	-11.6325
アップル	-11.6325
代官	-11.6326
alpha	-11.6327
首長	-11.6327
みんなのうた	-11.6328
先発出場	-11.6328
ッチャー	-11.633
消費者	-11.6331
田代	-11.6331
クラン	-11.6332
ーニョ	-11.6332
に立ち	-11.6335
遺体	-11.6335
はかつて	-11.6335
商業高等学校	-11.6336
フレーム	-11.6337
1865	-11.6338
ij	-11.6339
セロ	-11.6343
114	-11.6344
naval	-11.6344
月発行	-11.6344
っ子	-11.6344
開け	-11.6344
ナガ	-11.6345
起用	-11.6345
正規	-11.6345
塊	-11.6346
同年に	-11.6347
実際	-11.6347
取る	-11.6348
117	-11.6348
後には	-11.6349
使用されていた	-11.6351
rou	-11.6351
バラード	-11.6354
に必要な	-11.6355
川原	-11.6356
読売テレビ	-11.6356
食べる	-11.6357
ncid	-11.6358
首席	-11.6361
感情	-11.6362
lio	-11.6363
旧称	-11.6363
aspx	-11.6364
isu	-11.6366
軍隊	-11.6366
brown	-11.6367
クラウン	-11.6367
容量	-11.6368
とも表記される	-11.6368
ライナー	-11.6369
選手の通算成績と情報	-11.6369
下田	-11.637
bgm	-11.637
ミラ	-11.6371
暴力	-11.6371
信用	-11.6372
支え	-11.6372
週末	-11.6375
管轄区域	-11.6375
add	-11.6375
mary	-11.6375
決議	-11.6375
shima	-11.6375
止ま	-11.6375
ベラルーシ	-11.6376
に本社	-11.6376
アシ	-11.6379
鴻	-11.6379
白水社	-11.638
こうえん	-11.6381
エレクトリック	-11.6383
クルーズ	-11.6384
町村制施行により	-11.6385
北海道札幌市	-11.6385
青少年	-11.6386
に就任する	-11.6387
評議会	-11.6388
サクラ	-11.6389
梓	-11.639
国民党	-11.639
。1989	-11.6391
富山県道	-11.6392
6000	-11.6392
共同体	-11.6392
奥州	-11.6392
並び	-11.6393
くち	-11.6393
6-0	-11.6393
ジョセフ	-11.6394
よこ	-11.6397
cio	-11.6398
ウェー	-11.6399
snow	-11.64
割り	-11.6401
戯曲	-11.6401
東京都千代田区	-11.6401
ってくる	-11.6403
大東	-11.6405
saki	-11.6406
npb	-11.6406
を起こした	-11.6408
はるか	-11.6408
深川	-11.6408
thing	-11.6409
寺町	-11.6409
付いた	-11.6409
一連の	-11.641
論集	-11.6411
フィギュアスケート選手	-11.6411
と称する	-11.6413
福知山	-11.6414
意味で	-11.6415
ウズベキスタン	-11.6415
tas	-11.6417
政治的	-11.6417
ピーク	-11.6418
spa	-11.6419
レッジ	-11.642
侵入	-11.6421
dear	-11.6421
死んだ	-11.6422
出身のプロサッカー選手	-11.6422
カルロ	-11.6423
dom	-11.6425
豊島	-11.6425
sul	-11.6426
放送される	-11.6426
市制施行	-11.6426
振付	-11.6426
ていった	-11.6427
大系	-11.643
ストップ	-11.6431
ついに	-11.6432
洪水	-11.6435
jc	-11.6436
春秋	-11.6436
ベンチ	-11.6437
選ばれた	-11.6437
三つ	-11.6439
時代劇	-11.6441
卒業後は	-11.6443
かかる	-11.6444
突き	-11.6445
汐	-11.6446
筋肉	-11.6446
berlin	-11.6448
記されている	-11.6449
ワンダー	-11.6449
オリックス	-11.6451
実は	-11.6451
明らか	-11.6452
ブレン	-11.6454
軍艦	-11.6454
department	-11.6454
小樽	-11.6454
鼓	-11.6456
スワ	-11.6456
利用されている	-11.6459
そのような	-11.646
最終回	-11.646
カツ	-11.646
イム	-11.6461
崔	-11.6463
itch	-11.6464
好み	-11.6464
受託	-11.6466
法第	-11.6466
堰	-11.6466
番組は	-11.647
センチメートル	-11.6472
織田信長	-11.6472
などは	-11.6472
崖	-11.6472
サンパウロ	-11.6473
を編入	-11.6474
谷町	-11.6474
003	-11.6474
lake	-11.6474
メディ	-11.6475
日執行	-11.6475
short	-11.6476
kill	-11.6476
平面	-11.6477
年代には	-11.6477
生じる	-11.6477
たれ	-11.6477
癒	-11.6478
スパルタ	-11.6479
リフ	-11.648
plants	-11.648
}{	-11.6482
オランダ語	-11.6483
年公開の	-11.6484
を発揮	-11.6485
根拠	-11.6488
再選	-11.6489
定年退官	-11.6489
書館	-11.649
coll	-11.6491
叶	-11.6492
南北に	-11.6493
川沿い	-11.6493
日本標準時	-11.6498
京子	-11.6499
dam	-11.6499
コミュニケーションズ	-11.6499
plant	-11.6499
列車が	-11.6502
しよう	-11.6502
番人気	-11.6503
電撃	-11.6505
into	-11.6505
file	-11.6506
港線	-11.6507
メカ	-11.6508
を加え	-11.6508
ときは	-11.6508
東京証券取引所	-11.651
美作	-11.651
cv	-11.6511
桑名	-11.6511
ネーム	-11.6514
foundation	-11.6515
ローレンス	-11.6515
ネク	-11.6515
かせ	-11.6515
ヴィス	-11.6516
十四	-11.6516
208	-11.6516
jbis	-11.6517
walk	-11.6517
と称した	-11.6519
新宮	-11.6521
水平	-11.6521
(1963	-11.6522
bj	-11.6522
柏原	-11.6522
真田	-11.6523
ベレ	-11.6525
縛	-11.6526
ラール	-11.6529
わた	-11.653
年発売	-11.653
揃	-11.653
上方	-11.6531
で死去した	-11.6532
人類学	-11.6533
功労	-11.6535
ポンプ	-11.6536
分署	-11.6536
inger	-11.6536
岩井	-11.6538
コマンド	-11.6539
したがって	-11.654
惟	-11.6544
損傷	-11.6544
edit	-11.6544
洛	-11.6545
をめぐる	-11.6546
元プロ野球選手	-11.6546
新生	-11.6548
越谷	-11.6549
うつ	-11.6549
isa	-11.655
にん	-11.6552
script	-11.6552
bibcode	-11.6554
ねこ	-11.6556
たて	-11.6557
時間は	-11.6557
師範学校	-11.6557
cri	-11.6559
ようになっている	-11.656
という名前	-11.656
莉	-11.6562
ホッ	-11.6563
見られ	-11.6567
パンチ	-11.6568
として活躍した	-11.6568
中日ドラゴンズ	-11.6569
取り上げられ	-11.6571
以外にも	-11.6571
海底	-11.6572
culture	-11.6572
でもあり	-11.6573
水谷	-11.6573
ッシング	-11.6573
0.4	-11.6574
番線	-11.6574
由美	-11.6574
に帰国	-11.6575
などでは	-11.6575
〜』(	-11.6576
を取る	-11.6577
場所で	-11.6577
ω	-11.6577
落語家	-11.6578
プチ	-11.6579
岐阜市	-11.658
を受章	-11.6581
敷設	-11.6581
大垣	-11.6582
cinema	-11.6583
ソール	-11.6586
ration	-11.6586
三和	-11.6587
特撮	-11.6588
父が	-11.6589
イグ	-11.6589
朝鮮語版	-11.659
978-40	-11.6593
などを経て	-11.6594
バドミントン	-11.6596
only	-11.6596
bridge	-11.6597
描写	-11.6597
成立した	-11.6598
any	-11.66
盲	-11.6601
もも	-11.6602
紋章	-11.6602
mod	-11.6604
ニェ	-11.6604
ことば	-11.6605
zh	-11.6605
濃度	-11.6605
7.5	-11.6605
マクドナルド	-11.6608
尖	-11.6609
内陸	-11.6609
土浦	-11.6609
続ける	-11.6612
噴火	-11.6612
屯	-11.6613
アルプス	-11.6615
ホロ	-11.6616
求め	-11.6616
ミャンマー	-11.6617
本願寺	-11.6618
演奏会	-11.6618
ライアン	-11.6618
チーフ	-11.6619
次官	-11.6619
名作	-11.6619
実習	-11.662
美穂	-11.662
パイプ	-11.662
デジ	-11.662
助監督	-11.6621
歌い	-11.6621
樽	-11.6622
シュル	-11.6624
酔	-11.6625
らす	-11.6625
シド	-11.6626
ウェルター級	-11.6626
で敗れ	-11.6627
0-0	-11.6627
know	-11.6627
標識	-11.6629
子供たち	-11.6629
信頼	-11.6629
exile	-11.6629
庸	-11.6629
。1988	-11.663
カルチャー	-11.6631
中小企業	-11.6632
nova	-11.6632
化され	-11.6633
世に	-11.6633
逝去	-11.6634
檜	-11.6634
sat	-11.6634
炭酸	-11.6636
を失った	-11.6637
ピリ	-11.6639
会議員	-11.6639
享	-11.664
被害者	-11.664
(1964	-11.664
はなかった	-11.664
部リーグ	-11.6641
本格的に	-11.6642
キミ	-11.6642
水田	-11.6642
使用され	-11.6643
バレーボール部	-11.6643
難波	-11.6644
戦死した	-11.6646
鮎	-11.6646
紀要	-11.6647
傑	-11.6648
記念日	-11.665
17:00	-11.665
を目指して	-11.6651
造り	-11.6651
依存	-11.6653
燃え	-11.6655
渚	-11.6655
縫	-11.6655
いとう	-11.6655
少数	-11.6656
意図	-11.6658
方位	-11.6659
指数	-11.6659
機関銃	-11.666
世界選手権では	-11.666
済み	-11.6661
kra	-11.6661
唐津	-11.6661
年末年始	-11.6666
奨励賞	-11.6666
lay	-11.6667
全国書誌番号	-11.6668
目黒	-11.6669
海南	-11.6669
0.7	-11.667
lady	-11.6671
上がった	-11.6672
立体	-11.6672
日本人名大辞典	-11.6672
マド	-11.6673
marine	-11.6674
ッリ	-11.6675
視覚	-11.6676
boo	-11.6679
喰	-11.6679
ッツォ	-11.668
tol	-11.668
ぇ	-11.668
01/	-11.6681
建物は	-11.6682
フィギュアスケート選手権	-11.6684
アメリカ軍	-11.6684
クイ	-11.6686
閉じ	-11.6687
篠原	-11.6687
ピュ	-11.6688
それでも	-11.6688
私の	-11.6693
、1931	-11.6693
天然記念物	-11.6694
分散	-11.6695
違反	-11.6695
ан	-11.6696
ges	-11.6696
をいう	-11.6697
岐阜県道	-11.6699
生年不詳	-11.6699
笑い	-11.67
limited	-11.67
史記	-11.6703
が進められ	-11.6704
キエフ	-11.6704
dun	-11.6705
rn	-11.6705
lus	-11.6705
ヨウ	-11.6706
一緒に	-11.6706
私は	-11.6709
ロンドンオリンピック	-11.6709
エージェンシー	-11.6709
跡地に	-11.671
コンサルティング	-11.6711
が継いだ	-11.6711
石巻	-11.6711
テリ	-11.6711
海戦	-11.6713
捕虜	-11.6714
gil	-11.6715
自身は	-11.6715
殺された	-11.6715
エンジニアリング	-11.6716
わせ	-11.6716
安曇	-11.6716
凝	-11.6716
fuji	-11.6716
ウィルソン	-11.6716
貴族院	-11.6717
描いた	-11.6717
vio	-11.6719
欽	-11.6719
ギリシア語	-11.672
稜	-11.672
クラリネット	-11.672
専任講師	-11.6721
aria	-11.6722
serv	-11.6723
国会議員	-11.6725
健二	-11.6725
メモリ	-11.6726
決勝戦	-11.6727
番組で	-11.6727
扱	-11.6729
することは	-11.6731
商工会議所	-11.6731
進歩	-11.6731
に指定	-11.6732
単純	-11.6733
に引き	-11.6733
つけた	-11.6734
ヒメ	-11.6734
大成	-11.6736
マスターズ	-11.6738
村は	-11.6738
で生まれ	-11.6739
ノリ	-11.6739
bour	-11.674
を買収	-11.674
間隔	-11.6741
公式ページ	-11.6741
サビ	-11.6743
呼ばれ	-11.6743
エストニア	-11.6743
開山	-11.6745
acc	-11.6748
ī	-11.6749
狭い	-11.6749
高瀬	-11.675
cad	-11.6752
はそれぞれ	-11.6753
委員会委員	-11.6753
時刻表	-11.6756
移住	-11.6756
、1932	-11.6758
ミスター	-11.6759
はまだ	-11.6759
に初めて	-11.6759
1,4	-11.676
健太郎	-11.6761
プログラミング	-11.6761
入省	-11.6762
志摩	-11.6767
っぽ	-11.6768
撮	-11.677
明け	-11.677
、1933	-11.6772
販売している	-11.6774
制定された	-11.6774
崩	-11.6775
大相撲	-11.6776
神様	-11.6776
であるという	-11.6777
交響曲第	-11.6778
魚類	-11.6778
重要文化財	-11.678
に掲載	-11.6781
法学部	-11.6781
look	-11.6783
で唯一	-11.6785
フアン	-11.6788
硫黄	-11.6789
レディース	-11.6789
リフト	-11.679
曲線	-11.679
2,3	-11.6791
ิ	-11.6792
競輪場	-11.6793
を集めた	-11.6794
長浜	-11.6794
答	-11.6795
月発売	-11.6796
植物園	-11.6796
臼	-11.6799
パトリック	-11.6801
衰退	-11.6803
撤去	-11.6803
固め	-11.6805
強豪	-11.6806
わけ	-11.6806
スワン	-11.6806
ベッド	-11.6807
半田	-11.6807
本館	-11.6809
退学	-11.681
miya	-11.681
招集	-11.6813
アーク	-11.6814
ono	-11.6818
サーバ	-11.6819
天文学	-11.6822
グリー	-11.6823
幼少期	-11.6824
血管	-11.6825
シュト	-11.6826
entry	-11.6827
を披露	-11.6827
立命館大学	-11.683
389	-11.6832
千葉県道	-11.6832
傍	-11.6833
単独で	-11.6833
なっていた	-11.6834
保証	-11.6835
堀江	-11.6835
を備え	-11.6835
アテネ	-11.6835
社名を	-11.6838
審議会	-11.6839
ンガ	-11.6839
正しい	-11.684
はこれを	-11.6841
、1935	-11.6842
以下の分離集落	-11.6843
淫	-11.6844
〉)	-11.6845
和彦	-11.6846
の一員	-11.6847
四日市	-11.6847
イリ	-11.6848
社会党	-11.6848
製造された	-11.6849
怒り	-11.6849
到	-11.6852
オキシ	-11.6852
はあまり	-11.6852
050	-11.6853
navi	-11.6853
早川	-11.6853
カップル	-11.6854
stu	-11.6855
的で	-11.6855
ユニバーシアード	-11.6856
代謝	-11.6856
レモン	-11.6856
高校野球	-11.6856
くない	-11.6856
出場し	-11.6858
(1959	-11.6859
叢	-11.6859
かま	-11.686
守り	-11.6862
ender	-11.6863
ı	-11.6863
0-2	-11.6863
nm	-11.6864
bud	-11.6865
ors	-11.6865
マサ	-11.6866
マツダ	-11.6867
地方競馬	-11.6868
hello	-11.6869
ッサー	-11.687
処刑	-11.687
ese	-11.687
那珂	-11.6871
幸福	-11.6871
女子シングル	-11.6871
smile	-11.6872
sbs	-11.6872
であることを	-11.6873
つう	-11.6873
熙	-11.6874
フレンド	-11.6874
中核	-11.6874
sey	-11.6875
下位	-11.6877
似ている	-11.6877
危	-11.6877
да	-11.6877
救助	-11.6878
党首	-11.6878
中でも	-11.6878
一等	-11.6879
imp	-11.6879
トロン	-11.688
割合	-11.6882
なって	-11.6882
研究開発	-11.6883
row	-11.6883
掲載されている	-11.6884
センス	-11.6884
コンサルタント	-11.6885
シェン	-11.6886
lib	-11.6886
町が	-11.6888
が始まった	-11.6889
民主主義	-11.6889
、1928	-11.6891
することとなった	-11.6891
提示	-11.6892
を含めた	-11.6893
このアルバム	-11.6893
たき	-11.6894
キャッチ	-11.6895
kal	-11.6895
を達成した	-11.6896
gla	-11.6896
リメイク	-11.6896
必要がある	-11.6897
准	-11.6898
と表記される	-11.6899
を繰り返し	-11.69
大阪府出身	-11.6901
ドレス	-11.6901
長田	-11.6901
ミシェル	-11.6902
に成功した	-11.6902
きよ	-11.6902
aero	-11.6904
セリ	-11.6904
戦後は	-11.6906
手がけ	-11.6907
チオ	-11.6908
踊る	-11.6908
ミネルヴァ書房	-11.691
pho	-11.691
トリック	-11.691
ryo	-11.691
実延長	-11.6911
じる	-11.6911
リボン	-11.6914
津村	-11.6914
陸上競技場	-11.6914
情熱	-11.6916
シングルス	-11.6917
pul	-11.6919
667	-11.6921
死ぬ	-11.6921
ならず	-11.6923
公益社団法人	-11.6923
続日本紀	-11.6924
沿	-11.6925
bia	-11.6927
2.7	-11.6927
仕事を	-11.6927
宿泊	-11.6928
ファイブ	-11.693
サキ	-11.6931
々と	-11.6932
デビュー作	-11.6932
を目的として	-11.6933
として知られている	-11.6934
born	-11.6934
一条	-11.6935
ั	-11.6935
跳	-11.6935
ラング	-11.6936
nikkei	-11.6936
通算成績	-11.6936
fis	-11.6936
源流	-11.6938
にともない	-11.6939
理学	-11.694
セッション	-11.6941
還元	-11.6941
愛と	-11.6942
る事	-11.6942
幕内	-11.6944
伝記	-11.6946
操縦	-11.6946
cape	-11.6946
分教場	-11.6948
右岸	-11.6948
ポッ	-11.695
二次	-11.695
ダート	-11.6952
ロマンス	-11.6953
彦根	-11.6953
余り	-11.6954
306	-11.6955
同地	-11.6955
アルバニア	-11.6956
工学部	-11.6957
に渡って	-11.6959
んぼ	-11.696
かどうか	-11.696
貝塚	-11.6962
ステル	-11.6963
を指揮	-11.6964
高速バス	-11.6968
しているため	-11.6968
)...	-11.6968
取り扱い	-11.6969
並べ	-11.6971
加熱	-11.6972
#2	-11.6972
欧	-11.6972
覇	-11.6973
ファクトリー	-11.6974
国鉄分割民営化により	-11.6974
ブックレット	-11.6975
当日	-11.6977
に入門	-11.6977
10000	-11.6977
民事	-11.6978
先住民	-11.6979
視聴者	-11.6979
芸名	-11.698
史研究	-11.698
ホウ	-11.6984
(1994)	-11.6984
すき	-11.6984
ドキュメント	-11.6985
自立	-11.6986
ニーズ	-11.6986
が存在した	-11.6987
今回	-11.6989
テュー	-11.699
が少ない	-11.6991
するよう	-11.6993
でプレーし	-11.6994
乗り入れ	-11.6994
少なくとも	-11.6994
マルティ	-11.6994
燈	-11.6994
聖人	-11.6996
延び	-11.6996
を挙げる	-11.6998
政府は	-11.6999
ヴァレ	-11.7
不良	-11.7
励	-11.7004
ダイヤ	-11.7005
哨戒	-11.7006
豊後	-11.7006
マナ	-11.7007
フォート	-11.7008
枚目のシングルである	-11.7008
april	-11.7009
号掲載	-11.701
550	-11.7011
座席	-11.7011
当社	-11.7012
を開始する	-11.7012
ニウム	-11.7012
カミ	-11.7013
友好	-11.7014
edge	-11.7014
リブ	-11.7016
岩波	-11.7016
イリノイ州	-11.7017
地域圏	-11.7018
残留	-11.7018
を取って	-11.7019
ヅ	-11.7021
紺	-11.7021
マウント	-11.7022
川と	-11.7023
を目的とした	-11.7023
頻繁に	-11.7025
平原	-11.7025
三輪	-11.7025
浜松市	-11.7025
を示した	-11.7029
船体	-11.703
解任	-11.7031
革新	-11.7031
勧め	-11.7031
残っている	-11.7031
ヨーク	-11.7032
で開催	-11.7032
次女	-11.7032
回全日本	-11.7033
選挙で	-11.7034
阪神タイガース	-11.7035
錯	-11.7035
布施	-11.7036
アンサンブル	-11.7037
払い	-11.7037
たという	-11.7038
ø	-11.7038
富士通	-11.7038
ホーン	-11.7038
pie	-11.7039
pink	-11.7039
vor	-11.7039
三段	-11.7039
給食	-11.704
計測	-11.704
hold	-11.7044
ケリー	-11.7047
吹奏楽部	-11.7049
ович	-11.705
小中学校	-11.7051
工業団地	-11.7051
ちか	-11.7051
コンパクト	-11.7052
が残っている	-11.7056
有明	-11.7057
エントリー	-11.7058
ground	-11.7059
みゆき	-11.7059
長野県道	-11.706
cover	-11.706
体重別	-11.7061
マウス	-11.7062
に編入され	-11.7062
を進め	-11.7063
中東	-11.7065
tell	-11.7066
みなと	-11.7068
ボスニア	-11.7068
ビクター	-11.7069
かさ	-11.7073
参議	-11.7074
平行	-11.7076
と語っている	-11.7078
指定文化財	-11.7078
すず	-11.7079
gin	-11.7079
に専念	-11.7079
高層	-11.708
teen	-11.708
噂	-11.708
設けられ	-11.7083
に加えて	-11.7084
kim	-11.7085
台地	-11.7085
症候群	-11.7085
在任	-11.7086
ソビエト	-11.7088
京成	-11.7088
アクア	-11.7091
海水浴場	-11.7091
ゲオルク	-11.7092
同大学院	-11.7092
とん	-11.7092
くらい	-11.7094
読売ジャイアンツ	-11.7094
を襲名	-11.7097
、1924	-11.71
朝日新聞出版	-11.7102
充実	-11.7102
lor	-11.7102
枚組	-11.7103
絆	-11.7104
で演奏	-11.7106
しようとした	-11.7106
ient	-11.7107
飛行隊	-11.7107
で開催される	-11.7108
フェルト	-11.711
peace	-11.7111
江南	-11.7111
。1960	-11.7113
エビ	-11.7113
ドック	-11.7114
日刊	-11.7116
などを務めた	-11.7116
倫理	-11.7117
相対	-11.7118
チェリー	-11.7119
青空	-11.7119
matsu	-11.7123
経営学	-11.7124
に登場する架空の	-11.7125
スマートフォン	-11.7126
固有	-11.7127
部族	-11.7128
details	-11.7128
(1995)	-11.7129
で始まる記事の一覧	-11.713
使者	-11.7131
print	-11.7131
北端	-11.7132
恋する	-11.7136
宮田	-11.7136
駅舎は	-11.7138
徹底	-11.7142
ces	-11.7143
発生する	-11.7144
亨	-11.7145
妊娠	-11.7145
を作った	-11.7146
が強く	-11.7147
が大きい	-11.7148
ios	-11.7148
プトン	-11.7149
矢部	-11.7149
ティム	-11.7149
衝	-11.715
日程	-11.715
3-5	-11.7153
対称	-11.7153
が可能である	-11.7153
ort	-11.7154
ピット	-11.7155
チームを	-11.7155
エステル	-11.7155
教育学	-11.7156
口駅	-11.7156
スタンダード	-11.7156
津山市	-11.7156
貧	-11.7156
adam	-11.7158
アフガニスタン	-11.7161
中井	-11.7162
信夫	-11.7166
td	-11.7169
に代わって	-11.7172
アンドリュー	-11.7173
をつける	-11.7173
小浜	-11.7174
ディーン	-11.7175
42.	-11.7176
科目	-11.7177
フェニックス	-11.7178
レックス	-11.718
吟	-11.718
葺	-11.718
かける	-11.7181
軽量	-11.7181
リントン	-11.7181
食用	-11.7181
ネズミ	-11.7182
大学教育学部	-11.7183
ひまわり	-11.7183
115	-11.7184
シェイ	-11.7187
イット	-11.7187
歌劇場	-11.7187
div	-11.7189
隷下	-11.719
スティー	-11.7192
639	-11.7192
ヶ原	-11.7194
たけし	-11.7194
苫小牧	-11.7195
ざる	-11.7195
φ	-11.7198
ツル	-11.7198
に落ち	-11.7199
ible	-11.7199
深谷	-11.72
常盤	-11.72
西端	-11.72
を形成し	-11.72
bul	-11.72
リーン	-11.7201
10:00	-11.7202
得点王	-11.7203
present	-11.7203
ウルグアイ	-11.7204
一般国道	-11.7206
もあって	-11.7207
飲み	-11.7208
八千代	-11.721
ベネ	-11.7211
spring	-11.7212
福岡県福岡市	-11.7213
を経験	-11.7214
凌	-11.7214
宣教師	-11.7216
wowow	-11.7216
01.	-11.7217
ヴィエ	-11.7218
å	-11.7219
闘争	-11.7219
(1955	-11.7221
知られた	-11.7222
小坂	-11.7223
ウォール	-11.7223
soccer	-11.7223
チップ	-11.7225
皇紀	-11.7226
lov	-11.7229
用いる	-11.7229
名前を	-11.7229
マネ	-11.723
本編	-11.723
が無い	-11.723
派出所	-11.7231
1850	-11.7233
総務部	-11.7233
拾	-11.7234
破産	-11.7234
同窓会	-11.7235
september	-11.7236
4-9	-11.7236
アント	-11.7237
シモ	-11.7237
astro	-11.7238
敗れ	-11.724
スイッチ	-11.7242
辞退	-11.7242
lang	-11.7242
身分	-11.7242
pod	-11.7244
へ進学	-11.7245
領地	-11.7246
テキサス	-11.7247
quest	-11.7247
vita	-11.7248
、1938	-11.7249
cx	-11.7249
seven	-11.725
アジ	-11.7251
ソリューション	-11.7253
正徳	-11.7254
ボルト	-11.7254
位入賞	-11.7255
ヴィクトリア	-11.7255
大王	-11.7256
直通	-11.7258
ビルボード	-11.7258
flight	-11.7258
売店	-11.7259
ルネ	-11.7259
付録	-11.7259
福岡県道	-11.726
three	-11.7261
通商	-11.7262
dot	-11.7264
03/	-11.7265
サンクトペテルブルク	-11.7265
ことになり	-11.7268
高地	-11.7269
従五位上	-11.727
を結成し	-11.7271
に似た	-11.7272
名門	-11.7272
経済学部	-11.7273
なくなり	-11.7274
imdb	-11.7276
double	-11.7277
それから	-11.7277
カントリー	-11.7278
残されている	-11.7278
drive	-11.7279
eva	-11.7282
quad	-11.7283
教育者	-11.7284
数え	-11.7286
mma	-11.7286
久美子	-11.7287
変形	-11.7288
総合優勝	-11.7288
年表一覧	-11.7289
政治学	-11.729
morning	-11.7291
に至った	-11.7291
智子	-11.7291
を行うこと	-11.7293
アレックス	-11.7293
鉄路	-11.7296
後輩	-11.7298
を制作	-11.7299
ようである	-11.7299
椎名	-11.7299
/?	-11.7299
山川出版社	-11.7301
新興	-11.7301
横田	-11.7301
バランス	-11.7302
่	-11.7303
明治維新	-11.7304
管弦楽	-11.7304
fivb	-11.7306
幅広く	-11.7306
横手	-11.7309
と称し	-11.7311
感染症	-11.7311
内村	-11.7312
使われていた	-11.7313
モントリオール	-11.7313
ngc	-11.7316
元号	-11.7317
雰囲気	-11.7317
氏の家臣	-11.7318
釣	-11.7318
cassini	-11.7318
美里	-11.732
平方メートル	-11.7321
卸	-11.7321
童話	-11.7321
unit	-11.7322
町村制施行に伴い	-11.7322
ito	-11.7323
ていなかった	-11.7324
日本のロックバンド	-11.7325
歩き	-11.7326
樋	-11.7326
ドラマー	-11.7326
実在	-11.7326
挿入	-11.7327
が用いられる	-11.7328
bou	-11.7329
従軍	-11.7329
ゥ	-11.7329
旦	-11.7329
trip	-11.7331
国際スケート連盟による	-11.7333
に社名変更	-11.7333
同局	-11.7335
大木	-11.7336
クリストファー	-11.7338
ili	-11.7338
テイク	-11.7339
区役所	-11.734
シアン	-11.734
セレ	-11.734
吉井	-11.734
ララ	-11.7341
著者紹介	-11.7341
高齢者	-11.7342
に建設された	-11.7343
に選ばれ	-11.7344
ポスター	-11.7345
liber	-11.7345
で学んだ	-11.7347
日米	-11.7348
ブース数	-11.7348
テイラー	-11.735
取り組み	-11.7351
トレイン	-11.7351
原産	-11.7353
函館市	-11.7355
入院	-11.7355
きょく	-11.7355
日放送分	-11.7357
チョコレート	-11.7357
パナマ	-11.7358
観光地	-11.7358
ダグラス	-11.7358
立法	-11.7359
ミラン	-11.736
監訳	-11.736
製菓	-11.736
りつ	-11.736
行政区	-11.7361
5-2	-11.7363
を食べる	-11.7364
倭	-11.7364
mba	-11.7365
量子	-11.7365
僧侶	-11.7365
電化	-11.7365
親交	-11.7367
ワニ	-11.7367
luc	-11.7367
杉本	-11.7368
国勢調査	-11.7368
武将	-11.7368
同行	-11.7368
は通常	-11.7369
avex	-11.7369
をかけ	-11.737
あわせて	-11.7372
三人	-11.7372
mine	-11.7373
asa	-11.7374
児童文学	-11.7374
が開校	-11.7375
س	-11.7375
月からは	-11.7375
さだ	-11.7378
山公園	-11.7379
樹脂	-11.738
訪	-11.7382
映画館	-11.7382
展覧会	-11.7382
隊員	-11.7386
パズル	-11.7387
水島	-11.7388
thy	-11.7389
井川	-11.7389
ったもの	-11.7389
uro	-11.739
袁	-11.739
不正	-11.7392
薔薇	-11.7392
芸能人	-11.7396
で敗れた	-11.7398
4.0	-11.7398
フラッシュ	-11.7399
---	-11.7399
ふた	-11.7399
リッ	-11.74
正人	-11.7402
207	-11.7402
ハイウェイ	-11.7402
タムボン	-11.7403
グランドスラム	-11.7403
アワー	-11.7403
だという	-11.7405
medi	-11.7405
ハチ	-11.7406
ジョージア	-11.7408
競艇	-11.7408
天王寺	-11.7409
などにより	-11.7409
278	-11.7411
inst	-11.7413
アルメニア	-11.7415
テーション	-11.7416
平方	-11.7416
後援	-11.7417
祇園	-11.7417
ホラー	-11.7419
内蔵	-11.7422
集配	-11.7423
融合	-11.7423
大将軍	-11.7425
dol	-11.7425
活動を開始	-11.7425
ハワード	-11.7425
各地で	-11.7425
チック	-11.7426
bang	-11.7426
ッテ	-11.7426
事前	-11.7426
を除いて	-11.7428
kas	-11.7428
3-6	-11.7428
知らない	-11.7429
今川	-11.7429
に出る	-11.743
pk	-11.743
柳川	-11.7432
遠く	-11.7433
フィリ	-11.7433
リポート	-11.7434
考察	-11.7434
を終え	-11.7437
林寺	-11.7438
としても活動	-11.7439
アポロ	-11.7439
ユウ	-11.744
オク	-11.744
していること	-11.7442
teams	-11.7446
返り	-11.7447
側室	-11.7448
パレード	-11.7448
育つ	-11.7449
トイ	-11.745
キラ	-11.745
認	-11.745
泡	-11.7453
を誇る	-11.7453
荒井	-11.7454
折り	-11.7455
体長	-11.7455
宝永	-11.7455
ブルック	-11.7455
を獲得し	-11.7456
医師会	-11.7458
ヘリ	-11.7459
志村	-11.7459
デリー	-11.746
masa	-11.746
定時制	-11.7462
祈り	-11.7462
アロ	-11.7464
ログ	-11.7464
子爵	-11.7464
ory	-11.7465
挨拶	-11.7465
災	-11.7466
が誕生	-11.7467
風俗	-11.7469
マイン	-11.7469
パーカッション	-11.747
july	-11.7471
1858	-11.7471
砂糖	-11.7472
タニ	-11.7472
を併設	-11.7473
解散した	-11.7475
全部	-11.7476
ことも多い	-11.7477
櫛	-11.7478
旧道	-11.7479
レポーター	-11.748
奨励	-11.7482
であろう	-11.7482
内野手	-11.7483
アルマ	-11.7484
徴	-11.7484
mond	-11.7485
コイン	-11.7486
ナイジェリア	-11.7487
遺伝	-11.749
山麓	-11.749
容疑	-11.749
現状	-11.7491
デイリー	-11.7492
玩具	-11.7492
修士	-11.7493
実用	-11.7493
変わった	-11.7494
棋	-11.7495
絶え	-11.7496
사	-11.7499
村の一部	-11.75
生駒	-11.7501
christ	-11.7501
wy	-11.7502
ロベルト	-11.7502
飲食店	-11.7502
坂東	-11.7504
人名辞典	-11.7506
戦記	-11.7506
連載された	-11.7507
線を有する地上駅	-11.7508
大樹	-11.7508
淀川	-11.7508
ラマ	-11.7508
バイト	-11.7509
穀	-11.751
大修館書店	-11.7511
斜面	-11.7511
世紀初頭	-11.7512
アーチ	-11.7514
共和	-11.7514
ล	-11.7514
海上自衛隊	-11.7514
使用していた	-11.7515
醤油	-11.7515
結婚式	-11.7515
従三位	-11.7517
中津川	-11.7517
verlag	-11.7517
腺	-11.7517
tx	-11.7518
試合に出場した	-11.752
rome	-11.752
pha	-11.7521
統制	-11.7521
全身	-11.7522
walker	-11.7523
3.2	-11.7524
にある郵便局	-11.7525
ランチ	-11.7525
残る	-11.7525
加納	-11.7526
ヶ崎	-11.7526
湾岸	-11.7527
南小学校	-11.7529
を生かし	-11.753
carl	-11.7531
釈迦	-11.7532
ett	-11.7534
ross	-11.7535
ソフトバンク	-11.7535
に比べて	-11.7536
支配下	-11.7537
フォーミュラ	-11.7537
ッシャー	-11.7538
フロンティア	-11.7542
2020	-11.7542
開園	-11.7543
へ移	-11.7551
spot	-11.7552
に分かれ	-11.7552
演じる	-11.7552
ストレート	-11.7552
が残る	-11.7554
(2):	-11.7554
ゆうちょ銀行	-11.7555
lou	-11.7555
百済	-11.7557
するとともに	-11.7557
未満	-11.7558
既	-11.7559
キリン	-11.756
源泉	-11.756
開催され	-11.756
征服	-11.7562
systems	-11.7562
match	-11.7566
dio	-11.7566
することにより	-11.7566
なぎ	-11.7566
短く	-11.7566
making	-11.7568
関東地方	-11.7568
テレビ東京系	-11.7568
エイト	-11.7569
行なわれ	-11.757
ジョル	-11.7571
セルフ	-11.7572
チャイ	-11.7573
ペトロ	-11.7573
幽	-11.7574
ラビ	-11.7575
主将	-11.7576
血液	-11.7576
公家	-11.7577
アシュ	-11.7577
alt	-11.7577
松永	-11.7578
マンチェスター	-11.7579
東西に	-11.7579
遅	-11.7581
大ヒット	-11.7581
kel	-11.7581
御用	-11.7581
スマイル	-11.7581
ぶら	-11.7583
イニング	-11.7583
テュ	-11.7583
atp	-11.7585
基部	-11.7585
control	-11.7585
ベニ	-11.7586
我が	-11.7586
学習院	-11.7588
カタルーニャ	-11.7588
より発売された	-11.7588
を発見	-11.7589
エミ	-11.7589
する際に	-11.7591
にある寺院	-11.7591
禎	-11.7591
シェー	-11.7592
台車	-11.7593
を担当している	-11.7594
ヘッドコーチ	-11.7594
start	-11.7595
mori	-11.7595
ウクライナ語	-11.7595
生態	-11.7596
蔭	-11.7596
何か	-11.7596
商会	-11.7597
望月	-11.7598
権限	-11.7599
テレビ朝日系	-11.7602
試合出場	-11.7602
粘	-11.7602
作られる	-11.7603
に行われる	-11.7603
静岡県道	-11.7603
モロッコ	-11.761
3,000	-11.761
市町村名変遷辞典	-11.7611
オイル	-11.7611
ский	-11.7611
レム	-11.7612
意思	-11.7613
uci	-11.7614
八戸市	-11.7614
本文	-11.7615
レジャー	-11.7616
救援	-11.7616
マスク	-11.7617
シオン	-11.7617
bet	-11.7618
に掲載された	-11.7619
香り	-11.7619
劇中	-11.762
ココ	-11.762
論争	-11.7621
を設立した	-11.7621
婚約	-11.7621
評判	-11.7621
се	-11.7622
すと	-11.7622
jfl	-11.7623
アビ	-11.7624
six	-11.7625
主席	-11.7625
番艦	-11.7626
num	-11.7626
常陸	-11.7626
サード	-11.7627
避	-11.7628
cz	-11.7628
るという	-11.7628
敦賀	-11.763
桓	-11.7632
電源	-11.7635
ワルツ	-11.7635
ナカ	-11.7637
ホリ	-11.7638
ボウル	-11.7638
プレミア	-11.7639
ミュージックビデオ	-11.7639
僅か	-11.7642
が描かれている	-11.7643
oro	-11.7645
光明	-11.7645
鎮圧	-11.7645
bach	-11.7645
2.3	-11.7645
町史	-11.7646
塗装	-11.7646
通勤	-11.7647
侍従	-11.7647
伝統的	-11.7648
漫画作品	-11.7649
専門店	-11.7651
戸塚	-11.7652
ショック	-11.7652
シチリア	-11.7652
神山	-11.7653
不満	-11.7653
を広げ	-11.7653
会話	-11.7654
悲劇	-11.7654
がよく	-11.7655
館長	-11.7655
参加した	-11.7659
以内	-11.7659
nr	-11.7659
紹介ページ	-11.7659
年に設立された	-11.7659
サッカー指導者	-11.766
に分割	-11.766
没した	-11.766
サール	-11.7661
ía	-11.7664
すら	-11.7667
アドルフ	-11.7667
、1929	-11.7667
dir	-11.7667
復讐	-11.7668
桑原	-11.7669
ミルク	-11.7669
するように	-11.7669
東京都中央区	-11.7671
並み	-11.7672
嘘	-11.7672
職務	-11.7672
オカ	-11.7674
殆ど	-11.7675
慣	-11.7676
ミドル	-11.7676
アフ	-11.7677
0-5	-11.7677
太字は	-11.7677
を発行	-11.7678
完結	-11.768
迎え	-11.768
の人物一覧	-11.768
皿	-11.7681
ntv	-11.7681
越し	-11.7684
陸奥	-11.7688
倒産	-11.769
studies	-11.7692
ンタ	-11.7692
round	-11.7693
ビッチ	-11.7693
に任命され	-11.7693
総合研究所	-11.7695
されることもある	-11.7695
仮面	-11.7695
hell	-11.7695
崎町	-11.7696
米軍	-11.7696
ceo	-11.7697
概	-11.7697
かぶ	-11.7697
friend	-11.7698
郵政	-11.7699
ラード	-11.7699
内外	-11.77
製造販売	-11.7703
pes	-11.7704
学校教育	-11.7704
scott	-11.7704
道の駅一覧	-11.7705
gram	-11.7706
現在まで	-11.7708
たび	-11.7709
紳士	-11.7711
出版局	-11.7712
0.6	-11.7712
サイクリング	-11.7712
魚沼	-11.7713
二宮	-11.7713
入間	-11.7715
オットー	-11.7717
ことによって	-11.7717
リット	-11.7717
letter	-11.7719
金メダルを獲得した	-11.772
三国志	-11.772
限界	-11.7721
改名	-11.7721
題名	-11.7722
臨海	-11.7722
004	-11.7723
を続けた	-11.7724
crow	-11.7726
省略	-11.7726
年に発売された	-11.7727
品川	-11.7727
無限	-11.7727
eyes	-11.7727
められた	-11.7728
神明	-11.7728
したことから	-11.7728
ミカ	-11.7729
を表明	-11.773
立教大学	-11.773
を名乗る	-11.7731
ミオ	-11.7731
にある神社	-11.7732
0.8	-11.7732
corn	-11.7733
を挙げ	-11.7733
替わり	-11.7734
日置	-11.7734
にちなむ	-11.7734
パンク	-11.7735
インテル	-11.7735
ê	-11.7735
最寄り	-11.7735
サッカー協会	-11.7735
半導体	-11.7736
を見た	-11.7737
eds	-11.7737
支払	-11.7737
ぎり	-11.7738
時期に	-11.7738
に敗れた	-11.774
が開始され	-11.774
209	-11.7742
美和	-11.7743
部分を	-11.7745
を使い	-11.7746
蜀	-11.7746
腫瘍	-11.7746
仁川	-11.7747
リハビリテーション	-11.775
読売	-11.7752
♥	-11.7752
bob	-11.7756
索引	-11.7756
併せて	-11.7757
受付	-11.7757
てき	-11.7758
山口県道	-11.7758
日本の俳優	-11.7759
栃木市	-11.7759
大学卒業	-11.776
を目的に	-11.7762
牽引	-11.7764
フォックス	-11.7766
hin	-11.7767
のバイオグラフィー	-11.7768
victor	-11.7768
松山市	-11.7768
assi	-11.7769
セールス	-11.777
シュテ	-11.777
田園	-11.777
萌	-11.777
行い	-11.777
片側	-11.7771
月にかけて	-11.7772
都合	-11.7772
寄贈	-11.7773
特別番組	-11.7773
rsssf	-11.7774
一覧表	-11.7774
を記録し	-11.7776
ティブ	-11.7778
瞬間	-11.7779
←	-11.7779
mei	-11.7779
灰色	-11.7781
kur	-11.7782
server	-11.7783
日から同年	-11.7783
歳未満	-11.7783
ブンデスリーガ	-11.7784
互	-11.7784
不二	-11.7784
いっぱい	-11.7785
アワード	-11.7785
脂	-11.7785
といえる	-11.7786
hans	-11.7787
を訪れ	-11.7787
ウィーク	-11.7788
傘	-11.7788
逃	-11.7788
傾	-11.7788
紅葉	-11.7789
カンボジア	-11.779
装着	-11.779
マイアミ	-11.7791
味方	-11.7791
henry	-11.7791
を意味し	-11.7791
置き	-11.7792
踊	-11.7793
陣屋	-11.7794
この場合	-11.7795
現代日本人名録	-11.7795
до	-11.7796
cry	-11.7796
horn	-11.7797
壺	-11.7799
管理者	-11.7799
客員教授	-11.78
セレクション	-11.78
ユダヤ暦	-11.7802
クリニック	-11.7802
野駅	-11.7804
とする説	-11.7805
回参議院議員通常選挙	-11.7805
紀子	-11.7806
嵯峨	-11.7807
ミア	-11.7807
グルメ	-11.7808
に立つ	-11.7811
小田急	-11.7812
執政官	-11.7812
権現	-11.7817
太平	-11.7819
付加	-11.782
communication	-11.7821
リヒ	-11.7822
氷河	-11.7822
アパート	-11.7822
踏切	-11.7823
ウェーブ	-11.7823
978	-11.7825
東端	-11.7825
generation	-11.7826
野々	-11.7827
蔡	-11.7828
付く	-11.7828
根岸	-11.7829
公主	-11.783
活性	-11.783
aux	-11.783
デア	-11.783
cru	-11.7832
デイヴィッド	-11.7833
cit	-11.7833
emp	-11.7833
物産	-11.7834
をし	-11.7834
と言って	-11.7834
に合格	-11.7836
郷村	-11.7836
抗議	-11.7837
批評	-11.7838
旋律	-11.7839
note	-11.7839
0-4	-11.7839
author	-11.7842
飯島	-11.7843
ジュリア	-11.7844
カズ	-11.7846
アーノ	-11.7848
に達する	-11.7848
錬	-11.7849
があるため	-11.785
マザー	-11.785
青森市	-11.785
存在し	-11.7851
各駅の乗車人員	-11.7851
挙げ	-11.7851
wonder	-11.7853
毎週	-11.7854
三ツ	-11.7854
lau	-11.7854
運賃	-11.7855
child	-11.7855
都心	-11.7856
を読む	-11.7862
pride	-11.7863
翠	-11.7863
銘柄	-11.7864
コンピューター	-11.7865
1.7	-11.7867
升	-11.7869
長野市	-11.7871
直人	-11.7873
いちらん	-11.7873
同県	-11.7873
マウ	-11.7874
鞭	-11.7875
公務員	-11.7875
ステー	-11.7875
phys	-11.7877
増築	-11.7877
に設立	-11.7878
に従軍	-11.7878
エンジンは	-11.788
葬儀	-11.788
手続	-11.7881
遠山	-11.7882
ひかり	-11.7882
アレン	-11.7883
しました	-11.7883
edward	-11.7883
憧れ	-11.7884
(1992)	-11.7886
を用い	-11.7887
扱う	-11.7888
エンタ	-11.7888
が起こる	-11.7888
文化センター	-11.7889
豊臣秀吉	-11.7889
そく	-11.7891
ギリシア神話	-11.7891
ти	-11.7892
セルフカバー	-11.7894
デビューを果たした	-11.7894
描かれた	-11.7894
pub	-11.7895
捧げ	-11.7895
辱	-11.7899
alis	-11.79
垂直	-11.79
を残す	-11.79
秀雄	-11.7902
世紀後半	-11.7902
要因	-11.7902
門前	-11.7902
日活	-11.7903
040	-11.7903
にいる	-11.7905
東京都新宿区	-11.7905
に多く	-11.7905
tk	-11.7905
團	-11.7906
0°	-11.7906
扶	-11.7906
宇和島	-11.7907
事から	-11.7907
天気予報	-11.7908
ส	-11.7909
日本軍	-11.7911
樹木	-11.7911
覚え	-11.7911
代理店	-11.7912
大戦	-11.7912
踏み	-11.7912
gor	-11.7913
硫酸	-11.7913
北欧	-11.7914
jk	-11.7915
呪	-11.7916
警察官	-11.7917
エージェント	-11.7918
読本	-11.7919
不安	-11.7919
予定だったが	-11.7919
を掲載	-11.7921
にかつて存在した	-11.7923
かけて	-11.7923
燃焼	-11.7923
存在している	-11.7923
無効	-11.7923
武道	-11.7924
挙げられ	-11.7925
休刊	-11.7925
翅	-11.7925
こんな	-11.7926
ディビジョン	-11.7927
厚木	-11.7927
コク	-11.7929
meet	-11.7931
八尾	-11.7932
カトリック教会	-11.7932
との間で	-11.7933
としてデビュー	-11.7933
かれて	-11.7934
日本でも	-11.7935
ว	-11.7936
していたため	-11.7937
una	-11.7938
metal	-11.7941
07/	-11.7941
に移籍し	-11.7942
こちらは	-11.7942
朔	-11.7942
返還	-11.7943
ジャンクション	-11.7943
1200	-11.7944
は何	-11.7944
形式で	-11.7946
アテネオリンピック	-11.7946
対照	-11.7946
頭取	-11.7947
ないもの	-11.7948
現在地に	-11.795
を組み	-11.795
ゅ	-11.795
ライズ	-11.795
に設立された	-11.7951
wba	-11.7951
イオ	-11.7951
...」	-11.7951
三遊亭	-11.7952
世界の艦船	-11.7952
pil	-11.7953
カーン	-11.7953
日生まれ	-11.7953
にノミネートされ	-11.7955
(1962	-11.7955
を与えられ	-11.7955
現在地に移転	-11.7955
2-4	-11.7956
ソフィア	-11.7956
が廃止され	-11.7956
3.1	-11.7956
に努め	-11.7957
drums	-11.7958
コラボ	-11.7958
抽選	-11.7959
に及ぶ	-11.7959
lé	-11.7961
もなく	-11.7962
仮称	-11.7962
paper	-11.7963
フジテレビ系列	-11.7963
オスマン帝国	-11.7964
配下	-11.7966
宛	-11.7967
全幅	-11.7967
開校した	-11.7967
幹事	-11.7969
に選出され	-11.7969
獲	-11.7969
咸	-11.797
со	-11.7971
動向	-11.7971
毎週日曜	-11.7971
容易に	-11.7972
記す	-11.7973
ラーズ	-11.7973
コンピレーション	-11.7974
システムズ	-11.7974
カモ	-11.7976
第七	-11.7978
曲である	-11.7979
暗号	-11.798
hide	-11.7981
湧	-11.7981
マーシャル	-11.7983
日本の女優	-11.7984
擁立	-11.7984
ゆうびんきょく	-11.7984
で放送されている	-11.7986
展示されている	-11.7987
天井	-11.7988
一丁目から	-11.7988
反発	-11.7988
バチ	-11.799
本番組	-11.799
揖斐	-11.799
ウッ	-11.7991
不能	-11.7992
荷物	-11.7993
重力	-11.7994
5.0	-11.7996
も可能	-11.7996
はっきり	-11.7996
2.2	-11.7996
盟	-11.7997
削除	-11.7998
アット	-11.7998
北山	-11.7999
kc	-11.8
九条	-11.8002
胞	-11.8002
神崎	-11.8003
動員	-11.8003
輝く	-11.8004
ムーア	-11.8004
olo	-11.8004
bull	-11.8005
オハイオ州	-11.8006
俳人	-11.8006
冷却	-11.8006
器具	-11.8008
ネーション	-11.8008
西小学校	-11.8008
583	-11.8008
知行	-11.8008
シャツ	-11.8011
43.	-11.8016
追悼	-11.8016
碁	-11.8016
医学部	-11.8017
鉄道省	-11.8019
農協	-11.8019
調達	-11.802
pages	-11.802
千代田	-11.802
jt	-11.8022
を担う	-11.8023
division	-11.8024
主人	-11.8025
妖	-11.8026
勝山	-11.8026
出身地	-11.8027
こともできる	-11.8028
パルマ	-11.803
宝石	-11.803
ウマ	-11.803
ひな	-11.8031
イアン	-11.8031
1859	-11.8031
真理	-11.8031
ストレ	-11.8032
供養	-11.8034
キャッシュ	-11.8035
政界	-11.8036
前から	-11.8036
見せ	-11.8037
紅白歌合戦	-11.8039
激しく	-11.8039
に昇格した	-11.8039
実子	-11.804
倉吉	-11.8041
スピン	-11.8041
つね	-11.8041
マーズ	-11.8042
organ	-11.8042
放送時間	-11.8043
新報	-11.8043
に移った	-11.8043
石狩	-11.8044
流し	-11.8044
千秋	-11.8046
deutsche	-11.8046
5:00	-11.8048
を書き	-11.8048
泉寺	-11.8049
互いに	-11.8051
疎	-11.8051
mail	-11.8052
チェンジ	-11.8052
に対しては	-11.8054
筑紫	-11.8054
フレデリック	-11.8054
個展	-11.8055
マニュアル	-11.8055
登場人物	-11.8056
:59	-11.8057
コット	-11.8058
ナショナルチーム	-11.8058
隠れ	-11.8058
アウグスト	-11.8058
編集委員会	-11.8058
直前に	-11.8058
社殿	-11.8059
国分寺	-11.8059
動機	-11.8061
(1993)	-11.8061
育った	-11.8061
ピラ	-11.8064
判定負け	-11.8066
告知	-11.8066
motor	-11.8066
使用した	-11.8067
昼間	-11.8067
に属した	-11.8068
馬力	-11.8068
製紙	-11.807
ないように	-11.807
kyo	-11.807
肥後	-11.8073
fnn	-11.8074
に完成した	-11.8074
が生まれた	-11.8074
参加者	-11.8076
アレク	-11.8077
はないが	-11.8079
シム	-11.8081
土器	-11.8081
かき	-11.8084
岸和田	-11.8085
統計年鑑	-11.8086
が発生した	-11.8087
科学部	-11.8089
アルジェリア	-11.809
で構成されている	-11.8092
オプション	-11.8093
に進み	-11.8094
顧客	-11.8095
肖像	-11.8096
メロン	-11.8097
武家	-11.8097
飢	-11.8098
キョ	-11.8098
キングス	-11.8098
aba	-11.8102
theory	-11.8103
を拡大	-11.8103
vier	-11.8104
を助け	-11.8104
九州旅客鉄道	-11.8104
試合に登板	-11.8104
transfermarkt	-11.8105
公使	-11.8106
グッズ	-11.8107
グルジア	-11.8107
前回	-11.8108
6.5	-11.8109
浦町	-11.8109
ラテン	-11.8109
vr	-11.8109
シングルとして	-11.8112
佐竹	-11.8112
削減	-11.8113
に放送されていた	-11.8113
芙蓉書房出版	-11.8114
度目	-11.8114
osa	-11.8114
を残し	-11.8115
ello	-11.8116
rate	-11.8116
頂上	-11.8117
エレベーター	-11.8117
バスク	-11.8118
藩の第	-11.8118
有料道路	-11.8119
花火	-11.812
ю	-11.812
リスナー	-11.812
廠	-11.8121
早い	-11.8122
神々	-11.8123
することもある	-11.8123
ようと	-11.8123
昆	-11.8124
五島	-11.8126
フォワード	-11.8126
をベースに	-11.8127
換え	-11.8127
告げ	-11.8128
を送る	-11.8128
大師	-11.8129
低く	-11.813
を統合し	-11.8131
稚	-11.8132
歳以下が	-11.8133
探検	-11.8135
起用され	-11.8136
ボーイング	-11.8137
坂田	-11.8137
紡	-11.8137
スリランカ	-11.8138
完全移籍	-11.8139
組曲	-11.8139
アトリエ	-11.814
バージニア州	-11.814
偶	-11.814
をかけて	-11.8141
アイドルグループ	-11.8141
小学校に改称	-11.8142
century	-11.8143
廉	-11.8143
二等	-11.8144
履歴	-11.8144
この年の	-11.8145
jtb	-11.8145
松川	-11.8147
に進む	-11.8148
位となり	-11.8149
albert	-11.8149
イエロー	-11.8153
運動場	-11.8154
ô	-11.8156
ウシ	-11.8158
europe	-11.8159
ソラ	-11.816
歳の時	-11.816
第二次世界大戦後	-11.8163
psych	-11.8163
を中心として	-11.8163
呼ばれる	-11.8166
を追加	-11.8168
シネ	-11.8168
2011-12-06	-11.8168
ペラ	-11.8169
海域	-11.817
を手に	-11.817
ハーバー	-11.8171
回衆議院議員総選挙に	-11.8171
長島	-11.8172
城南	-11.8172
水中	-11.8172
茜	-11.8173
筑後	-11.8173
衰	-11.8173
東海道本線	-11.8174
日本郵政	-11.8175
ってしまう	-11.8175
音楽番組	-11.8177
に因む	-11.8177
盛ん	-11.8177
金融機関	-11.8177
企	-11.8178
direct	-11.818
得られる	-11.818
7000	-11.818
イナ	-11.8181
0-7	-11.8182
フライ級	-11.8183
率は	-11.8183
ミノ	-11.8183
合弁	-11.8184
ツク	-11.8184
7-2	-11.8184
切手	-11.8185
6-7	-11.8185
は存在しない	-11.8186
イワ	-11.8187
ものとして	-11.819
華族	-11.8191
緑区	-11.8191
嚢	-11.8191
fangraphs	-11.8192
に似ている	-11.8192
気圧	-11.8193
簿	-11.8194
完全な	-11.8195
中町	-11.8195
柔	-11.8195
告示	-11.8195
と対戦	-11.8196
薬局	-11.8196
預	-11.8197
スクリーン	-11.8197
允	-11.8197
努力	-11.8199
その際	-11.82
マガジン社	-11.82
かげ	-11.8203
出産	-11.8203
december	-11.8203
炭鉱	-11.8203
名詞	-11.8203
笑顔	-11.8205
研究家	-11.8205
おそらく	-11.8206
通路	-11.8206
応永	-11.8206
に発売された	-11.8206
井村	-11.8207
つぶ	-11.8208
月までは	-11.8209
にとっては	-11.8212
レーヌ	-11.8213
摂津	-11.8214
ディヴィジョン	-11.8214
ビートルズ	-11.8215
群馬県道	-11.8216
ボラ	-11.8216
ヒューストン	-11.8217
この他	-11.8217
時刻	-11.8218
日本共産党	-11.8218
遺構	-11.8219
ブール	-11.822
記念碑	-11.822
concert	-11.8221
gran	-11.8221
自治州	-11.8221
wel	-11.8221
手前	-11.8222
metro	-11.8223
蒲生	-11.8224
chemical	-11.8225
poli	-11.8226
殺害された	-11.8229
大臣官房	-11.8229
角田	-11.823
大学の人物一覧	-11.8231
作る	-11.8232
興業	-11.8233
ことなく	-11.8234
スマート	-11.8234
も含め	-11.8235
招聘	-11.8235
るまで	-11.8235
ることで	-11.8237
グマ	-11.8237
を演じた	-11.8237
シダ	-11.8238
最高裁判所	-11.8238
駐在	-11.8238
本殿	-11.8239
鳥取県道	-11.824
起こった	-11.8241
マーガレット	-11.8241
松戸	-11.8244
の一員として	-11.8245
大門	-11.8247
を出し	-11.8247
加速	-11.8248
日産自動車	-11.8248
特異	-11.8249
幣	-11.825
鯨	-11.8253
篠山	-11.8254
ize	-11.8254
biol	-11.8254
wolf	-11.8255
延宝	-11.8257
ジミー	-11.8259
イスラーム	-11.8259
会会長	-11.8259
が主催する	-11.8259
震災	-11.8259
として発足	-11.8261
岡部	-11.8261
another	-11.8262
哺乳類	-11.8262
上手	-11.8263
区間は	-11.8264
ago	-11.8265
その時	-11.8266
導入された	-11.8266
作目のシングル	-11.8267
断層	-11.8268
rit	-11.8269
原始	-11.827
1848	-11.827
rna	-11.827
nato	-11.827
いなかった	-11.827
electric	-11.827
始まった	-11.8273
曰く	-11.8275
ł	-11.8276
vari	-11.8276
490	-11.8277
枠で	-11.8277
開設された	-11.8279
government	-11.8279
pad	-11.8279
川崎市	-11.828
プロボクサー	-11.8281
声楽	-11.8281
位決定戦	-11.8282
市営バス	-11.8283
秀樹	-11.8284
短編集	-11.8284
を選択	-11.8285
クイン	-11.8286
側から	-11.8286
最中	-11.8287
フロリダ州	-11.8287
を決める	-11.8287
ウイング	-11.8287
気温	-11.8289
食料	-11.8289
を確立	-11.8289
を持たない	-11.8289
愛宕	-11.8292
証言	-11.8292
北九州市	-11.8295
廃線	-11.8295
と伝えられる	-11.8295
tower	-11.8295
フェー	-11.8297
先代	-11.8298
協会会長	-11.8298
仏滅紀元	-11.8299
0.9	-11.83
444	-11.83
はほぼ	-11.8301
として利用され	-11.8302
優秀賞	-11.8302
india	-11.8303
ダイジェスト	-11.8305
将校	-11.8306
奉納	-11.8306
メニュー	-11.8306
競技会	-11.8306
文学博士	-11.8307
爆撃機	-11.8307
にも出場	-11.8307
晩年	-11.8308
centre	-11.8309
怪談	-11.831
演出家	-11.8312
チュア	-11.8313
原型	-11.8313
土壌	-11.8313
側が	-11.8314
sson	-11.8314
などを歴任	-11.8315
紀州	-11.8316
に乗って	-11.8317
頂点	-11.8317
出身のプロ野球選手	-11.8319
怪獣	-11.8322
初飛行	-11.8323
480	-11.8324
じろう	-11.8325
一生	-11.8326
停留所下車	-11.8327
世紀から	-11.8327
草津	-11.8329
形電車	-11.8329
送信所	-11.833
スイ	-11.833
ありがとう	-11.833
現行行政地名は	-11.8331
忍者	-11.8332
部門で	-11.8333
stop	-11.8333
宇野	-11.8334
になれ	-11.8335
here	-11.8335
討伐	-11.8336
実質	-11.8339
プレーヤー	-11.834
ではないか	-11.8341
production	-11.8341
警戒	-11.8342
を掲げ	-11.8342
rice	-11.8344
пе	-11.8346
在学中に	-11.8352
ée	-11.8352
廃止に伴い	-11.8353
キングレコード	-11.8356
掛川	-11.8357
看護師	-11.8358
松崎	-11.8359
君が	-11.8359
親会社	-11.8359
ウォーカー	-11.836
嫡子	-11.836
形成された	-11.836
left	-11.8361
埼玉県立	-11.8363
しつつ	-11.8363
間もなく	-11.8364
建て	-11.8365
mé	-11.8365
アンソニー	-11.8366
休憩	-11.8369
出る	-11.837
チャーリー	-11.837
778	-11.837
大泉	-11.8372
事務局長	-11.8373
国土地理院	-11.8374
むつ	-11.8374
バックス	-11.8374
主教	-11.8375
居城	-11.8375
顕彰	-11.8378
雁	-11.8378
discogs	-11.8379
カニ	-11.8379
ケープ	-11.8382
入り口	-11.8382
は無く	-11.8382
と異なり	-11.8384
藩領	-11.8386
芸術大学	-11.8387
まちづくり	-11.8388
したとき	-11.8389
対岸	-11.8391
富士山	-11.8391
どれ	-11.8391
ホス	-11.8394
尾上	-11.8394
を記念して	-11.8394
本家	-11.8395
イメージソング	-11.8396
まみ	-11.8396
出され	-11.8397
クワ	-11.8397
ping	-11.8397
で優勝した	-11.8398
ことが多く	-11.8399
aur	-11.8399
prix	-11.84
伊勢崎	-11.8402
執行役員	-11.8402
狩り	-11.8403
ステン	-11.8404
の距離にある	-11.8406
系アメリカ人	-11.8406
tru	-11.8407
懲役	-11.8408
配列	-11.841
るべき	-11.8411
とても	-11.8412
フォーム	-11.8412
われている	-11.8412
asahi	-11.8413
備え	-11.8416
として独立	-11.8416
ることになった	-11.8418
呼吸	-11.8418
孟	-11.842
event	-11.842
ルナ	-11.8421
370	-11.8424
汲	-11.8425
が発生する	-11.8426
切る	-11.8427
canada	-11.8428
鉄道線	-11.8428
公司	-11.843
系電車	-11.8431
警視	-11.8431
延岡	-11.8431
運搬	-11.8434
駅として開業	-11.8435
セメント	-11.8435
テリア	-11.8435
部員	-11.8437
phe	-11.8439
べる	-11.8439
word	-11.844
抑制	-11.8441
黒沢	-11.8442
トゥール	-11.8444
スクウェア	-11.8444
湯沢	-11.8445
高等部	-11.8447
上山	-11.845
を探し	-11.845
че	-11.845
興味	-11.8451
ッケ	-11.8452
元町	-11.8453
alan	-11.8453
として再	-11.8454
勝率	-11.8455
河村	-11.8457
づか	-11.8458
年度別成績	-11.8459
本来は	-11.846
料金所	-11.846
2.4	-11.846
年までに	-11.8461
をつとめた	-11.8463
生徒数	-11.8464
management	-11.8466
大好き	-11.8469
ドウ	-11.8471
ステイ	-11.8471
rage	-11.8473
東海テレビ	-11.8473
濁	-11.8474
ally	-11.8475
ская	-11.8475
stadium	-11.8475
殉	-11.8477
ことによる	-11.8478
策定	-11.8478
儀式	-11.8478
姫路市	-11.8478
重臣	-11.8478
rhythm	-11.8479
廃業	-11.8481
基幹	-11.8483
から成る	-11.8485
活発	-11.8485
併用	-11.8485
現在地	-11.8485
か所	-11.8485
ferr	-11.8486
simon	-11.8488
柏崎	-11.8489
マーチ	-11.8489
メモリアル	-11.849
ヶ月ぶり	-11.849
触媒	-11.849
神奈川県出身	-11.8491
nbc	-11.8492
ていしゃじょうせん	-11.8493
650	-11.8493
日本中央競馬会	-11.8495
イザ	-11.8496
部分に	-11.8497
蒲原	-11.8497
リッツ	-11.8497
に入学し	-11.85
前者	-11.8503
歳で死去	-11.8503
メイト	-11.8503
檀	-11.8504
東京都渋谷区	-11.8504
隠し	-11.8505
ソリ	-11.8506
養護学校	-11.8506
october	-11.8506
ぎん	-11.8506
家具	-11.8506
ワット	-11.8507
掲げ	-11.8508
として用いられる	-11.8508
部落	-11.8508
ハーバード大学	-11.851
肇	-11.851
stand	-11.8512
韓国鉄道公社	-11.8512
へん	-11.8512
井田	-11.8513
アミ	-11.8513
vas	-11.8513
flash	-11.8514
アサヒ	-11.8515
幼少	-11.8515
このほか	-11.8516
ライド	-11.8517
肥前	-11.8517
芹	-11.8517
に改編	-11.8519
発掘調査	-11.852
曜	-11.852
トーン	-11.8522
ダニー	-11.8522
french	-11.8522
goo	-11.8524
外国語	-11.8525
静岡県立	-11.8525
begin	-11.8526
越え	-11.8528
延期	-11.8528
全高	-11.8529
総社	-11.8529
住居表示	-11.853
世話	-11.853
レッスン	-11.8531
を経由して	-11.8531
次いで	-11.8532
brian	-11.8533
と言った	-11.8534
学生時代	-11.8534
は当初	-11.8535
困	-11.8537
豪華	-11.8538
桶	-11.8538
文化会館	-11.8538
メーカーである	-11.854
翌年に	-11.854
wat	-11.8541
であっても	-11.8541
レシピ	-11.8542
強さ	-11.8544
山古墳	-11.8544
巡礼	-11.8545
おさ	-11.8545
を発見した	-11.8545
とうきょう	-11.8545
甫	-11.8546
を開始し	-11.8547
テオ	-11.8547
487	-11.8548
を命じられ	-11.855
発注	-11.855
個別	-11.855
科学アカデミー	-11.8551
:58	-11.8551
tec	-11.8551
らか	-11.8552
に出走	-11.8552
806	-11.8552
女たち	-11.8553
降板	-11.8553
十九	-11.8555
募	-11.8555
を与えた	-11.8556
星座	-11.8556
mie	-11.8556
熊本県道	-11.8557
国産	-11.8558
zip	-11.8558
岩石	-11.8559
西野	-11.8559
パチスロ	-11.856
足立	-11.8561
berry	-11.8561
みき	-11.8562
ポーランド語	-11.8563
対談	-11.8565
っても	-11.8568
決戦	-11.8569
づく	-11.857
406	-11.8571
となったため	-11.8572
ストリングス	-11.8572
ör	-11.8572
聖母	-11.8573
による日本の漫画作品	-11.8573
zoo	-11.8573
吉原	-11.8573
oon	-11.8574
耐久	-11.8574
合流する	-11.8575
ケーキ	-11.8575
入会	-11.8575
出来ない	-11.8576
mode	-11.8578
(5)	-11.8578
本尊	-11.8579
をつけ	-11.8581
〕)	-11.8581
自分が	-11.8581
phy	-11.8581
進んだ	-11.8582
までの間	-11.8583
壽	-11.8584
な性格	-11.8584
5-6	-11.8586
引っ	-11.8587
アトランタ	-11.8587
年連続で	-11.8588
chris	-11.8592
南端	-11.8593
スープ	-11.8593
識別	-11.8595
在日	-11.8596
受容体	-11.8597
モロ	-11.8597
が追加され	-11.8597
九郎	-11.8597
スペイン語版	-11.8598
インターハイ	-11.8599
せずに	-11.86
に関するお知らせ	-11.86
自由党	-11.8601
が非常に	-11.8602
アメリカ人	-11.8603
度々	-11.8604
女子短期大学	-11.8604
ウト	-11.8605
杵	-11.8605
アンディ	-11.8605
キャロル	-11.8605
餌	-11.8606
に降格	-11.8606
返し	-11.8608
踏	-11.8608
指令	-11.8608
got	-11.8609
神戸市立	-11.861
による個人成績	-11.8611
ニコライ	-11.8612
死した	-11.8613
流出	-11.8614
魅	-11.8614
最初は	-11.8615
エチオピア	-11.8615
市原	-11.8615
ев	-11.8615
ペーパー	-11.8615
全日本選手権	-11.8616
アカデミー賞	-11.8616
せよ	-11.8617
スカパー	-11.8617
総合病院	-11.8618
先頭	-11.862
大相撲力士	-11.862
方面から	-11.862
イタ	-11.8621
阻害	-11.8621
コースト	-11.8621
意向	-11.8622
エルンスト	-11.8624
ão	-11.8625
態度	-11.8625
作風	-11.8625
android	-11.8625
塚古墳	-11.8627
小谷	-11.8629
掘	-11.8629
移管	-11.863
に再び	-11.8631
ships	-11.8632
身障者用	-11.8634
併合	-11.8634
長寿	-11.8635
丹後	-11.8635
iana	-11.8636
が最も	-11.8637
振替	-11.8637
洋画	-11.8642
council	-11.8642
tte	-11.8642
サウジアラビア	-11.8642
have	-11.8644
晴れ	-11.8646
heat	-11.8646
[3]	-11.8647
ストック	-11.8649
ブダペスト	-11.8649
豊富	-11.8651
スタイン	-11.8651
暮らす	-11.8651
に隣接する	-11.8651
仕掛け	-11.8652
に復帰した	-11.8653
っていく	-11.8656
どちら	-11.8656
大学生	-11.8656
位だった	-11.8656
混同	-11.8656
州立大学	-11.8656
ラッセル	-11.8658
structure	-11.8659
beautiful	-11.866
蜂	-11.8661
奈良時代	-11.8662
pit	-11.8662
スーパーマーケット	-11.8662
イヌ	-11.8664
を兼任	-11.8664
足立区	-11.8666
を得意とし	-11.8667
武術	-11.8667
日本経済新聞社	-11.8667
三郷	-11.8668
ツェル	-11.8668
アオ	-11.8668
』・『	-11.8669
新潮	-11.8669
量産	-11.867
リンゴ	-11.867
7:00	-11.867
総数	-11.8672
周防	-11.8672
巡回	-11.8672
ロスト	-11.8672
barks	-11.8673
hay	-11.8673
乗車人員	-11.8674
無く	-11.8674
新訂	-11.8674
ハブ	-11.8674
winners	-11.8675
ミッド	-11.8676
青島	-11.8677
を指し	-11.8679
cafe	-11.868
361	-11.868
滝川	-11.868
極東	-11.868
屋外	-11.8681
小平	-11.8681
ぶつ	-11.8681
幸子	-11.8682
を示し	-11.8682
日本評論社	-11.8684
legend	-11.8685
1856	-11.8687
厳しい	-11.8687
と同一	-11.8687
2.1	-11.8687
1857	-11.8687
ท	-11.8688
無所属	-11.8688
エイジ	-11.8688
ふん	-11.8689
ウォルター	-11.869
カト	-11.869
新橋	-11.8691
林道	-11.8692
渦	-11.8692
狭山	-11.8693
汚染	-11.8693
soft	-11.8694
無人	-11.8695
特番	-11.8695
フレッシュ	-11.8696
川辺	-11.8697
英称	-11.8698
楽天	-11.8698
ロッキー	-11.8698
静岡市	-11.8698
黒人	-11.8698
嫌い	-11.8699
いさ	-11.8699
このように	-11.87
春秋社	-11.87
made	-11.87
初舞台	-11.8701
大作戦	-11.8702
フロア	-11.8703
多くが	-11.8703
nel	-11.8704
november	-11.8705
アイスダンス	-11.8707
麿	-11.871
麻衣	-11.871
朗読	-11.8711
北斗	-11.8712
を立ち上げ	-11.8712
スラフ	-11.8712
を吸収合併	-11.8713
慕	-11.8713
アルテ	-11.8713
トモ	-11.8714
レギュラー出演	-11.8715
食い	-11.8715
マヌエル	-11.872
嘆	-11.872
秀吉	-11.8721
フェス	-11.8722
を越えて	-11.8722
京極	-11.8722
として使用された	-11.8722
鉱業	-11.8723
revolution	-11.8724
香取	-11.8725
戦目	-11.8725
クレア	-11.8726
卓球部	-11.8727
(1989)	-11.8729
霧島	-11.873
ə	-11.8731
を中心に活動	-11.8732
小売	-11.8732
ペンシルベニア州	-11.8733
!〜	-11.8734
ander	-11.8735
ファッションモデル	-11.8735
ケルン	-11.8736
さとう	-11.8736
市立図書館	-11.8736
徳間書店	-11.8737
タイ語	-11.8739
ゲージ	-11.8739
人以上	-11.8739
touch	-11.874
ピル	-11.8741
大変	-11.8742
試合に出場	-11.8742
iro	-11.8742
しかない	-11.8743
2.6	-11.8744
鳴門	-11.8744
狩野	-11.8745
tia	-11.8746
考え方	-11.8746
ario	-11.8746
アゼルバイジャン	-11.8747
吉野川	-11.8747
することになる	-11.8748
と呼び	-11.8748
粛	-11.8749
話し	-11.8751
2.8	-11.8751
woman	-11.8752
matt	-11.8752
丸善	-11.8753
1854	-11.8754
共産主義	-11.8754
大阪大学	-11.8754
民法	-11.8754
大学を卒業	-11.8755
を決め	-11.8756
誕生日	-11.8758
where	-11.8758
week	-11.8758
mhz	-11.8759
rep	-11.8759
も担当	-11.8759
□	-11.8761
語族	-11.8761
水沢	-11.8764
三大	-11.8764
地質学	-11.8764
機動戦士ガンダム	-11.8764
[...]
